#version: 0.2
d e
e n
Ġ de
e s
o s
Ġ l
Ġ p
c i
Ġ c
Ġ a
e r
a r
o n
a s
Ġ s
o r
a l
Ġ e
a n
Ã ³
a d
t i
Ġ m
Ġl a
en t
u e
i n
r e
Ġ en
u n
Ġ y
Ã³ n
q ue
d i
Ġ t
Ġ es
a ci
Ġe l
Ã Ń
Ġ que
Ġc on
r o
i c
Ã ¡
Ġ n
o m
Ġ h
Ġ un
t a
r a
t e
i s
i d
Ġs e
Ġ f
Ġ in
o l
Ġl os
Ġ E
Ġ o
Ã ©
aci Ã³n
Ġ re
Ġ v
e c
t o
a m
d o
u l
Ġ C
Ġde l
r es
Ġp ar
r i
Ġ A
Ġ S
ad o
Ġa l
Ġc om
Ġs u
ent e
Ġ di
Ġ d
Ġl as
Ġp or
l e
Ġ L
t u
Ġ P
t er
Ġ g
Ġ (
b i
Ġp ro
ÃŃ a
m i
t r
Ã ±
a c
Ġpar a
Ġ M
Ġun a
ci Ã³n
ti c
ti v
Ġ 1
i a
m p
on es
u s
Ġ b
m a
ent o
Ġn o
t os
i z
id ad
Ġ D
a b
ci a
q u
Ġm e
Ġp er
ad a
Ã¡ s
i o
l o
Ġc u
Ġde s
ic a
u c
Ġa n
Ġ 2
al es
d a
Ã º
t or
Ġs i
u r
i l
Ġa c
i t
Ġe x
e l
t en
Ġ T
Ġt ra
Ġ R
Ġ i
m o
ad os
Ġcom o
ent es
f er
i ci
l a
Ġ I
de n
Ġes t
g o
Ġh a
Ġl o
d ad
Ġ N
i r
t es
u m
an te
Ġ res
g u
Ġ H
Ġ ti
er a
t ro
ĠE s
i v
m e
Ġm Ã¡s
Ġ F
s e
ic o
ÃŃ n
0 0
de s
Ã¡ n
c o
u es
i Ã³n
o ci
p o
mi ento
an do
ĠL a
ĠE n
b re
id a
m os
p er
ĠE l
Ġ B
Ġt o
Ġcom p
Ġ ci
Ġ G
Ġp re
t ra
c e
Ġ U
en cia
r an
or m
c u
Ġa s
al iz
Ġcon s
Ġ "
a j
aci ones
b l
c a
Ġp ue
Ġp aci
Ġs er
Ġp o
t as
id o
ci d
m ente
qu i
t ar
r as
m in
o g
p a
or es
Ġdi s
Ġ ent
Ġm a
b le
p e
Ġin f
c h
Ġ -
Ġme di
Ġa p
Ġp res
ar i
Ġ Ċ
u d
Ġes ta
i g
Ã± os
Ã© n
on al
r u
Ġ V
c ul
Ġ 3
Ġs o
ti n
) (
Ġc a
Ġm u
f ic
Ġo b
Ġ O
am bi
Ġs in
Ġc ar
Ġp r
Ġi mp
d os
in a
d uc
v i
tu di
c l
Ġp a
e mp
en e
ad as
Ġsu s
i m
ent os
) .
Ġ J
Ġ r
m b
Ã© s
Ġper s
tic a
de r
Ġm an
Ġes te
f ec
ĠS e
tiv o
t al
Ġtra ta
Ġin ter
am ente
Ġs on
en ci
ĠI n
m er
Ġso bre
Ġc as
Ġes tudi
tic o
Ġp os
g n
i e
Ġc l
Ġen fer
ti l
es ti
en s
Ġ or
Ġl e
t an
Ġpaci entes
en er
n a
ol og
er s
Ġ j
Ġent re
g un
Ġs al
p l
ÃŃ s
Ã± o
ter i
c on
bi l
Ġde b
Ãº n
ic os
or a
Ġa r
Ġ 4
Ġm o
ar io
u er
) ,
Ġp ri
e z
ar a
en do
c es
tr os
Ġa Ã±os
g a
on a
Ġa d
p os
ar ia
p or
p on
Ġt e
ec es
Ġc or
t ri
Ġh ac
ci ones
uc h
Ã³ g
p ec
Ġn i
ent a
Ġre aliz
Ġpue de
c er
Ġ 5
Ġma y
tiv a
j e
Ġ bi
ÃŃ as
Ġc ol
Ġtrata miento
ĠC on
f ici
ic as
ĠU n
an a
v en
Ġ2 0
di c
l an
m as
Ġf or
Ġ u
ambi Ã©n
e b
Ġenfer me
p i
j er
v e
olog ÃŃa
ĠL os
Ġin v
Ġme j
Ġe v
al mente
er v
ul ar
Ġn e
ti s
is te
l os
Ġm Ã©
Ġper o
h e
ro l
t ados
Ġa b
Ġh e
ĠR e
er o
Ġd os
z a
is mo
on as
n o
ue v
t om
Ġo f
Ġs ol
ida des
pe ci
Ġ ri
g an
ci p
Ġh i
b aj
g ra
Ġ us
d as
Ġre c
Ġ qu
Ġl i
ar on
Ġa u
b a
Ġ Â
Ġm en
Ġh an
j o
pa Ã±
i ones
Ġin s
f es
Ġd ur
ĠA l
r en
re c
p it
Ġ 6
Ġf un
Ġs an
Ġmay or
c ar
Ġsal ud
Ġt ambiÃ©n
ol Ã³g
Ġt en
Ġmu y
esti g
Ġpos i
Ġtra baj
al idad
Ã© r
l as
Ġl le
tr as
ĠN o
t ado
ari os
Ġm uch
Ġy a
g r
Ġre l
id os
Ġ1 9
Ġes peci
Ġn eces
p ar
qui er
Ġd a
l ic
Ġc re
d r
Ġm i
Ġestudi o
Ã³ s
da des
ti r
am os
2 0
tu ra
Ġmej or
Ġfor ma
ar rol
tiv os
g ar
Ġt an
enci as
Ġn ues
v is
Ġc o
Ġres ul
g en
ci on
Ġpaci ente
Ġc ada
Ġn uev
ti tu
Ġh ab
c ri
as ta
Ġt ras
m an
i er
ec h
g Ãºn
Ġf ue
p res
os pit
Ġp as
Ġdes de
Ġimp or
Ġe mp
ĠM e
ol or
Ġest Ã¡
r os
ad or
Ġdur ante
Ġdes arrol
Ġ Y
Ġg ener
Ġre g
Ġpers onas
Ġ 7
tic as
Ġ 8
Ġ 0
u y
z o
t aciÃ³n
d u
Ġv al
orm aciÃ³n
m Ã¡s
â Ģ
Ġ20 1
bil idad
Ġdi a
t ante
Ġenferme dad
i on
tor es
an tes
Ġ /
Ġp e
Ġcl ÃŃn
Ġin cl
am i
Ġdi fer
f ica
Ġinv estig
ad ores
ar es
ĠD e
an o
e a
Ġ 9
Ġha y
Ġpro fes
e m
o c
Ġv er
Ġto do
gu i
ĠC om
di o
l i
tic os
ar se
Ġa de
g os
ĠA n
Ġu til
Ġ2 00
u ciÃ³n
" ,
aci on
Ġpue den
Ġn os
g res
Ġri es
Ġti ene
Ã¡ l
ĠD E
Ġpro duc
Ġf in
Ġg ran
Ġs oci
ĠL as
Ġt ran
Ġb as
Ġal gun
ĠP or
ab le
Ġt u
Ġcu ando
Ġh asta
Ġm ar
Ġe fec
tro l
Ãº l
Ġdia gn
Ġpar te
Ġv ida
aci onal
Ġcu al
u ro
u en
iv el
Ġm g
Ġpres ent
Ġd olor
p ues
iv ers
C I
Ġg ru
Ġ do
ĠA s
i as
v er
c re
is ten
Ġe mb
Ġo tros
p aci
E N
Ġc ent
tu r
Ġ1 0
Ġn ivel
am il
Ġutil iz
Ã© c
p ia
Ġc er
os a
Ġv is
c as
i de
Ġtran s
a y
Ġl es
Ġd on
l am
in g
s o
Ġp u
ÃŃ an
ospit al
Ġries go
Ġ Ã¡
ci r
Ġ âĢ
Ãºl ti
E S
ami ento
Ġre ci
i b
m ac
Ġti emp
Ġob s
" .
Ġac tu
Ġac tiv
E R
ten ciÃ³n
l es
Ġc r
00 0
Ġpr in
ĠS an
ĠP ro
Ġs ÃŃn
Ġes tos
Ġa y
mi entos
ĠS al
is is
Ġpro ble
Ġto dos
Ġas ÃŃ
Ã³ lo
Ġde n
bl es
en en
Ġc an
p u
Ġpri mer
Ġm es
ti on
v o
Ġsu per
Ġbi en
Ġti po
x i
n os
p en
Ġcon trol
te c
Ġtiemp o
Ã© l
Ġs iste
O N
om a
Ġ w
Ġob je
Ġa um
O S
Ġcas o
ar go
Ġsi gn
Ġan d
Ġc ambi
A R
Ġcas os
Ġa fec
Ġmu jer
ĠS i
Ġca us
ce p
Ġa gu
Ġf amil
Ġd ÃŃa
Ġf uer
Ġhac er
t re
tor ia
di co
tiv as
Ġf ac
g ÃŃa
Ġan ti
Ġt he
Ġp es
Ġhac e
i os
Ġm is
i ta
Ġex per
c an
re cu
ici o
ÃŃ cul
Ġc al
t h
Ġcom un
Ġa Ã±o
Ġtan to
den cia
Ġprin cip
l ar
Ġdeb e
ue l
ces o
is t
Ġl u
Ġpar ti
j a
ch a
Ġv ez
Ġcomp le
Ġre f
Ġt er
Ġg r
Ġ ra
A S
b er
Ġpri m
Ġdon de
un que
Ġb aj
Ġas oci
Ġex pl
ten s
Ġp i
re a
n e
in o
ci o
Ã³s tico
Ġcon f
ĠM ar
Ġc am
en o
un to
Ġ %
Ġb uen
Ġ K
Ġtrabaj o
Ġes c
I C
ĠEs paÃ±
ch o
e g
ci s
ul a
Ġinf ec
Ġ [
f il
er on
a v
aci a
Ġper mi
tr uc
Ġf recu
di a
v ers
Ġmen os
Ġser v
al u
Ã¡ c
Ġp ol
min is
Ġ ro
Ġcon tra
Ġ Q
l u
ĠÂ ¿
is ta
un d
ter a
Ġg en
Ġn orm
Ġse c
ol a
ari as
ĠUn ivers
Ġh or
ĠC ar
Ã³ r
Ġda tos
m ent
Ġ Ã
Ġ Ãºlti
mi a
e d
ĠC u
Ã¡n cer
Ġt ener
Ġ qui
Ġal ter
Ġresul tados
Ġo tras
Ġf u
Ġest Ã¡n
Ã©c n
Ġun o
Ġ W
v an
Ġd ÃŃas
or d
Ġdi rec
ac ter
Ġc ab
Ġm un
Ġc os
pu Ã©s
y ec
cul ar
om in
h a
Ġal im
an os
Ġpor que
ĠSal ud
iz aciÃ³n
ar Ã¡
Ġpo dr
e ta
or aciÃ³n
Ġa m
Ġinf ormaciÃ³n
ti fic
Ġgru po
ci na
Ãº bl
g ur
Ġ x
Ġni Ã±os
Ġcon oci
u al
Ã¡ r
Ġg ra
ab a
Ġm as
Ġe dad
O R
Ġde f
Ġti enen
1 0
Ġm al
Ġh um
Ġrec om
Ġmedi c
A L
id as
Ġm ismo
p ro
e o
ĠP ara
) :
Ġh er
Ġimpor tante
Ã³ m
Ġor gan
o y
Ġp s
Ġpo bl
tor io
Ġm om
i or
Ġt om
Ġpro gra
Ġsiste ma
aj e
di ca
Ġus o
g re
Ġp lan
ec e
v a
r g
ul as
teri or
ĠD es
i ciÃ³n
Ġpa ÃŃs
Ġdo c
Ġc Ã¡ncer
Ġp l
Ġde re
Ġestudi os
i fic
ci as
Ġsi tu
Ġt era
Ġf orm
os o
i en
it ar
Ġt Ã©cn
ĠN e
p s
ti do
ter min
Ġgener al
Ġs ab
Ġobs erv
te g
Ġ1 2
ĠL e
Ġs ido
Ã¡l isis
Ġen con
e mos
Ġ1 5
Ġ er
Ġa tenciÃ³n
Ġsu b
Ġmujer es
Ġdiagn Ã³stico
ci onal
Ġse gÃºn
ol es
Ġe j
1 2
r on
j os
Ġo p
den te
Ġdesarrol lo
cu ent
Ġm il
Ã± a
Ġ z
Ġn a
ven ciÃ³n
Ġh om
Ġpu bl
Ġf al
Ġe t
Ġm ues
e dad
z ar
Ġinvestig aciÃ³n
Ġenferme dades
ĠmÃ© dico
tom as
ri l
Ġdes puÃ©s
Ġd l
Ġap lic
ent al
Ġe qui
ech o
a t
Ġparti cip
Ġest as
Ġm or
c ur
Ġc e
A D
ion ales
us iÃ³n
Ġen cuent
Ġsan it
en d
Ġhor as
Ã© u
bi er
Ã³ l
Ġtra v
Ġan tes
i onal
Ġse gu
m on
mer o
ĠH e
Ġcar acter
a g
Ġp la
t on
b r
Ġest ado
tri b
Ġs en
Î ¼
Ġdifer entes
Ġman era
ĠM Ã©
Ġde termin
Ġtrav Ã©s
Ġlu gar
Ġan te
as e
ta mente
Ġp ues
Ġo tro
Ġa unque
A N
ci do
ĠS in
Ġa f
tan cia
Ġt res
Ġnues tro
ĠS u
Ġm in
Ġv ol
Ġcon tin
Ġev alu
Ġf ar
ent ÃŃ
Ġmom ento
emp re
Ġ ur
en a
Ġmes es
Ãº s
i fica
Ġespeci al
Ġsol o
Ġc alidad
Ġad minis
ar c
Ġr ad
us o
1 9
oci tos
Ġmedi ante
ta c
Ġre vis
Ġcu enta
Ġa mb
Ġrel aciÃ³n
ici os
ul ta
Ġcomp ar
Ġhi per
tin a
Ġn Ãº
an cia
ĠsÃŃn tomas
am a
c om
ĠA de
Ġsi gui
ĠEs te
Ġp al
ĠclÃŃn ica
I D
os is
Ġ1 8
ol uciÃ³n
Ġpre v
pec to
Ġc Ã©l
d ro
Ġes to
m un
v as
Ġp ul
paci dad
Ġpobl aciÃ³n
Ġ1 3
ĠA r
Î¼ l
Ġs ens
m Ã¡
Ġprim era
Ġrel acion
t Ã³
Ġade mÃ¡s
c al
Ġmedic am
m is
Ġproble mas
Ġes ti
Ġpa t
Ġcons i
du cir
Ġin di
que l
Ġres pon
Ġprofes ionales
i ble
Ã³ mo
Ġap ar
Ġemb argo
Ġf ÃŃs
ĠEspaÃ± a
m ento
e t
Ġla b
ten er
ĠH ospital
Ġval or
Ġ1 4
Ġposi ble
Ġc h
ĠC h
in f
Ġencon tr
ul o
ĠAde mÃ¡s
Ġi r
ĠE x
Ġp on
Ġsi empre
Ġfuer on
Ġap ro
u da
ci al
ĠR es
Ġa h
Ġpro p
Ġsign ifica
Ġse a
ic aciÃ³n
Ġv iv
Ġto tal
Ġmuch o
Ġin dic
ĠEs ta
t ad
Ġcu r
isten cia
ci miento
Ġv en
Ġse x
di da
ĠUnivers idad
ent r
t ÃŃcul
Ġalgun os
Ġpr ue
in e
dic os
1 000
Ġr en
Ġlle v
tan tes
I N
g ue
Ġpo co
ĠâĢ ĵ
Ġt emp
ier e
Ġci ru
i f
ĠC l
Ġest ar
teri al
in as
u tri
v id
pues ta
e v
i ar
Ġf r
Ġs ue
T A
Ġp Ãºbl
Ġo tra
ent ar
Ġfac tores
Ġt r
Ġl lam
Ġi den
Ġrealiz ar
Ġci entÃŃ
Ġv ac
ĠcÃ©l ulas
Ã© tica
Ġpro ce
Ġv eces
v il
g es
t Ã¡n
Ġpro ceso
ĠA c
Ġactiv idad
Ġcer eb
Ġel lo
u mo
Ġin te
ĠS oci
Ġay ud
Ġpr Ã¡c
Ġha bi
ĠMe di
Ġcu er
Ġto das
Ġincl uy
y o
Ġes pec
Ġ3 0
ec er
Ġse gun
Ġpers ona
Ġv e
b o
pa t
I I
Ġdis min
olÃ³g ico
ÃŃ o
ra c
Ġpe que
t ada
Ġc ri
f ÃŃa
Ġobje tivo
Ġpi el
ĠIn s
Ġal ta
Ġc ul
Ġse Ã±
Ġj u
aci as
ĠT o
Ġdos is
Ġh echo
Ġade cu
b res
Ġpro yec
ri g
Ġej emp
Ġm on
Ġs Ã³lo
Ġel ec
ĠnÃº mero
ĠC ol
Ġdis tin
Ġin ici
duc ciÃ³n
Ġt ar
te ÃŃn
m or
is tas
. ,
b e
Ġqui en
Ġmun do
Ġnuev o
ĠP ar
Ġcual quier
I S
Ġv i
den tes
t s
Ġ iz
Ġ era
Ġac u
ul aciÃ³n
u ir
Ġre con
Ġa quel
Ġcon se
Ġto da
g as
Ġt al
ic al
Ġmedi o
Ġdes cri
Ġe jer
gres o
tur al
Ġcontin u
ec u
Ġ os
ci l
ab les
f un
Ġp un
Ġde tec
c os
ad r
di do
u dad
om e
te d
m ica
1 1
Ġel los
i to
Ġh is
l ec
Ġesta ble
Ġcon o
Ġe vi
ĠIn ter
Ġqu Ã©
Ġh ospital
Ġefec tos
Ġm ie
d on
tera pia
Ġa po
Ġex tra
iv a
Ġnues tra
Ġcon di
ci n
Ġpubl ic
ri m
Ġt um
Ġg u
O M
aliz aciÃ³n
Ġ19 9
Ġadminis tr
Ġ on
Ġequi po
Ġpers onal
er os
Ġor ig
Ġci er
b as
ĠU na
Ġre cu
lo b
Ġcr Ã³n
ĠV al
di ente
r al
Ġv ir
Ġ1 1
f a
Ġdi ab
Ġmu er
Ġm ic
Ġm ad
p le
Ġiz quier
f ico
ĠC a
s os
Ġmuch os
Ġnorm al
Ġes e
E C
Ġun os
pi ra
Ġa g
ĠR o
Ġtras tor
al a
Ġsoci al
Ġcuer po
E M
di s
ĠM a
Ġb ene
ĠâĢ ¢
ti dad
Ġa mp
Ġconsi der
p as
Ġsu f
Ġan Ã¡lisis
Ġ Ã³
Ġ Ã©
ent aciÃ³n
s a
Ġ ]
dro me
Ġinf orm
Ġpo der
Ġsin o
Ġci ento
Ġaum ento
Ġan al
Ġde cir
ent ras
d ÃŃa
l uc
Ġfun d
Ġrecom end
Ġv a
Ġes o
or al
Ġl ÃŃ
Ġdi f
e p
Ġ2 5
em bre
Ġre pres
Ġde j
ĠÂ «
Ġ is
ĠN acional
Ġrec ur
Ġ1 6
ic amente
ÃŃ tica
Ġprogra ma
olÃ³g ica
Ġe p
Ġc Ã³mo
Ġcu an
e x
ĠEn fer
c en
g ado
1 5
Ġfar mac
ĠD i
Ġv as
Ã¡r mac
Ġejemp lo
Ġd ar
Ġfun ciÃ³n
Ġ2 4
or ma
Ġ X
la z
e as
Ġal go
m ana
Ġserv icios
A C
ta b
Ġbene fici
o p
c or
Ġg as
Ġa van
Ġbaj o
Ġs a
Ġ Ãºn
Ġdeb er
Ġproble ma
g e
fil os
ĠM an
Ġre fer
v es
gu al
Ġn in
min a
t aciones
ĠI N
Ġmo de
Ġar tÃŃcul
Ġe duc
Ġmedicam entos
Ġ '
ue go
ma t
Ġmayor ÃŃa
Ġes p
pos iciÃ³n
Ġiden tific
Ġpres enta
tu ras
Ġm os
ĠD is
di r
Ġcent ro
i es
dos e
Ġo cas
Ġel ev
bi r
Ġden tro
Ġsi endo
Ġt or
tr Ã³
ĠmÃ© dicos
Ġemb ara
Ġdis pon
tu al
O L
ÃŃs ticas
EN T
Ã¡ g
Ġvac un
ec n
Ġciru gÃŃa
Ġs ÃŃ
Ġdef in
Ġsitu aciÃ³n
Ġf Ã¡rmac
Â »
i endo
ĠT ambiÃ©n
ĠL A
ĠmÃ© to
Ġnivel es
Ġexper i
Ġf aci
Ġpes o
Ġejer ci
z Ã³n
Ġcambi os
esti Ã³n
gur idad
Ġ Z
Ġcomp lic
Ġh oy
ĠP a
Ġf ormaciÃ³n
d an
Ġin mun
Ġh acia
Ġcol ab
ĠE N
Ġsan gre
qu il
Ġcaus a
an za
adr id
u ra
Ġagu a
ri r
d omin
ĠP re
Ġl argo
Ġcar dio
Ġ5 0
av or
tiv amente
Ġde pen
er n
Ġdi se
Ġprofes ional
Ġmis ma
Ġmuch as
ĠC i
ĠM on
Ġdeb en
Ġindi vid
Ġm us
Ãº rg
olÃ³g icos
Ġespec ÃŃ
ech a
Ġmejor ar
R A
Ġin ci
Ġes per
Ġpres encia
g ia
or me
mer ÃŃa
Ġres puesta
Ġemp le
Ġes paÃ±
ez a
Ã¡ tica
Ġ1 7
Ġi de
Ġp ad
mi l
Ġh al
iv o
ĠO r
ta miento
Ġci udad
ĠCon s
Ġm ul
i tis
Ã ĵ
Ġin cre
ĠO b
Ġmues tra
ĠE uro
Ġmi entras
1 4
ir m
ab an
Ġgru pos
T I
Ġre la
Ġp el
Ġci r
fici encia
Ġan aliz
tr an
ĠMedi cina
Ġev oluciÃ³n
i al
ĠL o
pres iÃ³n
tu d
Ġinfec ciÃ³n
Ġcomp a
Ġb eb
ĠC ent
Ġhi po
ĠC as
1 3
Ġdi vers
Ġb us
Ġfamil ia
Ġpar tir
fic os
m en
Ġres pecto
Ã¡ p
Ġcons umo
Ġqu ir
y a
Ġper io
Ġefec to
ic ar
Ġ1 00
Ġcar di
de z
Ġau tor
Ġcons ide
tiv idad
ti ene
Ġap or
ĠM adrid
ĠIns titu
ol u
ĠP o
qu ÃŃ
Ġse gui
Ġ k
is o
Ġalter aciones
Ġof re
Ġp ens
Ġbas e
Ġcu mp
Ġm ol
Ġev itar
Ġ *
i bilidad
Ġincl uso
Ġmen or
ĠS erv
Ġfr ente
b an
Ġf avor
Ġres pira
Ġpodr ÃŃa
Ġactiv idades
res pon
Ġac uer
Ġn utri
Ġmil l
Ġn om
ci os
ĠD r
ol o
Ġemp res
ĠC o
ĠP ero
x im
ar an
Ġde mos
e tes
di al
Ġv aria
Ġneces ario
ac a
Ġe con
Ġfund am
A M
Ã¡ tico
c el
Ġnuev a
Ġne ga
ti a
ĠpaÃŃs es
Ġtrata mientos
j as
: .
ĠG u
Ġlo c
p Ã©u
Ġalgun as
Ġdere cho
Ġcomp ro
Ġps ic
Ġest ra
Ġm m
Ġad ul
Ġg an
d ar
Ġa se
Ġprincip al
- -
bi Ã³
Ġse man
Ġcon ten
tens iÃ³n
di ce
g i
Ġse lec
Ġcon v
Ġes a
Ġah ora
h i
ad amente
ĠT ra
Ġpa p
Ġproduc tos
Ġinte gr
Ġse mana
Ġre ac
Ġmay ores
ĠP R
e mia
Ġal can
Ġcon duc
de mos
Ġur g
Ġdeb ido
i dente
a tro
ular es
Ġhab er
Ġinter es
f i
Ġay uda
f o
Ġpro b
ch e
r in
Ġcom er
tr ado
ĠS o
1 8
Ġz ona
Ġdesarrol l
u t
E D
Ġdiab etes
I A
Ġe di
Ġles iones
Ġpro por
Ġ4 0
Ġt ecn
C M
1 7
Ġcor rec
or o
Ġes tr
Ġdi rig
E q
Ġv ari
h o
Ġpermi te
Ġau to
ĠE S
Ġm ec
ĠCom o
p ir
Ġca p
Ġet c
Ġorgan iz
Ġsegui miento
p re
z as
es t
Ġm Eq
i mo
Ġmie mb
Ġalim entos
5 0
Ġ Ã©s
Ġes truc
Ġcons ecu
Ġf i
1 6
Ġren al
Ġca pacidad
por te
Ġci n
m g
Ġp unto
Ġy o
di miento
Ġpo ten
ĠÃ ģ
Ġpr Ã³
Ġin fer
cl us
Ġb o
Ġfrecu encia
Ġinter n
Ġsigui entes
Ġtra tar
ĠU N
Ġpre gun
Ġcon tac
tr ÃŃa
Ġcor respon
Ġes cri
Ġf ib
Ġfun cion
b in
m bi
Ġcon j
te l
Ġin t
ÃŃ t
Ġcl ar
Ġquir Ãºrg
Ġbuen a
Ġsec und
Ġab s
f e
Ġs os
Ġmedi a
ad ora
Ġpul mon
ter io
ent an
ĠP e
Ġacuer do
i des
Ġte j
Ġe pi
Ġf l
Ġcaracter ÃŃsticas
Ġin de
Ġcons ul
d or
v al
Ġfrecu ente
o bier
Ġ +
Ġin tra
Ġpro ces
Ġo cur
tor a
Ġgra ve
Ġcons titu
vi er
Ġhab ÃŃa
Ġli mi
Ġcu idad
i cia
Ġm er
Ġgr acias
Ġne uro
Ġserv icio
Ġesti m
Ġmic ro
por t
x ico
tu s
Ġap ren
ue la
Ġh id
t ales
Ġcab o
Ġp Ã©r
i tos
Ġpre cis
Ġse guridad
ĠprÃ¡c tica
ĠtÃ©cn ica
Ã± as
ĠJ u
Ġtera pÃ©u
Ġreg is
ĠJ os
it ario
ter o
Ġg ras
Ġt ri
Ġcon te
CI ON
Ġf o
Ġpre vi
w w
Ġest ad
E s
Ġal to
vas cular
Ġb lo
tin o
Ġi gual
Ġt ro
Ġhis toria
Ġpar e
Ġm Ã¡
tal idad
ac o
A P
20 20
Ġna tural
Ġsol ici
Ġv arios
ĠG ener
C R
Ġnuev os
Ġcambi o
i Ã³
Ġinvestig adores
Ġexperi encia
Ġm Ãºs
Ġde ci
Ġresul tado
Ġrealiz a
Ġgr ado
bil idades
ĠP res
ul os
Ġpre ven
Ġprincip ales
ĠsÃŃn drome
ec en
Ġcon c
Ġl ado
s on
Ġseman as
u ales
Ġor i
Ġdiagn os
el l
Ġpro v
Ġdi fic
di endo
U E
Ġencuent ra
f r
ï ¿
ï¿ ½
olog ÃŃas
oles c
Ġtom ar
Ġr Ã¡p
quier e
Ġan im
Ġayud ar
ĠIn v
m ico
Ġg us
Ġimpor tancia
Ġmill ones
Ġcono cer
y s
pat ÃŃa
ĠA d
Ġde ri
cul ares
di os
x to
in al
ri a
Ġfal ta
ĠC ON
Ġactu al
Ġma ter
gra fÃŃa
T R
Ġgran des
ĠC an
Ġi ma
Ġneces idad
Ġinf lam
ĠIn f
n i
Ġel i
f ac
Ġlo gr
Ġproyec to
Ġsuper ior
ĠC or
Ġcas i
p ciÃ³n
tor ios
Ġmuer te
Ġcuan to
pl as
Ġ ol
ĠA L
i ma
ĠAs ÃŃ
Ġprue bas
Ġfin al
ĠCu ando
Ġes paci
di fic
Ġpas ado
t adas
Ġre co
Ġv ÃŃa
Ġpro teÃŃn
r ar
cu p
il l
Ġex iste
t ando
ent ado
ĠP er
g er
Ġdi eta
t t
ific aciÃ³n
as a
ord in
tom ÃŃa
b ar
u ma
Ġpro du
Ã į
um en
uy e
Ġvir us
Ġcent ros
ĠCent ro
z os
3 0
Ġpres ente
ie bre
i ares
Ġe mo
Ġpre par
el a
Ġen s
Ġam bi
ĠtÃ©cn icas
v ar
h er
Ġcan tidad
Ã© tico
Ġpre venciÃ³n
Ġac om
Ġb a
ĠEs to
Ġmo der
Ġcor re
fici ente
Ġbi o
Ġpes ar
ĠseÃ± al
ĠartÃŃcul o
p ti
% )
Ġt a
Ġinter venciÃ³n
Ãĵ N
fic as
ĠÃºlti mos
Ġmedi das
Ġf is
ĠE L
obier no
Ġpro gres
2 7
ter al
Ġcu atro
Ġun ivers
mi o
Ġ ru
Ġser Ã¡
Ġn ada
on o
Ġj unto
Ġl ÃŃn
Ġman tener
Ġcu id
Ġan terior
re as
Ġecon Ã³m
Ã©r ica
Ġrealiz ado
ĠInstitu to
Ġsi mp
Ġc el
Ġsen tido
Ġcons ulta
og ra
Ġt Ã³
Ġp an
or n
Ġnuev as
A T
Ġn aci
Ġins titu
Ġamb os
ĠÃºlti mo
Ġh ospit
ĠInv estig
ĠclÃŃn ico
Ġin tens
gu ir
Ġman ten
ĠfÃ¡rmac os
Ġes f
co h
t Ã¡
tr Ã³n
Ġni Ã±o
it y
Ġad olesc
t ÃŃn
Ġcondi ciones
Ġl ec
acion ales
Ġc la
tic ular
Ġcl as
da p
Ġh ora
! !
Ġespeci almente
Ġhom bres
Ġejerci cio
Ġdes ta
Ġman i
de ra
it h
ĠpÃ©r dida
Ġpr on
bi a
Ġrad io
Ġce le
g ada
Ġt ab
ac e
per aciÃ³n
ri o
Ġ Ã©l
s i
Ġins u
Ġman e
Ġsegu ir
ac to
Ġnues tros
I L
Ġ2 2
ĠL u
Ġpap el
om as
f al
pues to
ie dad
Ġpres iÃ³n
Ġhe mo
Ġconoci miento
Ġsab er
re z
aliz ado
ari ciÃ³n
ĠfÃŃs ica
Ġmad re
Ġcon trib
ĠT ras
Ġli b
ta ble
Ġen c
di Ã³
c ado
ac teri
Ġexpl ic
Ġde cis
ĠP aci
Ġob ten
i bles
Ġcom bin
olÃ³g icas
ĠEspaÃ± ola
Ġsoci ales
gu ra
Ġmin u
Ġcomp ren
ĠCl ÃŃn
Ġtera pia
is mos
Ġdes a
cid os
it al
Ġf lu
ĠM in
n as
pi os
ĠT he
Ġde r
2 00
Ġpad res
Ġapo yo
tr ica
Ġcu ad
Ġref iere
o d
Ġser ie
Ġcompa Ã±
cul o
ĠV I
Ġpro mo
Ġa Ãºn
i te
p h
ul tad
ĠÃ¡ rea
Ġpers on
g l
ens a
Ġhe mos
Ġp ie
Ġob es
tor ias
Ġv ar
Ġh u
Ġacom paÃ±
Ġcons erv
Ġalgun a
xi mo
ic ular
mi r
Ġconside ra
Ġmode lo
tes is
i den
Ġex tre
Ġe fic
Ġun as
2 4
Ġorig en
Ġdes cu
ĠM un
teri os
U L
ent ales
al l
Ġf iebre
Ġmedi da
Ġproduc e
Ġfac tor
Ġl ig
orm ente
Ġa dap
Ġmo do
ĠcrÃ³n ica
ĠEs tudi
Ġcos as
. -
ĠGener al
Ġ% :
Ġre ducir
Ġsign os
Ġembara zo
Ġar terial
pos i
Ġel la
Ġcom Ãºn
Ġexper im
ti tis
pec tos
Ġpar ece
Ġep iso
Ġtrastor nos
Ġb lan
Ġdoc um
Ġre v
ĠJ o
ul s
Ġcereb ro
Ġel em
Ġ2 8
Ġprue ba
truc ciÃ³n
t ÃŃ
Ġmor talidad
Ġsi g
Ġmo vi
ĠD ur
ĠCom un
Ġal gÃºn
L a
Ġcomplic aciones
Ġex isten
Ġ6 0
Ġevalu aciÃ³n
aliz ada
Ġeli min
Ġtr ad
m ar
Ġo c
Ġre al
Ġaplic aciÃ³n
ĠF ran
Ġ Ã³r
Ġesta bl
ĠclÃŃn icos
Ġprev al
Ġestra teg
Ġdi cho
ĠDes de
Ġindivid u
Ġpa de
ci ente
Ġal coh
Ġlle gar
ĠÃ¡ mbi
Ġmedi cina
v ir
Ã© ticos
ĠSe gÃºn
Ġ2 3
Ġcu ales
ĠEn tre
Ġimpor tantes
ĠJos Ã©
Ã± ana
ti z
Ġac er
ca pacidad
ĠQ u
E P
Ġref le
Ġpulmon ar
g io
Ġa mi
Ġa ten
Ġcon ta
Ġ2 6
teri ormente
Ġrealiz Ã³
Ġd om
ol ar
Ġcom en
Ġaquel los
t Ã³n
Ġv an
ĠF und
Ã³lo go
ur os
Ġqu er
Ġbaj a
Ã ĥ
Ġin icio
is l
Ġ Ãº
Ã¡n dose
Ġb ar
Ġsu pon
ent as
n ea
Ġrecur sos
Ġte ma
ĠCon se
Ġper man
Ġconc entr
Ġsegun do
tic amente
ene mos
Ġsoci edad
Ġrespon s
an til
Ġadministr aciÃ³n
ĠAs oci
ac h
ĠM o
Ġw ith
O C
iz o
Ġus u
Ġdiagnos tic
ens iÃ³n
ĠR ec
Ġne u
Ġpo demos
Ġin d
ic h
Ġt ama
Ġ ÃŃn
Ġ =
Ġv ia
Ġpro fun
Ġme tab
Ġti pos
ĠMÃ© xico
Ġa z
Ġcas a
Ġdere cha
_ _
Ġres to
Ġfarmac Ã©u
Ġpresent an
ĠServ icio
Ġrecon oci
ĠSan idad
Ġ2 1
Ġadul tos
Ġac ceso
Ġllev ar
Ġac ep
ĠA unque
iv os
Ġest re
Ġas pectos
Ġ2 7
Ġens ay
Ġpol ÃŃ
Ġdifer encias
or te
Ġor al
Ġdesarrol lar
ĠSoci edad
ĠmÃ© dica
in ar
ce dentes
Ġap ariciÃ³n
Ġinfec ciones
Ġcre cimiento
Ġprob able
ra mi
ĠEs tados
Ġin gres
Ġin icia
Ġreg iÃ³n
ra g
v iv
ÃŃs tica
ĠA C
Ġcontac to
ic e
par ta
al th
Ġm Ãºlti
di entes
ĠM i
Ġde m
it aria
Ġmej ora
Ġab domin
Ġhal laz
Ġle g
tu ro
I O
r ada
il la
d al
Ġnom bre
ci Ã³
d om
Ġpro tec
ĠC al
Ġf Ã¡
t Ã©
ĠUn idos
Ġinde pen
Ġfaci l
Ġincl u
on e
Ġfu era
port un
Ġizquier da
ol er
Ġval ores
tan cias
Ġreci b
Ġen er
Ġcon cep
Ġel las
I M
Ġcam po
n es
2 5
ci ales
Ġmec an
Ġesf uer
iz a
er vi
er as
on ces
Ġf e
us tri
Ġb Ã¡s
Ġmul ti
Ġv arias
que tas
Ġderi v
Ġcomun icaciÃ³n
Ġj un
l io
Ġin cor
Ġac ciÃ³n
l la
inf ocitos
Ġpl ante
pi as
ch os
Ġdif ÃŃ
Ġdoc tor
me dia
Ġin greso
d in
tr ic
Ġmo dific
r Ã¡
p an
Ġma Ã±ana
ur as
Ġtama Ã±o
Ġinter Ã©s
Ġfamil iares
Ġprimer os
IC A
Ġrecom ien
Ġpla zo
Ġcol or
c ent
ĠDi rec
g Ã©n
ĠDur ante
m ol
r era
u do
Ġcin co
j us
Ġl uego
ven es
ĠEs tos
k e
ti o
Ġpas o
ĠJu an
un ca
/ /
Ġs es
b ra
Ġin tes
Ġsu je
Ġcon cl
ĠA S
Ġfamil iar
Ġel ab
arc ÃŃa
aliz ar
Ġo bl
Ġf ase
or ÃŃa
Ġdis trib
% ,
Ġpos t
Ġre alidad
ĠC ir
it as
Ã¡ bi
Ġa us
Ġt oma
an as
Ġc og
Ġa t
Ġevi dencia
Ġt Ã©r
to c
Ġf il
Ġex pres
Ġpat ologÃŃa
ĠmÃ©to do
Ġl ar
Ġo portun
Ġher rami
i re
is ti
ĠS E
Ġencontr ar
tr ar
Ġizquier do
an ci
Ġ19 8
Ġl en
Ġpon er
Ã³ venes
de mi
Ġminu tos
Ġg luc
Ġter min
Ġor den
il ar
Ġpo d
Ġp en
7 2
Ġsuper fici
I T
Ġt enemos
Ġneces idades
os as
CI ÃĵN
Ġv ita
ĠC O
Ġapro xim
ĠM u
Ġsue Ã±o
tur ales
z ada
Ġcon ci
gen es
tis mo
Ġinci dencia
ĠpÃºbl ica
: //
u p
qu es
Ġsegun da
Ġocas iones
Ã³ filos
ĠA m
Ġcon cre
Ġnin gÃºn
Ġvaria bles
Ġutiliz ar
ĠlÃŃ qu
Ġan s
Ġdes e
ci da
Ġent onces
Ġm ÃŃn
Ġcomp on
C O
f orm
Ġan tic
Ġhac en
Ġhum ano
j u
Ġn ervi
Ã¡n d
E l
ĠÃ³r gan
ti dos
% .
ĠH a
z ado
p es
arc el
Ġd ado
z ol
Ġcomp or
ma to
Ġten dr
Ġase gur
Ãºbl ica
Ġcri terios
ĠF ac
Ġdes con
Ġti en
Ġima gen
Ġcaus as
Ġg l
Ġpresent ar
Ġmej ores
Ġabdomin al
Ġv ig
Ġinsu ficiencia
Ġ8 0
Ġj Ã³venes
i ente
Ġproces os
Ġurg encias
Ġalcoh ol
ĠG arcÃŃa
p m
Ġsigui ente
ĠNe u
Ġdes car
ci endo
Ġes tu
ĠMin is
Ġpue da
Ġli ber
Ãº a
un ta
ern Ã¡n
esti on
Ġla c
Ġpos terior
Ġ )
iz ar
ens o
Ġagu da
ÃŃt ulo
ĠN a
Ġde dic
Ġinfer ior
Ġg lob
Ġnin gun
cion ar
Ġpres idente
Ġg aran
Ġn acional
6 8
Ġpues to
Ġ2 9
Ġposi bilidad
ĠFund aciÃ³n
Ġh tt
Ġcuad ro
ĠI I
o x
Ġproduc ciÃ³n
Ġp Ã¡g
T E
Ġsanit ario
ĠA tenciÃ³n
Ġreci ente
Ġlab ora
j ar
Ġefic acia
v enci
Ġal er
Ġau tores
b u
tu almente
cul os
Ġg estiÃ³n
I R
Ã± ad
Ġe ta
or ar
Ġrad i
ac es
ĠP la
Ġcele br
arcel ona
vis ta
ĠB ar
ĠN av
Ġb acteri
Ġin h
Ġmani fes
Ġo x
ĠÃ¡mbi to
ĠT A
b ado
Ġacu de
Ġobl ig
Ġtrastor no
Ġimp lan
Ġpal ab
Ġeduc aciÃ³n
ec ciÃ³n
tom a
ĠC am
Ġsanit arios
de dor
Ġhi jos
Ġprogra mas
ĠAsoci aciÃ³n
g el
Ġval oraciÃ³n
Ġre le
mis iÃ³n
Ġcolab oraciÃ³n
Ġexpl ica
Ġobes idad
Ġcuidad os
di z
ici dad
Ġal l
3 3
ora zÃ³n
Ġconse guir
r ad
min o
ĠH ay
Ġesta ba
Ġles iÃ³n
ernÃ¡n dez
Ġv uel
Ġle ve
tr ico
Ġencuent ran
Ġdes tac
ĠT e
teri ores
Ġse cre
Ġ3 5
Ġrevis iÃ³n
i miento
) ;
pues tas
qu is
bil it
Ġtum or
Ġre ducciÃ³n
Ġe co
Ġh Ã¡bi
Ġcomp e
Ġbenefici os
ci ona
Ġrefer encia
tr al
ĠG ran
ĠM or
vis iÃ³n
Ġcur so
gr Ã¡
ĠA D
Ġperio do
i le
ĠP s
7 0
Ġm ens
Ġhay a
ig n
ĠP ue
Ġpro vo
Â ¿
Ġin tro
Ġprim aria
tin g
Ġimp lic
Ġsi mi
ĠEuro pe
ĠA P
ar d
Ġsa tis
ur al
m icos
Ġg ente
ps ia
Ġcab eza
Ġpun tos
Ġj us
0 4
Ġvis ta
Ġde por
Ġhum anos
Ġhi jo
Ġmiemb ros
Ġfrecu entes
in os
Ġamp li
ra x
Ġdiagn Ã³s
ĠP al
Ġer an
i ores
ĠF echa
Ġre cep
xi ma
Ġcom ien
Ġdom ici
Ġa di
Ġf eb
ar ra
m entos
Ġestr Ã©s
Ġconstitu y
Ġcuid ado
Ġmedi os
pl es
Ġf ru
Ġdismin uciÃ³n
Ġpor cent
en os
Ġv o
ĠF ar
Ġquien es
ĠfÃ¡ cil
Ġw eb
Ġsiste mas
Ġex ter
Ġm ental
Ġpre o
Ġm io
Ġn unca
ĠMar tÃŃn
l ica
ĠCir u
2 2
Ġf rac
Ġt h
parta mento
Ġmane jo
tiv e
ĠB arcelona
ĠlÃŃn ea
ĠEnfer merÃŃa
Ġespaci o
Ġpreval encia
ĠmÃ©to dos
c lo
enci al
ĠJ a
ĠÃ¡ reas
Ġs ome
Ġd in
Ġfin anci
ĠEnfer me
Ġpl ac
Ġo fici
3 8
Ġen ti
Ġten go
Ġconten ido
Ġorgan ismo
tar se
ĠA u
ĠA b
Ġcor por
ol e
Ġhabi tual
tr aciÃ³n
r is
. )
ist ente
ĠMar ÃŃa
Ġre un
Ġdej ar
Ġ3 6
im ismo
Ġv ers
Ġobje tivos
ĠÃ© xi
Ġp ier
Ġh orm
Ġac on
Ġhe p
Ġent or
Ġte le
ĠS er
Ġse an
ĠÃ į
Ġpri v
aj es
l ante
Ġv ÃŃ
Ġco ordin
Ġpreven ir
Ġd Ã©
ru po
Ġcon tr
ĠL i
ĠB o
T O
U R
Ġtej ido
ĠRe f
Ġob tener
ĠRe g
ĠF e
ĠP AR
aj o
Ġrelacion ados
tr um
Ġli bre
Ġimp res
Ġfu turo
Ġimp acto
Ġ7 0
Ġ9 0
Ġnos o
Ġex posiciÃ³n
l er
Ġesc uch
Ġans iedad
Ġt os
ĠdifÃŃ cil
U S
Ġdirec tor
Ġex am
Ġt us
Ġcom ent
Ġle y
Ġb an
un a
Ġasoci aciÃ³n
Ġmis mos
tar io
ir ma
Ġconte xto
Ġdistin tos
Ġre d
Ġcereb ral
Ġpar ticular
Ġg ri
Ġcent ral
3 6
Ġn um
ĠT i
tar on
Ġlen gu
uc ocitos
c Ã³
Ġs om
Ġbas al
ent s
ĠP rim
Ġalim entaciÃ³n
Ġen do
ici ones
ĠCu ba
Ġcump l
ĠQ UE
Ã© mica
re dedor
Ġ ul
Ġsu p
E L
Ġpa u
ĠE C
is iÃ³n
ĠÃ³ se
g lob
tion s
ĠF C
Ġlab or
Ġpro ducir
iz ado
Ġenfer merÃŃa
Ġad vers
Ġdifer encia
Ġrealiz aciÃ³n
gue z
D A
ĠD ia
Ġparticip aciÃ³n
Ġlu z
Ġsue le
ĠclÃŃn icas
4 0
b ol
Ġent en
trÃ³ filos
cl ar
Ġdis posi
Ġa isl
Ġprop io
Ġper ÃŃo
Ġform as
no v
Ġproduc to
ĠPaci ente
Ã³lo gos
Ġemp ez
Ġsanit aria
Ġsimp le
gu ÃŃn
Ġo per
Ġante cedentes
Ġbi la
i ado
ul io
on z
dic as
Ġcu b
te o
ci pl
ĠG r
Ġproce dimiento
Ġma gn
Ġcomun idad
Ġde presiÃ³n
cion ales
Ġdi ce
Ġsex o
gen o
r ero
tar ia
ĠÃºlti ma
clus iones
Ġpue dan
gra ma
ĠS a
l y
Ġcor on
Ġman o
Ġafec ta
ne t
om ÃŃa
Ġsec tor
i mos
Ġmen ores
Ġtar de
Ġsex ual
fer encia
Ġpro pia
Ġvi ol
me dio
ĠB i
ĠÃį n
Ġsitu aciones
Ġa jus
ĠCar los
0 3
Ġab or
Ġtras pl
gr ado
ier on
Ġop in
Ġ <
ĠS on
Ġf um
v ÃŃa
Ġdes p
Ġalter na
Ġexper tos
ĠP ol
Ġc orazÃ³n
Ġincor por
ĠpÃºbl ico
Ġsimi lar
ĠG obierno
Ġcar a
Ġposi bles
Ġnoso tros
Ġrel aciones
e os
Ġque d
Ġdur aciÃ³n
Ġca pa
Ġcomp ues
ĠE v
Ġtum ores
ul ina
Ġactu alidad
ĠVI H
Ġg Ã©n
Ġten ido
Ġa quÃŃ
il a
Ġfundam ental
ĠP os
ĠH i
Ġdemos trado
ĠInvestig aciÃ³n
Ġa Ã±ad
ĠÃºn ico
Ġrecomien da
Ġinf orme
ĠD ÃŃa
Â Ń
Ġno che
me tros
x ic
Ġcar dÃŃa
cul a
Ġs ac
Ġper fil
se Ã±
ĠfÃŃs ico
ĠMun dial
Ġm ama
ĠÃįn dice
Ġac ci
ter ol
0 5
Ġal um
Ġar tic
Ġhallaz gos
ĠD eb
to p
Ġinf antil
Ġin media
Ġanim ales
Ã ¼
Ġac e
Ã §
ar to
ĠMinis terio
le z
' ,
Ġneces ita
Ġpr os
Ġcardio vascular
ĠEuro pa
Ġanti biÃ³
tu bre
2 1
Ġdis f
ĠP lan
Ġconj unto
g on
Ġsus titu
Ġinf lu
? ?
Ġl inf
ĠL infocitos
mÃ¡ tica
Ġsens aciÃ³n
Ġcon ver
Ġadolesc entes
ĠI C
ĠÃ©xi to
e ar
Ġfun cional
Ġmo tivo
vi eron
ÃŃcul a
Ġser ÃŃa
Ġh aci
ĠÃº til
Ġcol on
Ġintern acional
Ġind ustri
Ġmedicam ento
Ġespecial ista
7 6
Ġz onas
Ġpre co
Ġadecu ada
rol Ã³g
ĠÃ¡ cido
Ġconf irm
ĠN O
Ġinter ac
l on
Ġma terial
ĠCiru gÃŃa
ch as
Ġclar o
Ġs uel
âĢ ĵ
Ġcog ni
ri Ã³
ĠB uen
Ġes os
ĠRes ul
Ġres pec
ci dad
Ġca teg
2 3
ĠespaÃ± ol
ist entes
ĠC OM
U N
Ġpodr ÃŃan
Ġg es
Ġsos pec
Ġb ron
Ġde tal
Ġdi cha
Ġlab oral
Ġmar cha
Ġevalu ar
Ġd or
ĠP CR
Ġhom bre
Ġhab lar
Ġd omin
Ġpublic ado
Ġlo cal
Ġer r
ĠUn idad
Ġdi jo
Ġ3 3
Ġprimer o
Ġt es
p ara
Ġre duc
en ti
de l
ĠOr gan
Ġ #
ĠcientÃŃ fica
Ġactu almente
ĠproteÃŃn as
Ġa bier
Ġvis iÃ³n
il lo
ici p
Ġestudi antes
Ġdis capacidad
2 6
Ġcla ve
Ġcr isis
Ġsu ficiente
ĠClÃŃn ica
o f
iste ma
Ġm am
ĠR a
Ġas isten
Ġse is
Ġal rededor
Ġman os
Ġins trum
quil ib
Ġgra ves
V ID
ĠU rg
tin al
enci on
ĠAl gun
im er
Ġinf l
Ġg o
cep ciÃ³n
ti onal
Ġofre ce
Ġre pro
. .
Ġas pecto
M A
ĠNeu trÃ³filos
Ġtemp era
Ġadecu ado
Ġsol u
en ce
Ġ3 1
ti enen
Ġten ÃŃa
d L
Ġl l
it an
Ġ201 0
den cias
Ġdistin tas
ĠInter n
qu er
Ġa tra
ĠB as
ar Ã¡n
Ġrevis ta
lo gÃŃa
h id
ĠA le
Ġhiper tensiÃ³n
Ġesta mos
k in
pe z
ĠPro teÃŃn
Ġsu r
ĠmÃºlti ples
O T
ĠG onz
A U
ĠA N
Ġaum entar
ĠOb s
Ġlle va
ti Ã³
Ġ9 5
2 8
it ro
Ġprev io
Ġcol ec
m acia
Ġsig lo
Ġf a
tin ina
Ġa ta
Ġtro mb
mer ic
Ġter ri
Ġincluy e
Ġex cel
Ġsatis fac
m es
Ġlib ro
Ã³l ica
Ġvol un
til la
Ġsin tom
Ġh o
Ġentor no
Ġcier to
7 5
Ġf en
Ġsi gue
Ġe uro
ĠMon ocitos
ar lo
venci ones
P S
Ġsan guÃŃn
Q u
Ġes cas
Ġ201 2
I V
Ġdetermin ar
r ido
qu ia
Ġas istencia
Ġl uch
or ÃŃas
Ġ >
dr ÃŃ
Ġrespira toria
am er
ĠcientÃŃ ficos
Ġde mÃ¡s
Ġv entr
ĠConse jo
Ġporcent aje
Ġ il
titu d
Ġden omin
Ġdivers os
Ġus ted
Ġ3 4
Ġsol uciÃ³n
Ġre du
Ġp rac
Ġte mas
Ġhospit ales
Ġsu g
Ġt asa
i tor
Ã¡ ci
Ġcomple ta
ges ta
tÃ¡n ea
Ġs enci
re g
E T
ĠH ab
Ã £
Ġcomun ic
Ġeduc a
I B
Ġener gÃŃa
Ġe ti
Ġcomp rim
tor ial
u ido
Ġtu vo
cri pciÃ³n
Ġd Ã©c
ĠAs imismo
Ġhe mor
Ġrecomend aciones
Ġobs tante
Ġelem entos
ĠLe y
Ġblo que
Ã ¨
Ġs ist
Ã³g eno
Ġpro teg
Ġprotec ciÃ³n
ĠÂ ¡
Ġparticip antes
ĠI s
Ġac ciones
Ġempres a
ĠUnivers itario
Ġor ina
Ġespecial istas
Ġries gos
um on
Ġ3 8
a u
Ġe uros
Ġt oler
Ã© mico
E n
bi o
ti da
Ġju g
Ġh ist
Ġgras a
ami entos
Ġins tal
gu en
Ġ ran
ĠEstudi o
Ġacer ca
Ġda Ã±o
Ġm it
Ġf er
Ġaproxim adamente
Ġre pe
Ġper ten
o C
Ġm l
Ġent ren
ĠN uev
Ġconsecu encia
uy en
Ġprev ia
ĠNe uro
Ġal ar
Ġde man
Ġpas ar
tas io
Ġdescu b
i entes
Ã£ o
Ġprov oc
Ġprincip almente
Ġglob al
Ġh izo
Ġrecu er
Ġtras l
ĠUrg encias
Ġp las
p ica
ĠLu is
quier en
Ġti t
Ġestruc tura
ador as
Ġin dica
ĠperÃŃo do
Ġas es
Ġlle g
Ġreci bir
ĠT a
Ġorgan izaciÃ³n
z an
ier en
ĠSoci al
Ġa ire
Ġcorpor al
Ã¡ ticos
Ġci f
Ġvalor ar
Ġemp e
Ġpeque Ã±os
Ġpreco z
Ġ3 7
tu ales
u b
Ġpat ologÃŃas
M S
ĠCol om
am po
z Ã³
Ġapo y
Ã¡c ter
ues tra
ĠI II
Ġ201 1
Ġrepres ent
ĠY o
ran a
k s
Ġhe pa
ĠEs tado
Ġfamil ias
glob ina
Ġresul ta
Ġempres as
ec re
Ġhab l
Ġest Ã©
Ġidentific ar
di mientos
Ġen car
cri to
Ã³l ico
Ġ200 9
Ġli mp
Ġtrabaj ar
mÃ¡ genes
ĠI mp
mi te
Ã¡ m
ĠHe mo
Ġ201 3
Ġmejor ÃŃa
Ġrec ord
Ġcer ca
Ġnorm ales
Ġningun a
Ġproyec tos
8 0
ogra fÃŃa
Ġb ra
Ġmar c
ĠL D
Ġrespons able
Ġcardi aca
ĠA g
Ġb or
Ġre quiere
Ġdi g
es tes
Ġh ig
Ġd ro
a te
mer g
Ġaum enta
Ġdetec ciÃ³n
Ġ201 5
Ġpue des
Ġprincip io
Ġestabl ecer
Ġpar tes
E G
fica z
Ã¡ lez
Ġfun ciones
b ina
2 9
Ġfuer za
ol id
Ġcir c
Ġ q
Ġpo p
Ġlabora torio
Ġen seÃ±
Ã³ mi
Ġ4 5
Ġri t
Ġsi m
ĠD er
Ġincre mento
Ġmay o
Ġeuro pe
Ġten ÃŃan
al e
Ġmovi miento
Ġdi ci
Ġcar Ã¡cter
IC O
Ġpas a
Ġaus encia
Ġpeque Ã±o
j an
Ġpro lon
Ġdise Ã±
Ġelec tro
Ġinter pre
ĠV er
p ens
H g
Ã©r g
Ġpermi tir
Ġpro toc
drÃŃ guez
r ado
Ġconoci mientos
7 9
amer ic
Ġsuper viv
aj a
Ġtecn ologÃŃa
id ores
Ġen ero
Ġper fec
Ġus ar
ĠO n
Ġne ur
Ġ200 8
Ġ201 4
Ġasoci ado
c era
Ã© is
un ci
Ġu b
c ciÃ³n
ĠC H
Ġelec trÃ³n
ĠAn ton
Ġesto y
ĠPrim aria
vi embre
ĠM uch
ha bilit
Ġrepres enta
Ġprov in
Ã³ pez
Ġasoci ada
cl er
mat ologÃŃa
r ic
Ġj ue
Ġide a
eb ril
ĠQ ue
b lo
Ġutiliz aciÃ³n
Ġver dad
Ġposi tivo
n al
ĠEs c
me tro
ĠS istema
ĠEs tas
Ġinici al
ENT E
mer os
Ġepi demi
r Ã³
8 6
Ġprop ie
Ġpare ja
Ġcam paÃ±
Ġf em
O G
if ies
Ġpro ba
Ġcon ven
ulta des
Ġ â
Ġhab ÃŃan
ĠÃºn ica
V I
aliz ados
Ġin yec
Ġesfuer zo
Ġvacun a
Ġp in
Ġi mÃ¡genes
ĠH er
8 2
u re
Ġa gra
tr icos
ros is
Ġposi ciÃ³n
qui era
ĠG rupo
Ġasoci ados
Ġun idad
Ġter cer
Ġsuel en
C A
ues ta
Ġbien es
ĠP Ãºblica
Ġmiemb ro
Ġo jos
Ġf on
ÃŃ do
6 0
Ġpreo cup
Ġdivers as
Ġvol umen
Ġe ficaz
ĠCon greso
car di
I n
p aciÃ³n
8 5
Ġdici embre
Ġqu ÃŃ
ac eta
pti embre
Ġas i
ĠE duc
Ġap re
di eron
to d
Ġinflam aciÃ³n
en as
Ġexpl oraciÃ³n
Ġres istencia
Ġcolab or
ĠRef iere
mil ares
Ġinv as
Ġal e
Ġjun io
v era
ĠDE L
Ġv Ã³mi
di Ã¡
Ġde terior
Ġedi ciÃ³n
ĠM Ã¡s
dom en
an ce
Ġv ent
Ġamb as
ĠIntern acional
el lo
mis o
ran e
Ġinter ior
ĠD a
Ġde clar
ĠGonz Ã¡lez
T ER
Ġsupon e
Ġpresent aciÃ³n
bl io
Ġutiliz a
uer ra
in s
Ġhaci endo
Ġin gesta
Ġres pe
O D
ĠRo drÃŃguez
Ġdi ar
Ġvita mina
Ġpel ig
Ġ201 6
Ġf echa
Ġcons iste
Ġin nov
ĠhÃ¡bi tos
Ġenfer mos
Ġt ales
os in
Ġlogr ar
ĠartÃŃcul os
Ġmar zo
Ġb ol
Ġman ifies
Ġel eg
es e
ĠAn te
Ġdefin i
d l
Ġindepen diente
Ġpos e
Ġob ra
Ġselec cion
Ġl um
Ġra z
Ġcre a
es ta
Ġalim ent
Ġobje to
Ġd ud
de mia
Ġ200 7
diz aje
i anza
Ġcompar aciÃ³n
Ġb al
ti ble
ÃŃ tico
Ġj o
Ġpul m
Ġc erv
Ġt ur
Ġre ce
Ġme mor
t y
en de
ĠResul tados
Ġrele v
Ġnues tras
A B
Ġn as
ĠD oc
Ġj e
Ġe de
tri z
Ġh ÃŃ
Ġcons um
Ġsi r
Ġpre ten
Ġprofes or
Ġmit ad
c r
Ġlec he
U M
Ġf el
ĠÃ³rgan os
ĠL Ã³pez
Ġoc tubre
g aciÃ³n
P A
Ġcon tiene
or k
Ġadminis tra
ĠÃŃn dice
Ġev olu
P R
Ġ200 6
3 5
Ġe qu
ac er
Ġdere chos
Ġmues tras
Ġcol eg
Ġaum ent
tri tis
Ġsignifica tiva
Ġsuperfici e
Ġpa ti
Ġd uda
pos o
Ġdistrib uciÃ³n
Ġhtt p
Ġrecon o
Ġ7 5
ĠfÃ¡rmac o
Ġpre domin
ĠEs peci
Ġfo to
Ġambi ente
iz ada
Ġ4 8
Ġsens ibilidad
Ġcre o
an d
ta gon
Ġequi pos
Ġre por
Ġrelacion adas
Ġmus cular
Ġpalab ras
g in
Ġsus tancias
a p
t Ã¡s
vas culares
co pia
Ġtoda vÃŃa
Ġra zÃ³n
Ġrespon sa
ĠD el
Ġreg ular
ĠA cu
Ġestrateg ias
olog y
Ġ quiere
Ġcompor tamiento
ĠT or
Ġincluy en
Ġc m
Ġtrabaj os
Ġproduc en
Ġmas a
Ġdific ultad
Ġeta pa
Ġpol ÃŃtica
% ),
Ġbas tante
Ġcomple to
Ġdes emp
Ġfuncion amiento
Ġproce dimientos
Ġincre ment
Ġh ues
Ġhum ana
Ġsab e
Ġab ril
Ġcon tar
Ġt el
ta mos
Ġl on
Ġa gres
Ġdisf ru
N A
ÃŃs tico
Ġen fr
Ġtej idos
Ġsu rg
Ġinter venciones
Ġmedic aciÃ³n
Ġac um
Ġins ulina
ĠOb je
Ġex ig
Ġepiso dios
8 1
Ġconoci do
Ġj orn
c us
Ġsen tir
ĠÃ© po
Ġm encion
Ġcono ce
Ġma teri
e tas
Ġa do
Ġex istencia
Ġar ri
Ġmer cado
ĠA R
ĠA h
ĠAd minis
Ġten ga
ĠColom bia
] .
Ġmo vil
z adas
Ġmater ia
Ġemo cional
Ġusu arios
Ã© rez
min aciÃ³n
Ġmuch a
Ġe quilib
Ġres i
Ġvol ver
v ia
Ġalter aciÃ³n
ampo co
ĠmÃ¡ ximo
Ġsuperviv encia
ĠT C
Ġt est
Ġbeb Ã©
Ġneu rolÃ³g
Ġsi milares
c le
ĠV P
ĠT er
Ġmetab ol
Ġnum eros
Ġm uc
Ġcol es
f or
uc le
s al
ĠP h
-- --
Ġocur re
gl Ã©s
Ġcel ular
Ġmun dial
Ġci clo
Ġex p
Ġesp era
Ġesc ala
ĠF in
Ġmues tran
Ġ3 2
Ġdirec tamente
ig a
he imer
f ia
Ã¡n ica
da je
Ġen ci
Ġb e
ĠC rea
Ġc ru
Ġs or
Ġdis nea
ĠcientÃŃ fico
Ġtra tados
Ġgen es
Ã ģ
o k
Ġensay os
Ġespeci es
ĠR u
qu ir
Ġin con
Ġ Ã¡n
tar ÃŃa
Ġbuen o
Ġp le
Ġps i
P T
ĠO s
or i
aceta mol
Ġre par
ĠS us
Ġdecis iones
7 1
Ġac tiva
Ġhid ra
Ġinh ib
Ã ł
Ġcontrol ar
Ġv in
ti m
ar e
ĠproteÃŃn a
it Ã©
uel lo
Ġd ol
men es
aliz a
om Ã©
Ġencon tra
Ġcu estion
ĠComun idad
ĠR ad
Ġ6 5
om o
Ġdomici lio
Ġ201 7
Ġm ac
Ġsu ce
Ġcu yo
Ġv es
Ġb en
ĠAnton io
Ġd an
ti cia
3 4
z heimer
Ġde mas
Ġse par
n er
in ec
ĠP A
Ġno viembre
Ġcompe ten
Ġesti lo
ĠMu jer
Ġsegu ro
ĠCi encias
tis ta
ĠG al
Ġvis ita
Ġse ptiembre
Ġ200 5
ĠMartÃŃn ez
Ġdetec tar
aci Ã³
ĠCol eg
ĠNav arra
Ġtab aco
Ġci encia
Ġobserv a
ĠP OR
Ġtemp or
ch ez
Ġreg res
Ġfuer te
Ġinflam a
gui en
c ol
osin Ã³filos
Ġun idades
Ġam or
or amiento
Ġvas cular
Ġcomp os
ĠLe ucocitos
AD O
Ãį A
Ã³m ica
Ġen vi
ci pios
TI V
m s
S A
Ġf le
Ġmun icip
eb o
Ġrecu per
ĠI V
Ġes pon
ĠS ol
Ġce fal
ÃŃ amos
Ġdifer ente
Ġde pres
ĠC r
Ġhi p
al o
9 5
Ġinf orma
Ġf ab
Ġpresent ado
pues tos
ĠgÃ©n ero
Ġp uer
Ġcirc un
Ġten dencia
Ġcom ba
Ġcomun es
at ologÃŃa
ĠCO VID
Ġtempera tura
Ãºs que
ĠF amil
Ġca pit
Ġbila teral
ĠtÃ³ rax
0 1
Ã© p
Ġo jo
Ġac ab
Ġofre cer
utri ciÃ³n
Ġsecund arios
ĠDes puÃ©s
Ġpron Ã³stico
m l
Ġprimer as
ĠCar di
Ġaquel las
l l
Ġcre ar
Ġo cup
Ġcomple ment
cid as
I P
T P
Ġtrabaj adores
Ġir ri
Ġincluy endo
Ġes as
Ġepiso dio
ĠP ers
je cimiento
Ġre tir
Ġv eg
ĠquirÃºrg ica
i x
Ġdise Ã±o
ic ro
Ġpar to
Ãº car
Ġcontr ario
Ġdirec ciÃ³n
habilit aciÃ³n
Ġcl ase
Ġde fec
ĠT h
Ġsoci o
Ġcombin aciÃ³n
Ġreco g
Ġmecan ismos
Ġh in
Ġf as
Ġapar ece
Ġapren dizaje
Ġmar co
ĠGr acias
Ġper if
ide o
Ġdebe mos
Ã©n dose
di das
Ġpropie dades
9 0
Ġv ÃŃas
Ġconsecu encias
Ġen fo
ĠP Ã©rez
Ġfis io
Ġabs or
Ġestrateg ia
com o
is tir
ĠPro grama
Ġpad re
D O
ĠDe partamento
ĠB a
Ġf ro
Ġ ic
Ġprac tic
Ġdeterior o
k a
Ġau di
Ġne go
Ġca paci
T U
Ġman tiene
Ġacu dir
L E
g ias
Ġtor Ã¡ci
Ġpoten ci
Ġan teriores
os fa
b al
Ġpregun tas
Ġj ulio
os os
Ġsuje tos
Ġcons tr
Ġanaliz ar
Ġmode los
m ad
Ġdismin uir
ter ia
t ologÃŃa
Ġur in
Ġf ran
Qu Ã©
cler osis
Ġev entos
di dos
Ġdi ges
Ġindividu os
am ma
Ġin glÃ©s
Ã© ticas
ww w
ti zar
Ġc ro
Ġrit mo
c usiÃ³n
ĠFe der
Ġdes tin
Ġcu ya
Ġse g
ĠRe al
Ġl an
Ġdes en
Ġdesta ca
ĠC D
Ġcontinu aciÃ³n
b aciÃ³n
4 5
Ġto x
Q U
Ġconcentr aciÃ³n
Ġent rada
Ġ bil
gu a
ĠB il
Ġcoles terol
Ġcom ida
u mir
in ci
Ġcapa z
Ġenten der
ma tos
iv as
ĠOrgan izaciÃ³n
Ġsignifica tivas
Ġre quer
i lo
3 7
Ã¡ ticas
Ġdo ble
ĠCon trol
Ġac tivo
cl usiÃ³n
iv e
Ġprevi amente
Ġrec or
ĠE osinÃ³filos
ĠlÃŃqu ido
Ġb Ãºsque
ĠC re
ĠH oy
Ġrecu peraciÃ³n
Ġc uello
Ġplan ta
ĠvÃ³mi tos
i mi
ol ver
Ġop ciÃ³n
Ġab an
i p
Ġantic uer
Ġblo g
ÃŃ da
Ġagu do
Ġme ta
ĠmÃºs ica
ti ma
ĠTo dos
N o
ĠMe dic
Ġo v
Ġex presiÃ³n
ĠPAR A
ĠA p
ĠD olor
ÃŃ r
c la
pir aciÃ³n
G T
ĠH um
ie ga
Ġ3 9
Ġtrad ici
Ġcar rera
Ġmemor ia
Ġutiliz ado
ĠG luc
Ġaplic ar
Ġinvestig aciones
E A
Ġtraspl ante
Ġpro pon
Ġten iendo
Ġque da
ĠR x
Ġli tera
Ã ī
Ġa den
Ġse cu
Ġcor te
Ġ201 8
m icas
Ġl pm
ĠCa tal
ĠAl zheimer
Ġ200 0
Ġps ico
Ġnega tivo
Ġpermi ten
tar ios
Ġpre dic
Ġaz Ãºcar
Ġtra uma
Ġinstitu ciones
l ia
Ġh on
ÃŃ os
v el
ÃŃ es
Ġdifer enci
Ġdeber ÃŃa
ĠespaÃ± ola
Ã¡n chez
den a
ĠrÃ¡p ida
f on
Ġflu jo
ĠI M
it arios
Ġdific ultades
ĠÃ©s te
C on
ĠPro fes
ol os
Â ¡
Ġv ag
Ġa gr
ĠEurope a
Ġvis to
Ġal guien
Ġherrami enta
ĠB io
Ġpo cos
Ġcomp r
y os
Ġcar b
Ġcol oc
Ġm ir
Ġdi aria
Ġpos teriormente
ĠLD H
U C
L A
ĠT en
Ġcompro miso
m ens
ta ur
ĠL in
Ã³s ito
Ġcambi ar
Ġn ad
Ġmis mas
Ġafec taciÃ³n
Ġpres entes
Ġfeb rero
Ġb ro
og rÃ¡
Ġre almente
Ġbus car
Ġprin cipios
Ġneces aria
Ġpens ar
Ġcorrec ta
Ġafec tados
un o
ĠM ig
ĠEnferme dades
ĠObs erv
Ġhid ro
an g
ĠA na
Ġbo ca
Ġaf irm
Ġab ord
Ġm Ã³
Ġanal ÃŃtica
Ġac ces
Ġcre aciÃ³n
Ġemple o
ĠS ÃŃn
ue las
tas a
ir ru
Ġdis fun
Ġdesarroll ado
ĠY a
Ġme z
Ġde p
Ġcu Ã¡l
Ġexam en
ĠCl in
on ales
ĠCrea tinina
Ġconsul tas
Ġintes tinal
ÃŃn a
Ġdesemp e
Ġah ÃŃ
0 2
Ġg er
Ġ200 4
ĠE P
Ġf ra
3 2
ech os
Ġtien es
l ig
Ġpodr Ã¡
Ġdecis iÃ³n
ĠÃ©po ca
Ġbacteri as
Ġmen udo
y n
Ġsen ti
tu vo
o cia
Ġ ).
% ).
Ġinv ers
Ġopin iÃ³n
m era
ĠG o
Ġmol ec
Ġen z
ĠAl b
Ġr ar
ĠM ay
Ġpe dia
Ġgran de
Ġgener almente
ĠprÃ¡c ticas
Ġinf il
Ġaf ebril
Ġprevi os
Ġre tras
Ã ¯
to x
3 1
Ġre des
ĠP u
Ġcar ga
Ġcol o
ta ta
Ġsalud able
Ġsi tio
Â» .
Ġalcan zar
I G
Ġrealiz an
Ġllam ado
ĠN i
ie za
Ġn orma
ĠHe alth
Ġmie do
Ġgu ar
er ra
Ġcar go
i ra
ĠF ernÃ¡ndez
Ġmm Hg
s es
Ġpeque Ã±a
ĠH D
Ġap ara
de ro
Ġfen Ã³m
p al
Ġreac ciones
ģ Ħ
Ġpoten cial
ĠA y
Ġutiliz ando
Ġsecund aria
tr aron
Ġmon itor
Ġlle gada
8 7
Ġelimin ar
ÃŃcul o
ide z
â ģĦ
Ġme tod
ĠAc tualmente
Ġre per
ĠN eg
Ġinv ol
r ales
Ġimp le
Ġb y
Ġace ite
id amente
Ġpar Ã¡
as as
Ġ- -
ĠC ada
Ġen ve
Ġadvers os
Ġacon se
Ġelab or
Ġreci Ã©n
Ġinicia tiva
9 4
Ġex ces
Ġcons tante
Ġal tas
Ġg obierno
Ġcump li
ĠbÃºsque da
Ġcondi ciÃ³n
ac tiva
tro p
v ent
cur so
ĠFran cis
gos to
ti endo
e te
Ġper f
Ġqui mio
h n
Ġviv ir
Ġcomun idades
ĠMÃ© dico
Ġpun tu
Ġconduc ta
Ġdesa par
ĠServ icios
Ġa ur
Ġpla ta
Ġorig in
ĠV ar
ĠP as
Ã¡ us
Ġconoci da
Ġextre m
h t
Ġrespec tivamente
til idad
Ġtrans misiÃ³n
ĠE E
ĠMan uel
Ġoportun idad
ĠpolÃŃ ticas
Ġa gre
ĠC ab
Ġp H
il ancia
irru bina
Ġver da
u ria
ĠcampaÃ± a
Ã ²
ĠS Ã¡nchez
ĠprÃ³ ximo
Ġdi as
Ġti ro
Ġag entes
ĠS ur
0 9
car dio
Ġser Ã¡n
Ġasisten cial
Ġconf ianza
k i
Ġna turales
ec a
Ġmo tiv
Ġpu di
ĠP r
Ġj uego
us ia
Ġde c
cin oma
Ġcl in
ĠPo tasio
ha t
Ġsuf rir
Ġelev ada
Ġhacer lo
Ġex clus
u g
jer o
qui lo
Ġmom entos
Ġpeque Ã±as
Ġnatural eza
Ġgas tro
Ġpro te
Ġher man
ĠA B
Ġherrami entas
Ġon c
ĠEv alu
ari amente
Ġcon tras
Ġintens idad
ri que
Ġex ten
0 7
er al
Ġfu ente
ĠE mp
ĠÃ ī
ĠFac ultad
Ġ ras
ĠÃ³se a
ĠRe v
ĠEduc aciÃ³n
Ġos teo
Ġconcep to
am b
ĠP ri
1 00
f as
p ico
ment aciÃ³n
Ġci ta
Ġe merg
__ __
Ġm ig
ĠH is
ĠS U
Ġro di
ĠR E
Ġgen Ã©tica
ĠCon clusiones
Ġpri or
Ġinter na
Ġcos te
ĠR D
ĠI g
tific aciÃ³n
Ġfal le
Ġcompren de
Ġrecib ido
r ÃŃa
Ġdi la
pl ic
ĠSo dio
Ġselec ciÃ³n
re mos
Ġau ton
i ene
Ġpati ents
ĠMe d
ĠterapÃ©u tica
tr Ã¡s
Ġor g
Ġ &
Ġplan tas
Ġex pec
ĠespaÃ± oles
a x
Ġbienes tar
Ġ200 3
ĠpÃ¡g inas
f orma
3 9
ĠEC G
C u
Ġas ma
ac k
ĠCh ile
ĠhÃŃ gado
ĠPue de
Ġsospec ha
Ġ5 00
Ġlitera tura
Ġcam ino
ĠA M
Ġreci bi
es a
Ġal iv
ĠquirÃºrg ico
S e
Ġintegr al
Ġpre fer
dis cipl
hid ra
Ġviol encia
ĠTra baj
f eno
t Ãºa
l le
8 8
Ġsign ific
ĠD ios
Ġhi er
ĠT ran
Ġay er
i an
Ġcompon entes
Ġvers iÃ³n
Ġjo ven
Ġincl uir
e dades
Ġpers pec
m m
ĠR am
Ġdi ario
ĠJ es
mat ÃŃes
Ġmater na
Ġhab la
ĠH ola
ENT O
b en
Ġposi tiva
Ã³n ica
iv amente
ĠAh ora
ue ve
tud y
Ġis qu
Ġac ce
Ġv ul
ĠGluc osa
Ġg al
Ġcorre l
Ġn orte
Ġenti dades
ĠantibiÃ³ ticos
Ġen tidad
R C
ĠSan ta
ĠP en
4 4
p ra
ti ro
fici t
ti po
Ġado p
de o
ĠUN A
ĠF ue
tis tas
Ġcon ec
Ġrealiz ada
g al
Ġprecis a
Ġavan ces
es o
Ġn or
Ġne o
Ġsi l
ĠcompaÃ± ÃŃa
min os
Ġdirec ta
ĠtÃ©r mino
Ġau tÃ³n
Ġlengu aje
Ġreac ciÃ³n
I Z
ĠAl cal
tia go
er e
Ġg e
an t
Ġan g
Ġdes c
Ġ Ì
0 6
im as
Ġmol esti
f is
ig ue
Ġdiar rea
Ġaban don
Ġpregun ta
Ġhum an
Ġcl ara
tro mb
ĠMig uel
Ġenci ma
Ġcul tura
in es
Ġbas es
Ġin ten
Ã³l isis
ĠR ES
Ġposi bilidades
Ġdeci de
Ġperson ales
ĠA meric
Ġmar ca
ber cul
Ġllam ada
R E
Ã³r m
Ġpue do
O P
Ġall Ã¡
ĠCl oro
pe u
Ġespeci e
ĠD ie
Ġso y
Ġresponsa bilidad
Ġen d
Ġinvestig ador
x il
Ġvacun as
Ġdro gas
ĠHemo globina
t ones
Ġex pon
ĠD ra
ĠAlgun os
ĠV ir
Ġconcre to
Ġlon gi
Ġdi o
Ġve lo
Ġbenefici o
ĠÃ©s ta
Ġpro medio
mer as
ĠIn fec
Ġt ampoco
D E
Ġcal cio
Ġpe or
Ġfem en
Ġcons trucciÃ³n
Ġ ),
Ġre cl
ĠL OS
Ġdescri p
Ġclas ific
Ġami gos
id or
Ġt ÃŃ
Ġencuent ro
Ġpe diÃ¡
Ġc oci
ri endo
Ġexpl icar
Ġab und
ĠD M
er ÃŃa
ar ÃŃa
ĠPe dia
Ġsenci l
Ġensay o
Ġd u
Ġdi ez
Ġhemo din
Ġmecan ismo
Ġdisposi tivo
Ġc osa
ĠTra tamiento
ĠO R
ĠCi udad
Ġ201 9
ĠIn cl
Ġconj un
Ġtrans mi
Ġan ci
ĠpÃ¡g ina
Ġobten idos
ci mientos
Ġtera pias
Ġprobable mente
Ġw as
Ġco inci
Ġub ic
Ġg ol
Ġide as
el la
Ġpro pios
Ġregis tro
s an
Ġgluc osa
IN A
ĠE ti
ĠF A
Ġtotal mente
qu en
Ġgrave dad
Ġcircun s
Ġest an
Ġconstituy e
Ġvi ene
Ãº an
l or
estes ia
Ġprovo car
Ġnervi oso
ĠL ab
me z
Ġc Ã¡l
Ġlle ga
Ġcomprim ido
Ġten gan
Ġp g
Ġcardio vasculares
pos iciones
Ġinter ven
Ġac to
ĠFrancis co
cas t
ul aciones
Ġalum nos
Ġme mb
Ġutil idad
Ġejerci cios
ĠEx isten
aj as
ul ado
Ġesta ban
ĠC ur
6 5
tr icas
op era
Ġt ÃŃtulo
ti ciÃ³n
Â» ,
Ġex ceso
Ġpon e
Ġasoci adas
am entos
mato crito
Ġapro v
Ġmovi mientos
ĠAD N
Ġev ento
w s
Ġmal a
ĠX X
e mi
Ġconsider ar
t ador
ĠE M
ĠSan tiago
Ġafec tar
Ġper der
Ġinf arto
Ġpresent Ã³
Ġv amos
ĠCom isiÃ³n
Ġgri pe
Ġtendr Ã¡
Ġmateri ales
Ġmoder ada
Ġap un
ĠEsc uela
ĠtÃ©r minos
Ġac ad
Ġf ron
co p
ĠP an
Ġprovin cia
Ġnad ie
Ġabs olu
iz ados
Ġdes can
Ã³r ico
Ġutiliz an
it ales
mil l
ĠF er
4 8
0 8
s u
Ġterri torio
Ġcir cul
es te
e di
Ġpal paciÃ³n
ic ales
H A
e y
ĠeconÃ³m ica
Ġn ar
Ġf oc
Ã¡ mica
Ġcor to
Ġrelacion ado
umon ÃŃa
ĠmÃŃn imo
Ġindustri a
Ġsec ciÃ³n
Ġimp uls
tos is
Ġas ocia
d Ã³n
Ã³ b
Ġdispon ible
ĠPla quetas
ĠAm Ã©rica
Ġsu ple
Ġa trib
Ġfar macia
ĠrÃ¡p ido
om al
Ġvaria ble
Ġh as
l ine
Ġfor tal
Ġel Ã©c
Ġdepen de
Ġpre cio
Ġ200 2
Ġde ja
Ġle er
aci o
Ġparticip ar
Ġimp os
Ġan a
Ġdin ero
Ġapar ecen
ĠTo do
Ġdispon ibles
t ol
res is
ri os
g ados
vir us
Ġlongi tud
Ġinf ancia
ĠSu per
ri miento
Ġreconoci miento
Ġpromo ciÃ³n
Ġespeci alidad
Ġres oluciÃ³n
vi e
ĠF is
Ġqu in
ĠespecÃŃ ficos
ĠM as
CI A
Ġsan grado
Ġex cep
Ġb re
Ġgr ad
Ġelev ado
5 6
Ġllam a
Ġcapit al
Ġdeber Ã¡
Ġdi vi
Ġen v
R S
Ġbi blio
og Ã©n
ĠAn al
Ġcaus ar
Ġl ista
w e
Ġexperi encias
Ġmanten imiento
Ġdud as
Ġactu aciÃ³n
Ġri Ã±
f f
Ġsos ten
Ġcon vier
Ġelec ciÃ³n
plas tia
g ro
mÃ¡ ticas
r Ã¡n
Ġre cha
ĠS at
Ġgener ales
Ġneces itan
Ġha bilidades
Ġvin cul
Ġv Ã¡l
t ente
on g
Ġexcel ente
Ġan gio
Ġdi Ã¡
9 9
ra gia
Ġvis ual
T C
Ġconf lic
or g
Ġpulm Ã³n
Ġc Ã¡
Ġp ic
Ġestudi ar
Ġmol Ã©
ĠseÃ± ala
ter ales
fici al
Ġres erv
Ġde porte
h or
Ġreduc e
ĠPs ic
Ġa gosto
an to
or gan
Ġapren der
plas ia
Ġdemas iado
Ġanticuer pos
Ġres puestas
Ġfis i
arrol lo
Ġintern acionales
Ġciru j
Ġfacil itar
Ġh ici
Ġpropor cion
Ġrecur r
f ar
c to
Ġbus ca
Ġcl Ã¡s
ĠH o
Ġgus ta
Ġf om
Ġvas o
Ġt asas
br al
Ġamp lia
Ġrefle x
Ã³n ico
gen tina
Ġpres u
ĠHab ana
ÃŃ geno
Ġneces arios
7 4
Ġjorn ada
Ġcol um
Ġinflu encia
ent ada
tor i
Ġfi gura
Ġ quier
Ġop ciones
ĠparÃ¡ metros
ĠMÃ© to
Ġes encial
Ġprogra m
Ã§ Ã£o
ĠâĢ Ķ
Ġpel ÃŃcula
Ġcif ras
Ġpa trÃ³n
ue lo
ues tro
tico ag
Ġinmun o
Ġsu puesto
Ġhep Ã¡tica
Ġindivid ual
Ġper ci
ĠÃºlti mas
Ġo tor
Ġprovo ca
t bol
Ġgas to
ĠDirec ciÃ³n
con s
Ġagra de
ĠcrÃ³n ico
Ġsuper iores
ĠBil irrubina
ar la
ĠB er
ĠInter na
Ġparti do
Ġh og
Ġsal ir
Ġhepa titis
ĠcardÃŃa ca
min as
Ġalar ma
pat ÃŃas
Ġdocum ento
ĠR os
Ġlac tancia
Ġgu ÃŃa
Â ®
Ġcan dida
ĠmÃºs culos
Ġob ras
Ġrespons ables
tr ados
M I
ĠV CM
Ġdisfun ciÃ³n
ru z
ĠVal encia
Ġafec tan
Ġdi entes
Ġciudad anos
Ġinteres ante
den tal
ĠM er
Ġcon gÃ©n
j es
Ġnutri ciÃ³n
ĠIn tro
so cia
Ġsens i
Ġcon tro
7 3
Ġbuen os
l ando
AD A
ĠT ri
Ġf ol
Ġcompar tir
p us
d ra
12 1
. :
Ġactu ales
Ġre ca
Ġsom os
Ġal ea
Ġtecn ologÃŃas
tal m
Ġcomple jo
Ãº mina
ĠterapÃ©u tico
ĠHe matÃŃes
Ġtor no
Ġcumpl ir
ID A
an s
4 6
ig na
. ]
ĠHe matocrito
p to
Ġdeman da
Ġad her
I F
il d
ĠlÃŃn eas
tic al
Ġme l
ĠD o
Ġconver tir
Ġtiemp os
Ġnutri cional
Ġ ï
Ġso porte
ĠH TA
Ġfu entes
Ġinici ar
Ġpubl icaciÃ³n
4 2
Ġtrans f
Ġcomer ci
ĠÂ ±
Ġconte mp
ĠdÃ©c ada
ĠColeg io
i el
Ġ200 1
Ġvacun aciÃ³n
I CI
Ġcons olid
Ġ5 5
ĠLe Ã³n
Ġcap aces
f t
p ren
ĠAL T
Ġses iones
tas is
Ã³ di
z ca
il las
Ġreg iones
Ġno ve
Ġprepar aciÃ³n
ĠHi per
Ġdis tal
ic es
Ã³ mez
6 9
Ġluch a
ĠH em
Ġcier tos
Ġdesta car
Ġmin is
Ġr os
Ġenfer mera
ente mente
Ġesc uela
Ġesc olar
Ġsex uales
ĠÂ ·
s iÃ³n
Ġlugar es
g ran
Ġingres os
ĠO l
Ġsuf ren
ĠTran s
Ġasoci aciones
ĠdiagnÃ³s ticos
ent almente
Ġmio cardio
ti das
ĠG er
Ġrealiz ados
Ġsignifica tivamente
Ġimp lica
Ġpol i
Ġcal or
ĠmÃ¡ xima
ul tura
ĠespecÃŃ fico
Ġre poso
ĠSÃŃn drome
Ġinfer iores
Ġgras as
Ġl un
Ġpresent aron
Ġconsul tar
hi bi
Ġpue blo
ĠAS T
ĠNuev a
Ġestruc turas
Ġpro tagon
Ġsol a
Ġb rin
Ġen l
Ġrelacion ada
Ġgener aciÃ³n
Ġlar ga
Ġvas os
Ġelem ento
Ġconten idos
in dic
Ġproba bilidad
Ġx mill
i ro
Ġdescon oci
Ġpar ed
Ġre habilitaciÃ³n
ÃŃ z
Ġg a
Ġgener ar
Ġver ano
am ento
Ġj ur
Ġcu Ã¡n
b ro
ur nal
t adores
Ġev it
ĠCas tilla
ĠV ic
ĠC Ã¡ncer
f in
c k
Ġmm ol
Ġb uc
th er
Ġenve jecimiento
Ġreciente mente
d s
Ġden s
ĠCom itÃ©
Ġposi tivos
ci to
di dad
7 8
Ġar teri
Ġpe lo
ĠM E
a de
ĠEspeci al
ĠeconÃ³m ico
Ġmon o
ĠH CM
ber to
Ġje fe
ĠRe activa
Ġenfer mo
t ment
Ġcu ra
ĠRad io
ĠmÃ© dicas
5 5
Ġas in
d ula
Ġci ca
Ġconci encia
ĠtÃ³ x
Ġ4 1
uc ÃŃa
Ġal Ã©rg
ri as
Ġgen Ã©tico
ĠP ed
uy endo
ĠC e
Ġe c
Ġform ar
ÃŃ ticos
ti bles
Ġsegu ra
Ġsintom atologÃŃa
ĠG amma
es iÃ³n
ici na
Ġter cera
ter os
ĠJes Ãºs
pes o
Ġqu iz
Ġf Ã³rm
Ġsa tur
Ġres id
Ġsue lo
ona to
Ġm ente
Ġsan idad
rane al
Ġaprov ech
Ġt ensiÃ³n
Ġper iÃ³
Ġhe ma
Ġenfo que
Ġentre vista
Ġpr Ã³s
Ġquimio terapia
Ġapar ecer
. "
4 3
Ġrev el
Ġan ticoag
ĠT R
Ġade lante
Ġpre vis
Ġcompos iciÃ³n
Ġ |
Ġmad res
ĠO tros
ion ar
Ġper it
er an
per o
ĠcrÃ³n icas
ĠÃģ n
ĠprÃ³ tesis
ĠAc tividad
Ġcan cer
ar t
v in
osfa tasa
Ġr is
Ã¡n ico
tu re
lam a
Ġusu ario
Ġle uc
Ġmanifes taciones
ĠBas Ã³filos
Ġp ene
S S
fici o
Ġnega tiva
Ġmunicip io
Ġfaci al
ĠdÃ© ficit
Ġl is
Ġam ar
Ġesfuer zos
ĠpÃºbl icos
Ġsi ete
Ġmas cul
Ġencontr ado
ĠProteÃŃn a
Ġcompro me
Ġal tos
5 8
Ġper ju
Ġbus c
' .
Ġic tus
Ġcu tÃ¡n
Ġ4 6
Ġau tom
Ġcro mos
Ġcomien za
Ġenfer meras
Ġ9 8
Ġdirig ido
Ġar te
t ent
Ġpro puesta
Ġo peraciÃ³n
Ġest ancia
ĠE di
* *
ÃŃ ticas
Ġte xto
Ġe m
en da
ay a
Ã³m ico
Ġabor daje
Ġgaran tizar
Ġox ÃŃgeno
ĠVP M
Ġdeb ajo
Ġesc al
Ġelev aciÃ³n
C L
bercul osis
Ġinte lig
Ġprogres iÃ³n
k g
ĠRD W
ĠC R
Ġren dimiento
Ġno ta
Ġencontr Ã³
Ġhe alth
ĠA ca
Ġab domen
Ġcumpli miento
Ġal mac
4 1
ĠMÃ© dica
Ġinform ado
vo ca
Ġpreten de
Ġprotoc olo
Ġpodr Ã¡n
ĠB e
L os
V A
gen era
ĠCH CM
mÃ¡ tico
Ġindividu o
Ġequ iv
Ġre p
Ġconf orm
Ġhu bo
Ġex tensiÃ³n
4 9
Ġpen diente
Ġconse jos
Ġv ideo
ec tomÃŃa
Ġdisposi tivos
Ġsalud ables
ru p
O B
ir se
G PT
Ġd ura
icro bi
Ġaf irma
Ġgen era
Ġcefal ea
Ġcon lle
Ġhu bi
im en
ar te
ĠespecÃŃ fica
Ġconv enci
l ado
Ġrecon s
Ġnaci miento
Ġle van
f ro
ĠO c
mon io
am o
ĠJ e
Ġsanit arias
ti dades
Ġorganiz aciones
in ter
Ġinvol uc
Ġhay an
Ġ ÃŃ
Ġda Ã±
Ġloc ales
es is
Ġindic ado
Ġci ne
Ã³g enos
ĠC os
ĠG Ã³mez
EM A
Ġvar ones
Ġper cepciÃ³n
til aciÃ³n
ĠCardi ologÃŃa
Ġide al
am e
Ġcontinu a
ten osis
Ġp echo
ci entes
c ambi
Ġrecep tores
Ġco ber
Ġpi es
Ġcon ce
Ġtrans vers
un iden
Ġestu vo
Ġfro m
Ġidentific aciÃ³n
ĠE X
Ġa un
Ġtab la
Ġcons ciente
ĠprÃ³s tata
Ġproteg er
Ġsus tancia
Ġdescri to
Ġsatisfac ciÃ³n
me di
Ġventr icular
ĠFar mac
Ġpau ta
Ġcateg orÃŃa
Ġac re
ĠM il
Ġfin ales
ĠH ernÃ¡ndez
ĠmÃ³ vil
Ġden tal
Ġn acionales
Ġraz ones
tÃ© ter
Ġen can
G OT
Ġall ÃŃ
ĠOn c
Ġanti gu
Ġses iÃ³n
ĠIntro ducciÃ³n
Ġmolesti as
Ġan emia
ĠC er
Ġol vid
pen ia
ch es
Ġavan zada
Ġcu estiÃ³n
fici entes
am an
Ġexplic ado
Ġt hat
ĠmÃºs culo
ber n
ĠAdminis traciÃ³n
Ġam ena
Ġcomen zÃ³
c oles
Ġar teria
g Ã³
Ġe dades
Ġm ÃŃ
Ġrel ig
Ġ9 7
Ġvelo cidad
Ġs ent
Ġpre ma
Ġalterna tiva
Ġdepen dencia
ĠfarmacÃ©u tico
II I
olog ia
qu Ã©
Ġs tudy
ĠProteÃŃn as
Ġpop ular
ĠT u
ĠIN R
8 3
Ġex ac
Ġhi ja
Ġa Ã±a
Ġse ver
Ġprofes iÃ³n
rec en
Ġcerv ical
ĠObje tivo
Ġreun iÃ³n
4 7
Ġclas ificaciÃ³n
r y
ch ar
Ġtal ler
Ġcons ta
Ġefec tu
ĠT om
ĠF u
OL OG
pro feno
Ġte orÃŃa
ogra ma
Ã©r ico
ĠDes arrollo
Ġm ales
ĠUn o
Ġtrasl ad
ti di
p ol
Ġbuen as
Ġf irm
ĠCa p
ar do
j ado
ri eron
Ġede ma
tro fia
Ġo cho
Ġcompon ente
Ġpro pias
d uras
tromb ina
ĠA ut
Ġre quieren
Ġcier tas
ul ada
Ġextre mo
Ġpelig ros
Ġtemp ran
Ġven osa
Ġcab ello
ĠM ol
Ġsi guen
Ġform an
ĠS N
Ġtu vieron
tr ones
ĠM ur
Ġte x
Ġsolu ciones
Ġ3 00
Ġexper to
vil la
Ġest Ã©tica
Ġfib ro
Ġapre ci
i ona
k er
Ġe mi
ĠP l
Ġmos trÃ³
y ac
ĠtorÃ¡ci co
Ã¡m ara
Ġg uerra
Ã ĳ
Ġi gu
Ġdor mir
Ġperman ente
ĠespecÃŃ ficas
Ġsal ida
dis mo
ĠO MS
Ġtrans porte
Ġpo dido
Ã¡s er
ĠR M
ĠInter net
ĠAr gentina
Ġsug iere
Ġapar e
Ġpade cer
Ġest Ã©n
Ġsol amente
ĠS ecre
E F
Ġcontrol es
Ġhig iene
Ġ7 2
Ġcer c
Ġaf ron
Ġutiliz ados
Ġs Ã©
m enta
Ġcomp ara
Ġlib ros
Ġdesen ca
Ġesp al
Ġbaj as
Ġinter val
ĠÃ³rgan o
Ġquer emos
Ġtar eas
Ġ4 2
ĠB al
ĠF osfatasa
Ġtran quil
Ġrelev antes
ĠterapÃ©u ticas
ĠG en
Ġw ere
enci ales
Ġvo z
ĠPed ro
t ÃŃa
ier ra
C H
tal la
Ġca v
Ġnega tivos
ĠcientÃŃ ficas
Ġpropor ciÃ³n
til las
Ġamp lio
ĠMuch as
Ġvis u
Ġamb ula
Ġentren amiento
ig ur
ĠDia gn
Ġequilib rio
Ġcontrib uir
ĠvÃŃ c
Ġsu ger
Ġevi den
Ġrodi lla
Ġan ual
Ġacci dente
ges ia
Ġdesp laz
Ġconsi gui
ĠEnferme dad
Ġcogni tivo
ĠestÃ¡n dar
ĠTras tor
Ġla teral
Ġrecep tor
Ġo fer
Ġincl usiÃ³n
Ġcolum na
us a
pec tivo
ti cias
Ġconcentr aciones
Ġ8 5
Ġasin tom
A CION
tr ada
um ento
aliz adas
Ġlum bar
cu pa
x ia
ĠJa vier
Ġpres cri
Ġcorrespon diente
Ġse vera
tar Ã¡
Ġint entar
Ġg inec
u Ã±a
Ġmor f
ĠAlcal ina
' s
ĠJo urnal
Ġobserv Ã³
Ġactu ar
Ġca tÃ©ter
Ġ9 6
ĠDÃŃa z
Ġempez ar
u a
Ġllev ado
Ġcaracter iza
ĠB en
Ġar tritis
Ġ4 00
Ġmolec ular
Ġtradici onal
Ġv s
cul as
5 9
Ġefec tividad
ĠPaci entes
ti ga
ĠCi entÃŃ
Ġres olver
Ġbio psia
cin di
ĠA G
Ġser es
ĠE pi
Ġde mo
Ġin es
Ġtrabaj ando
Ġhabi tantes
Ġelimin aciÃ³n
ĠÃºn icamente
r er
Ġfon do
e mb
Ġfin almente
Ġmetabol ismo
b us
Ġprofun da
5 3
k o
7 7
ĠM al
ĠV i
ĠfarmacÃ©u tica
Ġtemp oral
ĠFeder aciÃ³n
Ġac lar
ĠB ras
ĠcompaÃ± eros
Ġapor ta
Ġdi v
Ġcon tienen
Ġcontinu ar
Ġ ido
ĠUn iÃ³n
pe mia
Ġrealiz aron
6 6
c tur
Ġdolor oso
Ġpromo ver
Ġcompues to
ĠfenÃ³m eno
Ġacce der
Ġar g
Ġesti ma
Ġindic an
Ġej ecu
Ġmuer tes
Ġran go
ĠP S
Ġdef ensa
Ġdis posiciÃ³n
ĠH asta
uy Ã³
ĠJ unta
tr u
ĠO N
qu ina
Ġrespira torio
Ġver te
Ġsu ici
Ġdescar tar
Ġ[ .]
ĠL ib
Ġpulmon ares
Ġac el
Ġin g
Ġrealiz adas
ĠÃ¡ r
w n
or ge
Ġl ic
uma b
oc en
Ġpre ci
am p
Ġro de
ĠN iega
ĠB ol
ĠÃģn gel
ĠF ern
Ġaplic aciones
Ġbron qui
Ġdis tancia
Ġ4 9
Ġmu taciones
Ġ" .
aci ente
Ġd ando
ĠÌ ģ
ru mp
t res
Ġestad ÃŃs
ĠS ch
Ġw ww
Ġf ir
Ġma es
Ġv enta
Ġtr Ã¡
Ġneces arias
quia trÃŃa
orm al
ĠIN F
Ġmo tivos
Ġvig ilancia
te li
Ġt re
Ġacre di
ĠAc tu
in tes
Ġhospital aria
ĠV as
Ġb om
ĠG as
Ġautor idades
Ġbas ado
l ina
Ġinstitu ciÃ³n
de d
Ġpr ensa
Ġbas ada
Ġprogres iva
Ġorig inal
Ġespeci ales
Ġt ron
kin son
Ġac titud
tri o
Ġmo tor
Ġex cl
Ġa dic
ĠM A
Ã¡s tica
Ġcul tivo
xi mos
Ġplac ebo
Ã© g
li tus
Ġtra tado
Ġn ucle
Ġanim al
Ġpersonal idad
Ġcuestion ario
Ġne umonÃŃa
Ġestado uniden
li ta
Ġhtt ps
ĠC AR
Ġtoler ancia
ti fica
Ġpro ve
ĠFin almente
Ġar ro
Ġ rol
ent ro
Ġsobre peso
Ġv oc
Ġn Ã¡us
ĠM en
Ġfrac tura
Ġloc alizaciÃ³n
Ġperspec tiva
Ġre mi
ĠF o
ĠSe guridad
Ġdis cipl
Ġes ter
Ġembara zadas
il aciÃ³n
Ġpar cial
tran s
lan d
Ġan omal
up ne
Ġl in
Ġcorrec to
Ġcoron aria
c y
9 8
Ġpobl aciones
Ġinclu idos
Ġf rag
vi ene
ÃŃ m
Ġv ital
I ON
Ġconv ir
Ġenc uesta
ab la
Ġcre e
Ġcol om
esti ones
Ġdoc tora
Ġcu ar
Ġqui ero
Ġerr ores
Ġescuch ar
T OR
P or
Ġfundam entalmente
p ul
Ġhier ro
Ġins er
Ġ4 4
6 4
Ġtra to
Ġprop Ã³sito
Ġcober tura
Ġcur sos
ent er
Ġnorm as
ĠN utriciÃ³n
ĠÃ¡n imo
ĠT Ã©cn
te gr
ĠN os
Ġ9 9
ĠE j
Ġderiv ados
um e
ĠS h
Ġcal le
Ġca dena
fer a
Ġalgun o
Ġfra cas
Ġmulti discipl
ĠL AS
ĠT ecn
Ġal tura
Ġintes tino
Ġapara to
Ġes co
Ġres taur
Ġvari edad
ĠT ro
ĠO tro
u resis
lo p
fic amente
ma go
Ġinstrum ento
Ġcual quiera
Ġen dos
ĠAut Ã³n
be tes
Ġdesarrol la
Ġgra tu
Ġno ctur
Ġdismin uye
Ġe f
f ÃŃas
Ġefec tiva
Ġbeb idas
Ġinstal aciones
us e
ĠObserv aciones
Ġcomple tamente
ĠR om
Ġesper ar
Ġfum ar
Ġcon vers
Ġtempor ada
Ġemo ciones
Ġa mino
ĠmÃºlti ple
C S
ĠT AC
ĠrÃ¡p idamente
Ġ15 0
v ado
Ġpo bre
g luc
6 1
Ġestable cido
Ġ Ãºl
Ġad quir
Ġbaj os
Ġci cl
ĠF i
Ġimpres cindi
Ġsimple mente
Ã³di go
Ġener g
Ã©n d
Ã©g imen
Ġobserv ar
Ġdisfru tar
ĠMÃ© dicos
ri ente
Ġpar acetamol
Ġpredomin io
ĠRe y
Ġdol ores
Ġ @
Ġf res
Ġblan co
ĠRe d
Ġrespira torias
ra me
Ġase gura
u almente
Ġsignifica tivo
que z
ĠY ork
6 7
ID AD
on s
Ġre quis
Ġemb ri
ĠEti quetas
s ion
Ġobserv aciÃ³n
Ġan estesia
I EN
gr os
Ġs Ã³l
Ġve h
Ġnor mo
y ch
Ġentre ga
Ġne ona
Ġex tens
Ġcan tidades
Ġ199 9
Ġespal da
bi os
Ġgl Ã¡nd
qui Ã¡
Ġnutri entes
Ġdirec to
ĠAn dal
tr on
Ġalim ento
Ġcolec tivo
Ġestabl ece
ĠC L
n ia
Ġ4 3
es truc
Ġfas es
as is
ĠG ar
ĠV e
ĠRe p
tos a
idad os
AL ES
6 2
Ġv ier
Ġa Ã³r
Ġar ti
ĠF or
ĠenseÃ± anza
Ġeta pas
Ġestad io
Ġen f
mi os
el le
Ġdes ay
l in
Ġelab oraciÃ³n
ci ne
Ġesc en
Ġb eta
an da
Ġtemp rana
Ġdesc enso
Ġfin es
Ġinterac ciÃ³n
ĠW il
Ġinter cambi
Ġfru tas
mi tes
it arias
g or
Ġencontra mos
Ġlle van
ĠDE S
A l
Ġsu minis
z ando
Ãº bi
Ġcier ta
Ġpron to
qu ismo
jer on
Ġencontr aron
Ġpalab ra
ra mos
ti d
til es
ĠAn d
Ġrecibi eron
Ġme tas
Ġcam pos
Ġti erra
u matologÃŃa
Ġc ari
Ġapro pi
ĠS il
ĠB ra
in mun
ĠP ER
Ġayud an
top era
Ġdeb ate
Ġnumeros os
p in
man ia
Ġoblig a
ĠJ im
Ġcoment arios
Ġpres cripciÃ³n
Ġex pan
3 121
Ġsal a
tin encia
Ġci vil
rea tment
5 4
ĠE F
ec uciÃ³n
ĠG ra
Ġan teriormente
Ġmovil idad
Ġcan al
ĠHem Ã³lisis
Ġreg ul
5 2
Ġsus cep
f os
Ġsim ul
ĠTo tales
Ġvent ajas
Ġeco grafÃŃa
Ġimplan taciÃ³n
Ġl ine
Ġbas a
Ġalmac en
ĠC U
Ġtu berculosis
Ġpade cen
Ġac tivos
ĠEstudi os
Ġpro xim
Ġ um
ĠdÃ©c adas
ĠEs tÃ¡
Ġas ign
Ġg Ã¡s
Ġa vis
Ġal o
Ġindic adores
on ancia
Ġest ÃŃm
ĠT RA
Ġconside ran
Ġconse gu
oc k
Ġespecial idades
Ġn ec
Ġcompren der
ita t
Ġdens idad
ĠÃ³ pti
al gia
Ġrecono cer
Ġconsider ado
Ġh uev
Ġme tros
Ġcon voca
ĠAndal ucÃŃa
Ġadul to
Ġrecuer da
ĠAg encia
ĠT al
Ġentre vis
Ġmedi r
ĠS ci
ci pa
ific ar
Ġe je
Ġhip Ã³
ĠPres idente
Ġ4 7
ĠM ED
Ġmales tar
Ġcomba tir
Ġo cular
C Ã³mo
Ġcomen zar
r ados
enti miento
s ar
Ġest ados
ox id
Ġapro b
Ġantic on
F A
Ġobserv ado
e go
5 7
ĠA us
ĠC ruz
Ġdig ital
ĠPro trombina
Ġpublic ados
Ġme xic
ĠD ic
Ġbeb Ã©s
le o
ĠAlb Ãºmina
Ġresi dentes
Ġinte lec
Ġsab emos
9 7
Ġvis it
ĠM us
Ġpropor cionar
Ġes que
Ġempe oramiento
in fec
9 6
s in
Ġt Ãº
one al
ĠDia betes
Ġd ren
Ġpres erv
Ġ" ,
Ġobserv an
R e
Ġqu is
ĠnÃ¡us eas
p icos
tec ciÃ³n
f en
ĠH ar
t un
ti mi
ti mas
ĠGran ada
Ġl Ã¡ser
Ġdirig ida
Ġest Ã³
Ġeti ologÃŃa
ent en
Ġviv o
Ġb acter
i mp
Ġmo d
Ġcom e
yec to
Ġjug adores
5 1
Ġrepro duc
S E
Ġtrans form
Ġges taciÃ³n
Ã³r ica
V P
Ġli bres
ĠSo bre
dr Ã¡
Ġhues o
U D
Ġdomici li
us al
Ġrela j
Ġnas al
ter n
Ġhe ter
ec on
Ġavan ce
x o
Ġa Ã©
Ġcul tural
Ġper me
f ono
Ġdestac ado
Ġci to
Ġre mo
bier to
ici on
Ġcri terio
s en
Ġca dera
Ġcompues tos
Ġpier nas
Ġn g
r or
Ġcircuns tancias
Ġpos topera
Ġespaci os
Ġlengu a
Ġan o
Ġaur icular
Ġocas iÃ³n
Ġher ida
Ġcam a
g Ã©s
Ġcorrespon de
Ġabier to
Ġtar ea
Ġex tran
ren al
6 3
Ġap enas
Ġhemor ragia
Ã³m icas
Ġen laz
Ġadap taciÃ³n
P L
r eras
ĠAl im
Ġtom ando
ĠaÃ±a de
s or
Ġreci entes
Ġenc ues
Ġcarb ono
ĠestÃ³ mago
ĠB lan
Ġprodu cido
z uela
Ġag ente
f Ã©
Ġcor tico
Ġa pe
Ġdesenca den
ĠMe j
ĠFran cia
r us
Ġdis co
Ġerr or
ĠV en
ĠcÃ©l ula
Ġhabi tuales
ĠDis pon
Ã©r icos
tu des
Ġad qui
Ġestim ulaciÃ³n
ĠM M
lo go
Ġcom idas
l ÃŃn
Ġesper anza
Ġun iÃ³n
ĠPsic ologÃŃa
til lo
Ġcircul aciÃ³n
Ġah or
Ġpo dÃŃa
ab lo
inf lama
ĠF R
Ġsu m
Ġcereb rales
Ġdem encia
Ġinnov aciÃ³n
Ã³n de
Ġsus pen
Ġreci be
Ġconduc tas
H C
Ġexter na
Ġt to
ĠmÃ© dula
ue gos
ĠHis toria
i ana
Ġdi chos
Ġescri to
Ġlimi taciones
Ġcoordin aciÃ³n
it aciÃ³n
Ã©n ez
Ġllev Ã³
ĠBras il
Ġdes cen
ĠAcu de
ĠÃ¡ cidos
Ġaten der
Ġofici al
Ġdefini tiva
ÃŃ l
Ġrecord ar
00 1
9 2
Ġhog ar
om en
Ġrecib en
Ġconstituy en
Ġde partamento
Ġacci dentes
Ġk g
Ġfrecuente mente
d ri
Ġfinanci aciÃ³n
Ġhospital ario
do c
ĠVar Ã³n
ĠS ta
iden ta
Ġcorre g
m ic
Ġus a
Ġtrabaj a
ÃŃcul as
tin as
Ġca ÃŃda
V C
Ġtel Ã©
jer ÃŃa
Ġni Ã±as
Ġinten so
americ ana
Ġsan os
ĠA mb
Ġpo cas
Ġcom enta
tific ar
Ġobje tos
ĠI S
Ġsu ero
ĠelectrÃ³n ico
ĠA gu
Ġinfec ci
Ġdi c
m us
ĠnÃº cle
Ġco tidi
Ġcorre o
Ġnorm almente
Ġvier nes
y as
Ġsuje to
Ã³lo ga
Ġre in
ĠLin ks
ĠB ur
tar a
Ġpu do
Ġcar cinoma
ĠEx pl
Ġviv en
l var
entr al
Ġre to
Ġres umen
Ġsolici ta
Ġcos to
Ġre tro
Ġpas os
ĠPedia trÃŃa
Ġcons umir
8 9
Ġform ado
ĠÃ³ p
Ġpos teriores
Ġgu ÃŃas
Ġex terior
Ġreci biÃ³
tric es
p y
ed or
ti os
Ġdi cen
f ol
g li
ĠTrabaj o
Ġhacer se
ĠÃ ļ
ĠdiagnÃ³s tica
Ġdetermin ado
Ġdetermin ados
Ġha ga
P C
ĠJ orn
T IC
Ġac os
Ġdispon e
ĠD an
Ġcompeten cias
Ġnaci do
Ġfi j
Ġcomunic ado
id aciÃ³n
ĠH u
Ġefec tivo
Ġpod cast
Ġf ras
ear ch
Ġadministr ar
Ġintegr aciÃ³n
Ġvita minas
ĠT era
Ġk il
Ġalterna tivas
Ġrecomend able
Ġdescri be
Ġpropor ciona
titu des
aba quismo
Ġes ca
Ġ199 8
ĠTi ene
ĠMi entras
ĠU CI
ci les
ĠtÃ©cn ico
Ġmel litus
Ġinform es
ĠlÃŃqu idos
ys is
ph y
cÃ³ pica
n cia
Ġco ag
Ġmos traron
Ġfundam entales
en se
Ġmicro organ
tra to
u dades
Ġpose e
ĠP on
Ġindic aciÃ³n
ĠAn Ã¡lisis
ĠSe villa
Ġsug ieren
ĠH ol
z ados
Ġrespe to
Ġsor pren
Ġtele visiÃ³n
ĠfÃ³rm ula
Ġinh al
ps is
ĠJo hn
ĠF un
Ġas pir
Ġcomp res
ĠG e
ĠEP OC
Ġse gur
m al
de pen
ĠseÃ±al ado
Ġv oy
p r
Ġlleg Ã³
Ġafec tadas
Ġmos trar
Ġcolom bi
ĠO tra
il es
l las
Ġvia je
Ġaden o
R O
Ġdeber ÃŃan
Ġreg ulaciÃ³n
an e
Ġa re
ic k
Ġfacil it
Ġperten e
Ġinteres es
Ã© micos
Ġdi mens
Ġlun es
Ġhues os
Ġanal gesia
Ġer ite
fr ica
mÃ¡ ticos
Ã³ tica
Ġapor te
Ġse de
Ġaler gia
Ġdem uestra
t Ãºan
ĠF E
ĠRep Ãºblica
P E
olu cion
Ġespeci alizada
ti es
ĠO f
Ġanci anos
ĠA t
Ġnaci dos
Ġpe dir
Ġmedi as
Ġintra ven
ta tivas
Ġpre mio
Ġescas a
Ġinhib idores
d f
Ġra tones
Ġpues ta
ĠP ues
Ġ5 2
Ġcomp ra
Ġr Ã©gimen
Ġimp ar
Ġpublic aciones
z ep
Ġsoci os
A CIÃĵN
om os
Ġdef en
- ,
ci eron
Ġrespon der
Ã³ d
Ġarteri as
ĠSoci ales
ĠC A
Ġcompa tible
ĠFern ando
tÃŃcul as
ĠM c
ĠD av
Ġen orme
Ġcon ex
TP a
Ġt on
Ġsoci edades
Ġmos trado
T ES
Ġhabi tualmente
ÃŃt ulos
ri to
ir Ã¡
Ġf an
Ġs ta
fic aciÃ³n
Ġver de
w it
cios as
Ġesc ol
Ġcorrec tamente
Ġb ur
Ġanti oxid
ĠM G
Ġme lan
ce dente
Ġ id
Ġin gre
ĠV ene
ĠDeb ido
Ġque dar
Ġin du
Ġcompr ensiÃ³n
ĠL uego
Ġent rar
Ġsegu ido
Ġdesta can
g ica
Ġmanifies to
er te
Ġo cul
ĠpÃºbl icas
ĠEvalu aciÃ³n
Ġdes eo
Ġcu estiones
el i
Ġac og
ĠÃģ lvar
Ġgastro intes
me j
Ġg lu
Ġju gar
Ġh echos
Ġdes per
Ġ quieren
Ġfa tiga
Ġcompro bar
Ġclas es
Ġhici eron
te os
tÃ¡s tasis
Ġda Ã±os
ci almente
b ular
Ã©r icas
ĠL le
Ġmemb rana
Ġaz ul
Ġindependiente mente
te in
Ġplata forma
ĠU ro
Ġevi dente
b os
Ġhospit alizaciÃ³n
Ġo don
Ġcal cul
y l
ĠB ien
ti ende
Ġsospec h
D I
Ġdefin iciÃ³n
Ġbre ve
Ġin gen
in c
8 4
Ġp h
Ġcon clusiones
Ġmes a
Ġas isti
or ina
ĠAlgun as
Ġexp lo
Ġurg ente
s as
Ġdis cre
ti go
Ġdi ver
Ġenlaz an
Ġtransvers al
cer as
Ġindic aciones
Ġlec tura
Ġsuf re
Ġata que
Ġhallaz go
ĠEx per
Ġcateg orÃŃas
Ġro mp
U U
w are
pe dia
OR M
Ġve j
ĠPre mio
Ġdoc ente
Ġradi aciÃ³n
Ġan tÃŃ
Ġmu taciÃ³n
is a
Ġfib ra
grÃ¡ fica
ĠO tras
b el
me trÃŃa
Ġpo ca
ÃŃcul os
Ġre tros
i ano
Ġ it
ac as
ĠInf ormaciÃ³n
Ġsecund ario
Ġpro puestas
Ġa ma
Ġes tenosis
me dios
Ġple ural
9 3
ĠAn tes
tic s
a ve
el os
Ġd ue
Ġdirec tora
ĠprÃ¡c ticamente
Ġau tismo
ĠUn ido
le y
Ġob tuvo
ĠSan itaria
Ġinyec ciÃ³n
ĠP rin
tific ado
Ġ5 4
Ġres al
Ġdef ine
ĠB an
k ing
x ido
Ġsab or
? .
ĠG uerra
Ġ6 4
bil izaciÃ³n
Ġser o
ĠP uer
Ġinf ra
mi as
Ġsol id
Ġexpl or
TIV O
Ġci udades
Ġcontras te
tu ros
D e
truc ciones
Ġmon ta
ĠT TPa
Ġliber tad
!! !
Ġop era
Ġcorrel aciÃ³n
Ġsolici tar
Ġrealiz arse
Ġse l
Ġvis itas
ĠPos teriormente
Ġnumeros as
Ġdif usiÃ³n
ber g
Ġanal gÃ©s
Ġpens amiento
ĠC I
Ġprevi as
ĠH ace
Ġurg encia
Ġexplic Ã³
Ġcar ne
Ġretras o
Ġc es
Ġcuid ar
Ġr on
ĠVal l
icar dia
Ġfin alidad
ar ca
27 33
ĠM uy
Ġapor tar
ĠD os
Ġps icos
tri a
ĠD on
ĠmolÃ© culas
ĠP si
Ġ5 6
ias is
Ġinstrum entos
Ġutiliz Ã³
Ġprofes ores
Ġfun ciona
Ġb on
Ġfab ric
Ġsir ve
id ado
ĠM ic
et ales
ĠAca demia
Ġdeb es
ĠAmeric an
Ġde do
C o
Ġfle xi
Ġadi cional
Ġac or
it es
Ġplan es
Ġafec tada
ĠE con
Ġin com
Ġescri bir
ĠFamil ia
or io
Ġcons igue
ĠPu bl
ĠH b
ĠRe ino
ra y
L O
Ġres tric
Ġbloque o
Ġho jas
ys te
T S
co c
id al
fer encias
Ġpelig ro
tri monio
Ġeleg ir
Ġhe mi
Ġpar ecen
Ġperif Ã©rica
able mente
Ġder rame
Ġconta min
ĠAn ti
Ġasegur ar
Ġdetermin aciÃ³n
Ġg ar
Ġparticip ado
ĠbÃ¡s icos
ide l
ĠDoc tor
Ġjue gos
Ġdescrip tivo
Ġof recen
ĠprÃ³ ximos
Ġconoci dos
Ġconvenci onal
Ġan un
Ġmicro bi
g Ã¼
---- ----
Ġfab r
IS T
Ġju icio
ter rÃ¡n
Ġimp lante
ĠI c
te ca
Ġp ec
Ġes pi
gr ad
ĠtÃ³x icos
re d
ĠC ris
p era
Ġclar amente
Ġbra zo
Ġacel er
Ġex istentes
Ġcons entimiento
ĠDav id
ĠA V
Ġhorm onas
un tos
um in
Ġres uel
Ġconcep tos
Ġinform ar
Ġd ada
Ġn erv
ĠP ablo
Ġrealiz ando
Ġpermi tido
Ġintro du
Ġm entales
ta bles
Ġmec Ã¡nica
C E
i ologÃŃa
. ).
Ġorgan ismos
Ã± ez
n is
Ġesta bilidad
ĠsÃŃn toma
ĠseÃ±al Ã³
Ġvag inal
Ġevolu cion
S i
ĠP L
Ġd Ã³nde
ĠN or
Ġr eno
Ġmuc osa
Ġil us
Ġdesay uno
ar y
esti ma
Ġse mi
Ġfarmac olÃ³gico
Ġindi s
Ġmetod ologÃŃa
Ġsu ma
ĠÃ©s tos
ĠM ac
Ġciruj ano
Ġaum entado
Ġdesarrol lan
Ġin tenciÃ³n
Ġdepen diendo
ĠlÃŃ mite
Ġaisl amiento
ĠDirec tor
Ġgus tarÃŃa
en qui
bu profeno
ĠM S
27 38
Ġfrac turas
Ġes enciales
ter ÃŃa
Ġau t
Ġcompeten cia
Ġactiv aciÃ³n
Ġsal vo
Ġdeb a
Ġmil es
Ġsignifica tivos
ĠNe w
ta ba
y e
Ġcele bra
Ġabsor ciÃ³n
Ġpsi quiÃ¡
tin ales
ener aciÃ³n
ĠCatal uÃ±a
ÃŃ das
Ġlabor ales
Ġsol ar
ĠN E
Ãº tbol
AD OS
ios o
Ġradio terapia
Ġv ie
Ġimprescindi ble
Ġextrem idades
Ġdetermin adas
Ġap lica
Ġt reatment
Ġtrad uc
Ġconta minaciÃ³n
Ġpsic olÃ³gico
ĠM I
ĠestadÃŃs ticamente
Ġliber aciÃ³n
Ġf ia
ĠC entral
Ġdiges tivo
Ġmig ra
ĠMa terial
Ġefic aces
x a
Ġcre ado
Ġcos tes
ce fal
ta mientos
Ġvuel ve
Ġhubi era
Ġin e
Ġs ana
Ġno v
ĠF ib
b or
jer os
om er
un as
Ġra ÃŃz
Ġtrabaj an
Ġartic ulaciones
Ġ9 4
Ġparti cipa
Ġafec tado
ĠRam Ã³n
Ġf amos
ĠRa fa
tri cia
Ġrevis tas
ĠH EM
i era
u de
Ġacon te
Ġca te
ĠÂ »
f ib
Ġher idas
ti eron
Ġmens aje
Ġlle gado
ber t
m Ã¡n
Ġcomprim idos
Ġmedi ciÃ³n
Ġle ucocitos
ten cia
ĠFar macia
M C
Ġï Ģ
ti pos
Ġadher encia
Ġrela tivamente
Ġcif ra
vie w
Ġter ren
Ġt abaquismo
ĠD ecre
Ġli der
Ġl Ã³g
ĠsanguÃŃn eo
ĠD ig
Ġrelev ante
ĠS AR
Ġcol a
Ġviv ien
ĠMÃ©to dos
Ġpres ti
Ġdem ues
9 1
er ales
Ġpun ta
Ġban da
ĠCom ple
u alidad
Ġcomp u
z amiento
Ġabier ta
ed ores
ĠLab ora
Ġcomien zo
Ġnervi os
ĠJim Ã©nez
p ora
tor y
d ÃŃ
Ġorganiz a
Ġse ca
Ġconvier te
g adas
Ġb lando
Ġcardio patÃŃa
er to
ril lo
Ġ14 0
is h
mi algia
Ġrequis itos
Ġint ent
Ġsac ar
Ġti n
cre as
ĠD entro
Ġhal l
Ġveg e
Ġimp ul
Ġinvers iÃ³n
Ġdise ase
b ido
tu m
Ġres tos
Ġmez cla
t ul
v ula
ĠB el
Ġobten ido
gu ar
Ġtit ular
tiv al
Ġqui Ã©n
Ġes qu
Ġse d
Ġg estion
ĠN orte
Ġpuntu aciÃ³n
Ġver duras
Ġrece ta
Ġsenti mientos
Ġme tÃ¡stasis
Ġ199 7
Ġor ales
Ġcier re
an ÃŃa
Ġcal ci
ade cu
por osis
Ġhiper tens
ĠL on
ĠhipÃ³ tesis
ab e
Ġhab rÃ¡
duc e
aci ona
ĠAle mania
Ġdi Ã¡lisis
Ġal tamente
o ce
ĠantibiÃ³ tico
Ġa per
Ġte m
ar ro
Ġso dio
Ġdi et
z can
tal ia
to do
âĢ Ķ
Ġof talm
tu mb
ĠM ari
e ma
h am
Ã© micas
o peraciÃ³n
ad Ã¡
ĠPre venciÃ³n
Ġad quis
Ġop timi
Ġutiliz ada
ĠÃºtil es
tÃ¡n eo
Ġin au
Ġ5 1
Ġpermi ta
Ġnorm alidad
ĠCu idados
der os
ĠCar dio
Ġpre dis
ĠRu iz
Ġquier es
Ġfuer zas
Ġmal ig
Ġir rad
ĠIn tegr
Ġpas ando
Ġnego cio
o b
Ġdefin ir
Ġsencil lo
ici lina
Ġdocum entos
Ġestim ul
Ġde dos
Ġalcan ce
p il
pl an
Ġpre de
ĠR X
Ġradio grafÃŃa
Ġan at
ĠA T
uev es
ID O
Ġarri t
Ġori entaciÃ³n
Ġraz on
Ġal cal
in d
vi Ã³
Ġis que
Ġdes com
Ġc Ã¡mara
ĠcuÃ¡l es
ig en
ĠM Ã¡
Ġsuper ar
Ġcal orÃŃas
Ġurin aria
Ġcr ÃŃtica
Ġviv e
ĠDecre to
Ġtu bo
Ġinmun e
Ġresi dencia
tab an
Ġref or
Ġci gar
gen os
G R
Ġneur onas
Ġreg ional
ĠseÃ± ales
Ġdis cri
Ġpro li
Ġconsidera ble
Ġembara zada
ĠR el
Ġcoment ario
ĠbÃ¡s ica
ĠtÃ©cn icos
Ġdeber Ã¡n
Ġm ara
Ġinmedia tamente
u mi
r adas
Ġpro fil
er amente
Ã³l icos
Ġsuce de
grÃ¡ ficas
Ġp ena
Ġdemos trar
Ġest Ã¡s
Ġ1 20
ĠB r
ĠE p
Ġarg um
ĠOnc ologÃŃa
Ġhorm ona
ĠlÃŃ mites
Ã¡ ce
ĠriÃ± Ã³n
om n
Ġseg mento
ĠpolÃŃ ticos
Ġrecono ce
Ġenl ace
Ġent ra
Ġ5 3
Ġhep Ã¡tico
Ġdefec tos
et y
am in
ru pciÃ³n
Ġauton omÃŃa
ĠLi pemia
Ġab rir
Ġpau tas
Ġami go
par os
Ġreconoci do
Ġno table
ĠdiÃ¡ metro
ag ia
Ġconcl uye
le psia
Ã³ tico
Ġdi chas
ĠConse jerÃŃa
Ġse mil
Ã¡c tica
Ġleg al
ĠRe vista
Ġinmedia to
Ġmic ros
Ġtrans par
Ġcu entan
Â ±
Ġobs trucciÃ³n
Ġnom br
ti mo
Ġad ulta
Ġsu ces
Ġgr ados
Ġrepres entan
Ġsu ges
ĠV ol
Ġdiagnostic ados
Ġintro ducciÃ³n
j era
Ġemple ados
Ġ9 3
Ġv esti
Ġmus culares
ĠM el
qui tec
Ġpa trones
Ġprecis iÃ³n
ĠE r
P ro
Ġcompar ar
Ġadecu adamente
ent re
Ġorganiz ado
Ġu re
Ġest arÃ¡
ĠK a
Ġpreocup aciÃ³n
Ġcomp rar
Ġextra cciÃ³n
ĠU S
ĠS A
ĠM ad
Ġmarc adores
ĠmÃŃn ima
Ġin hibi
ĠfÃŃs icas
Ġpl aca
Ġdescan so
Ġpsic ologÃŃa
am ble
lam ento
ĠG R
, .
ĠeconÃ³m icos
b un
Ġt ambi
Ġconver tido
Ġpermitir Ã¡
ĠEpi demi
Ġb ul
Ã³l icas
p ina
Ġcer can
Ġde v
ĠC S
Ġf ec
Ġpriv ada
ter as
ĠfarmacÃ©u ticos
iz an
Ġna ve
Ġconsegu ido
un g
Ã¡ menes
Ġme t
ĠNeuro logÃŃa
Ġpre cios
Ġplan o
ĠM ental
ÃŃs imo
Ġlimp ieza
Ġv idas
qu in
Ġenfer meros
Ġp Ã¡r
i di
ide a
Ġcomplic aciÃ³n
k y
Ġambi entales
e de
an cias
Ġ ciÃ³n
Ġs eno
Ġl infocitos
gu es
ĠJ ulio
AC E
Ġ6 8
Ġinterpre taciÃ³n
Ġjur ÃŃ
an al
gra fÃŃas
Ġrecuper ar
ci tos
Ġtum oral
Ġin jer
OM S
Ġus ando
tiz aciÃ³n
Ġcor ta
b ras
Ġpreci so
Ġimplan tes
Ġcorrespon dientes
Ġca tal
Ġh os
ĠsÃŃn tesis
Ġevi dencias
Ġinclu ido
ĠA z
Ġnerv io
ca paci
ĠReg is
i i
ing e
Ġsome tidos
Ġimple ment
Ġprofun didad
Ġsobre viv
b ana
ĠJ orge
Ġe ficiencia
cu ra
ĠcÃ¡ ps
Ġin adecu
Ġdi ur
ĠV il
Ġcolo car
Ġavan zado
Ġcontin Ãºa
Ġdepres ible
Ġimpos ible
Ġcardi aco
Ġ8 2
Ġcapaci dades
am ina
Ġindivid uales
Ġestr ic
Ġdesempe Ã±
Ġt ens
Ġconcl usiÃ³n
am Ã©rica
ĠPen diente
Ġbila terales
Ġsigui endo
? ,
ri tis
Ã³ ticos
Ġi di
L as
Ġpri ma
tra teg
Ġanticon cep
Ġro jo
Ġdes vi
Ġpar ecer
Ġcomer cial
Ġcual ita
Ġbron co
Ġbi om
Ġmi el
on ia
Ġcre ma
Ġh eces
Ġenfr ent
ĠaÃ±ad ir
Ġprim ario
Ġisqu Ã©mica
cin as
P I
5 00
Ġplas ma
y u
Ġlo gra
Ġtox icidad
Ġlle gan
Ġdes n
Ġ9 2
M O
Ġrele van
les ia
Ġinv it
Ġâ ī
Ġf ies
Ġ Î
Ġperf usiÃ³n
Ġabord ar
ĠC ri
Ġconlle va
ĠO D
Ġres pir
Ġtrauma tismo
ĠCar men
ĠpolÃŃ tico
Ġadolesc encia
Ġdis cu
Ġespec tro
Ġalea tor
Ġfemen ino
Ġfr ÃŃo
ĠSuper ior
ĠÃº tero
Ġprotoc olos
i gual
Ġfavor ecer
la v
j idad
ĠEs o
ĠI D
der s
ĠM AP
Ġl uc
ĠS ER
de res
i me
Ġcomple tar
Ġpermi tan
ĠD ado
u ciones
Ġcom or
n ar
C P
ens ibilidad
Â °
ril aciÃ³n
ĠBuen os
i ados
Ġarri ba
Ġr ue
Ġdimens iones
Ġdar le
g amos
ĠCon tin
or ia
Ġno ticias
Ġauto inmun
Ġori entado
Ġcuidad ores
Ġa or
Ã± imiento
Ġrepresent antes
ĠB ro
h ib
Ġplante a
lo w
Ġan unci
C D
ĠInf antil
Ġconv iv
ĠS te
Ġ5 7
Ġ8 8
Ġar ticular
Ġsin usal
Ġon line
Ġman ual
Ġperio dis
H O
u mat
Ġtra cto
Ġre tos
Ġpla zas
Ġinterval o
Ġren ales
U n
ĠAutÃ³n oma
Ġ5 8
Ġtom ado
Ġta qu
Ġpa gar
ĠCOM P
ome trÃŃa
Ġemp ren
p p
Ġca fÃ©
Ġep id
Ġde pos
Ġir reg
Ġp ru
Ġartic ulaciÃ³n
h u
Ġinici Ã³
Ġpan cre
Ġrepro ducciÃ³n
Ġobje tiv
ech as
Ġ199 6
Ġa trÃ¡s
Ġest ando
Ġpre ca
Ġj er
EMA IL
Ġre tina
Ġinfl uen
Ġar t
Ġconse jo
Ġeduca tivo
Ġleg isl
Ġtromb o
Ġo ÃŃdo
Ġs Ã¡
ĠC ha
ĠfÃ¡cil mente
Ġhis torias
Ġabund ante
ĠL es
Ġplan ificaciÃ³n
Ġmani p
Ġi ba
Ġfuncion ales
or as
Ġinter no
Ġalim enti
ĠD u
ĠF ÃŃs
ĠbÃ¡s icas
Ġbra zos
Ġ6 6
ĠS ue
ĠW eb
Ġtr iste
CION ES
Ġsuf rido
Ġsenci lla
Ġperit oneal
Ġapro bado
bi endo
ĠF oral
Ġindi rec
ĠCh ina
Ġgan ar
Ġci s
Ġreco ge
Ġinter net
es tre
f ren
ne y
ĠV is
el as
truc tiva
Ġ6 2
ĠB lo
EN CIA
Ġunivers idad
tu vieron
Ġcre ciente
Ġoportun idades
ĠDiagn Ã³stico
Ġcol ores
tar ias
Ġer es
ĠneurolÃ³g ica
ur g
fici os
Ġserv ir
Ġintens a
don cia
Ġmis iÃ³n
ĠP i
ĠfÃŃs icos
ĠT ur
ran tes
Ġdef ens
ĠPa ÃŃs
Ġad mi
l pm
Ġmin erales
Ġres piraciÃ³n
ĠsanguÃŃn eos
Ġgol pe
ĠVene zuela
Ġintelec tual
Ġanomal ÃŃas
f aci
Ġrar as
ĠRafa el
Ġex pe
Ġj ueves
Ġadecu ados
m acias
Ġvul ner
Ġaliv iar
ĠRes pecto
Ġ20 20
ĠC Ã¡
Ġ6 00
Ġes clerosis
Ġpa is
Æ Ĵ
OLOG ÃįA
Ġci encias
ĠEx iste
Ġcab e
Ġafec ciÃ³n
p Ã³n
Ġsi ente
teri cia
ĠCi encia
Ġcl ima
Ġsi tios
Ġcav idad
Ġgen Ã©ticos
tera peu
Ġs ul
ĠEn rique
Ġimp er
ac tividad
Ġac tÃºa
Ġcontra indic
Ġinici almente
Ġh arÃ¡
quÃŃ mica
Ġpro m
Ġw h
ti za
Ġcu arto
Ġinmedia ta
Ġunivers al
Ġlabora torios
re o
Ġeco cardi
Ġ6 1
pec ÃŃ
Ġequiv al
ĠL ic
Ġdiv ul
Ġde trÃ¡s
Ġcu tÃ¡nea
Ġser ies
de pres
Ġsecu encia
B A
Ġ* *
Ġfaci lita
ti ta
Ġ6 3
Ġv ic
ter ona
ft ware
Ġestudi ado
Ġter cio
Ġre emp
Ġsegun dos
ĠB or
Ġsan o
Ġcump le
Ġisque mia
Ġfe to
Ġm oles
ÃŃ ri
= =
t Ã©tica
Ġecon omÃŃa
Ġf ren
Ġinvestig adora
Ġpres taciÃ³n
Ġinci dencias
Ġactu aciones
Ġsub s
pl Ã¡s
em ent
I ER
Ġin mi
oso tros
Ġor to
dr ÃŃa
Ġfib ras
Ġu ro
Ġres onancia
Ġin teg
Ġcon ducir
ĠG estiÃ³n
Ġab uso
l ÃŃ
ĠL ac
Ġcons enso
j ec
Ġpl Ã¡s
e amente
Ġd ul
ur s
ĠF uer
ĠAb domen
Ġh ar
P aciente
Ġs ar
Ġpriv ado
Ġr in
ĠÃģ rea
Ġconf igur
Ġint oler
ci ru
o pa
Ġcomple jidad
ĠMor eno
Ġdeci dir
H e
i go
enqui matos
Ġres ca
Ã³ f
ĠFarmac Ã©u
ĠÃ¡mbi tos
Ġpas Ã³
Ġmodific ar
ÃŃs ticos
ĠClÃŃn ico
C T
Ġ5 9
Ġimplic ados
Ġle jos
Ġcar e
Ġro pa
Ġl Ã¡
Ġdi go
Ġparticip an
ĠDispon ible
Ġmoder ado
Ġeurope os
Ġinflama toria
Ġverda dera
Ġven tilaciÃ³n
ĠC E
Ġapoy ar
Ġpedia tra
Ġinau gur
U ES
Ġhace mos
ĠF a
Ġsu ave
ĠtelÃ© fono
cri p
emp o
Ġatra c
Ġvar Ã³n
in t
il los
Ġdi gn
socia tion
IC OS
h an
d ado
Ġvir al
A n
Ġamino Ã¡
e lo
Ġ ^
Ġex Ã¡menes
P ER
en den
Ġblan ca
Ġcu yos
Ġcica triz
( .)
ĠL O
Ġb et
ac ciÃ³n
ĠN uestro
Ġaum entan
I X
Ġinter s
Ġnorma tiva
om bre
Ġ199 5
Ġincrement ar
Ġdoc entes
Ġdiab Ã©ticos
Ġimp ac
Ġregis tros
ci encia
Ġconoci das
Ġoper aciones
Ġprepar ar
Ġapar tado
Ġgr Ã¡
ĠS T
qu inas
Ãį N
i dismo
Ġcoron ario
ĠMuch os
Ġpol ic
an im
Ġcar bo
Ġpresu puesto
bl as
Ġque dan
Ġanti inflama
Ġadquis iciÃ³n
Ġesqu izo
ĠquirÃºrg icas
ĠlÃŃ der
Ġforma to
Ġcri bado
er se
Ġob tenciÃ³n
tros is
A G
olog ical
Ġde bilidad
Ġn ueve
or e
Ġdiagnostic ar
Ã©r cito
Ġhab rÃŃa
Ġel e
Ġcaracter ÃŃstica
iz on
t z
Ġidentific ado
Ġr ÃŃo
ĠPar acetamol
Ġdon aciÃ³n
Ġcicl os
Ġ8 9
Ġpu diendo
aci Ãĥ
Ġede mas
Ġajus te
ĠA f
I OS
Ġconvoca toria
l en
d ular
Ã©l v
ĠS olo
Ġtele f
Ġch ild
Ġprecis amente
Ġpotenci almente
Ġper i
ĠacompaÃ± ado
Ġmanifies ta
tor as
Ġs h
Ġaliment aria
ur is
Ġ8 4
Ġ9 1
Ġgras os
A s
Ġcl ientes
tr y
Ġdi fun
Ġsolici tud
ab el
Ġsab en
ĠPar kinson
Ġus an
ĠC M
Ġb os
ic s
Ġne gro
Ġsecre ciÃ³n
Ġpade ce
Ġmor bilidad
Ġmagn Ã©tica
ĠÃģ frica
Ġco h
Ġproce dentes
Ġlig eramente
en es
ĠG a
cional mente
Ġpubl ica
der Ã¡
enci aciÃ³n
Ġsu erte
Ġocur rir
b acteri
ĠE fec
Ġe d
ti mos
Ġher edi
ad ura
Ġv ice
Ã³m icos
ĠvÃŃc timas
Ġincorpor aciÃ³n
20 19
Ġpoten cia
ĠaÃ³r tica
Ġrecomend aciÃ³n
Ġar ch
Ġasisten ciales
Ġr ara
ĠC alidad
Ġex istir
ÆĴ Ã
Ġtra um
Ġaument ando
Ġmicroorgan ismos
Ġcon greso
Ġmas as
Ġ6 7
Ġma te
bl aciÃ³n
Ġref uer
Ġambi ental
ues tros
Ġrelevan cia
Ġcr on
Ġsegur os
ĠE cu
Ġpas an
gres os
Ġc raneal
fil ia
Ġconf irma
Ġauto estima
ĠInvestig adores
Ġpar tÃŃculas
Ġu ter
Ġcos tos
M e
Ġfum adores
ta vo
Ġpro pa
Ġaler ta
Ġeviden ci
ĠTo das
cu tÃ¡nea
Ġfe tal
Ġnar iz
Ġnega tivas
ĠPs ych
Ġ6 50
Ġemerg encia
z aron
Ġparticular mente
Ġfom entar
Ġimple mentaciÃ³n
Ġdetermin ada
Ġnuev amente
ĠU r
ĠS ec
Ġv ena
Ġagu as
Ġestra tÃ©
tiro idismo
ma il
Ġa bre
ti ra
Ġaper tura
ÃŃ g
Ġoc ci
Ã¡n creas
tad ora
Ġac tos
Ġconvertir se
ÃŃ c
Ġpol vo
Ġafron tar
T OS
Ġfar macias
ĠS Ã³lo
di Ã¡lisis
amble a
ĠS IN
ĠC la
ol as
i ada
ĠnÃºcle o
ĠJ us
ĠM is
Ġau xil
Ġac aba
Ġba Ã±o
Ġfon dos
Ġconv uls
Ġestre Ã±imiento
Ġpudi era
Ġfuer tes
de ras
Ġobje tiva
tur aciÃ³n
Ġth is
Ġpres i
Ġpropon e
elle za
Ġten d
Ġvej iga
Ġno ticia
Ġcerc ano
Ġtra yec
Ġap unta
ĠMedic amentos
Ġv aya
Ġcomple jos
Ġproxim al
Ġ6 9
pat ologÃŃa
ĠE co
Ġfisio terapia
ĠC P
Ġosteo porosis
ENT ES
aliz aciones
ĠautÃ³n omas
ri tos
Ġin qui
ĠS I
Ġcul turales
ĠOr den
ue ba
Ġsens ible
Ġdi etas
Ġpuer ta
p ado
ĠV an
Ġori ent
Ġbi olÃ³gicos
ĠAn dr
ĠG inec
Ġ7 4
Ġins ec
Ġreci di
Ã³n imo
Ġt rim
Ġherman o
Ġcla ves
Ġgus to
z co
Ġin cen
Ġ8 7
Ġindepen dencia
ĠS AL
ĠS EC
Ġch ar
Ġanticoag ul
pra zol
Ġanaliz aron
c Ã¡r
Ġb u
Ġdescri tos
Ġdesa f
D R
ez ca
Ġad h
ru g
Ġcoloc aciÃ³n
Ġper dido
Ġf Ãºtbol
Ġau dios
Ġin vier
Ġdescri bir
AN TE
b amos
Ġcam inar
ĠP op
Ġvolun tad
ĠU R
Ġexclus ivamente
Ġofer ta
Ġante cedente
ĠCap ÃŃtulo
Ġin capacidad
ĠR ÃŃo
ĠD A
ĠÃģlvar ez
de x
ir man
Ã¡n eo
Ġfracas o
Ġcontrib uye
ĠMur cia
Ġdes ign
Ġtendr Ã¡n
ĠquÃŃ micos
Ġpor ciÃ³n
Ġadqui rir
Ġi gn
Ġmascul ino
Ġ8 6
ĠG re
Ġemp ieza
Ġinicia tivas
Ġdedic ado
Ġ8 3
Ġelev ados
ĠEl ec
ĠB us
Ġge ogrÃ¡
ĠTrastor nos
c ada
ĠC V
Ġlogr ado
u ri
Ġiden tidad
Ġhac ÃŃa
Ġrepres entaciÃ³n
ÃŃn s
Ġdefec to
ĠhÃ¡bi to
Ġherman os
Ġp il
ĠBo go
Ġningun o
iv er
Ġde cre
Ġcon tes
Ġafec ciones
Ã³r icos
Ġt Ã©
Ġaquel la
Ġdemos trÃ³
lan o
Ã©r coles
Ġcondi cion
Ġar m
Ġin cu
ic ultura
Ġparti dos
Ġincluy eron
Ġir re
Ġros tro
Ġcontra c
Ġa v
Ġdetal les
Ġprop iedad
Ġtromb osis
Ġdemues tran
Ġlo g
Ġcuer pos
eg al
Ġbal ance
Ġlig era
ĠD IS
ton ina
Ġent ero
Ġdren aje
Ã© di
Ġbusc ando
Ġin m
Ġhom bro
i res
Ġpon en
Ġcub rir
Ġinter rump
Ġson da
ĠU s
pos a
e e
ĠCur so
Ġpresent aban
Ġveg etales
Ġbil iar
v ida
ic en
Ã¡m icamente
c Ã©s
Ġpa go
ĠPro vin
ĠpediÃ¡ trica
Ġus e
hi per
el es
ĠM ie
Ġocas ion
Ġconven iente
Ġresul tar
Ġt ono
Ġni Ã±a
ĠObje tivos
Ĥ ¬
Ġmodific aciÃ³n
Ġder mat
Ġpues tos
era py
Ġcel ulares
ĠZ ara
Ġhum or
Ġan e
Ġrecl am
Ġvas culares
Ġingre dientes
Ġelabor ado
Ġto bil
ĠSu b
Ġh el
ec ÃŃa
Ġa go
Ġpi lo
Ġapro baciÃ³n
Ġ7 8
ER M
Ġpare jas
Ġdes tr
Ġsi ento
ĠF ormaciÃ³n
ĠPro ce
Ġrecha zo
Ġolvid ar
Ġpro me
Ġ% :.
Ġhabl amos
quir Ãºrg
Ġ25 0
Ġdeci diÃ³
Ġend ome
Ġrel aciona
ol encia
ĠCons ul
Ġ7 1
Ġgen Ã©ticas
ig ht
ĠS p
Ġan ormal
Ġdistrib u
E V
ĠprÃ³ xima
Ġtermin ar
____ ____
ĠdiseÃ± ado
ĠGu ÃŃa
Ġconflic to
ter s
Ġrecomien dan
c ados
Ġexplic an
Ġtambi en
Ã¡g ico
Ġtron co
ax is
Ġrespon de
Ġrecur so
v ante
Ġin tr
oci al
Ġval v
we en
Ġej ecuciÃ³n
gu ay
Ġcaus ada
Ġmultidiscipl inar
ĠI r
Ġra yos
Ġfo co
di ces
b ano
Ġad ver
Ġp uso
Ġsiste mÃ¡tica
ac os
ĠC Ã³mo
ti bilidad
ĠSol ici
ti asis
ĠÃŃ te
Ġtom an
Ġdepen diente
ĠSAR S
Ã¡ is
ier ÃŃa
ĠÃ©s tas
g ulo
iv idad
Ġinv er
ill er
f lo
Ġbuc al
Ġmin imi
Ġcontinu o
uy eron
Ġescol ares
Ġfibro mialgia
Ġdescub rir
Ġcu bier
ru gas
Ġf ic
Ġul tras
tero ides
Ġor o
Ġadecu adas
Ġpes cado
ps ic
ĠJ un
Ġau dio
Ġagu das
ing itis
i tud
Ġintelig encia
Ġcap ÃŃtulo
ĠCas tro
Ġce pas
ĠDis e
as h
Ġmal o
pens aciÃ³n
Ġirri taciÃ³n
ter na
) -
Ġfib rosis
Ġretir ada
Ġunivers idades
Ġcul tivos
ab ras
Ġrecog ida
Ġ7 3
ĠPer Ãº
Ġin ger
ĠV illa
Ġenz imas
Ġproba bilidades
H S
ĠaÃ±ad ido
Ġre ales
Ġconserv ada
ĠAr ch
coc cus
Ġsal e
Ġsig las
wit ter
Ġcur aciÃ³n
Ġru tina
Ġp is
tÃŃcul o
ti to
Ġcontra to
Ġpres identa
s er
ĠSe gun
Ġf irma
Ġres pal
d y
. ),
Ġcaracter izado
ri tÃ¡n
Ġsist Ã©mica
ĠAl on
pl ante
Ġespeci alizado
Ġcontrol ado
Ġfavor ece
Ġdi arias
go za
Ġcelebr aciÃ³n
Ġpla quetas
f re
Ġmi x
Ġv eo
Ġle ves
Ġe ficiente
ĠcardÃŃa co
ĠT anto
tan o
P O
di as
S T
Ġexter no
p icas
Ġ7 7
Ġdivers idad
Ġc Ã³digo
Ġcu adr
a tion
tr ando
ĠSat O
is tal
Ġconse jero
Ġcre pit
Ġexperim ental
Ġv ÃŃn
Ġs Ãºbi
Ġbaj ar
ĠActu alizado
ĠF al
Ġv ino
Ġf eno
Ġpes e
Ġori entada
Ġmedi ana
car ga
dad or
Ġob tiene
Ġ7 6
ĠRec om
Ġextra ordin
tic ulares
Ġrefer ente
cop io
Ġcul pa
v aciÃ³n
ul itis
Ġobserv aron
Ġayud as
Ġ Î¼
ĠC ro
ĠR en
ĠquÃŃ mica
olÃ³g icamente
ĠPor que
Ġpoten ciales
Ġn Ã³d
Ġbacteri ana
r aciÃ³n
ĠC las
Ġins ul
Ġlimi taciÃ³n
tor al
la ga
ĠRe ci
ĠS ab
ĠMedi cine
l ada
Ġl im
Ġpers istencia
Ġis la
ĠT abla
di rec
Ġar quitec
Ġsec tores
ĠcÃ¡ncer es
Ġtotal idad
tor no
ĠA quÃŃ
ĠO I
ĠSi empre
Ġseleccion ados
ĠCons titu
ĠC Ã³r
Ġp Ã¡ncreas
ida de
Ġmor tal
Ġaconse j
?? ??
ĠC at
Ġdon ante
Ġpie zas
Ġdescu bierto
Ġpre mios
Ġso por
Ġla paros
ĠPa z
Ġloc alidad
Ġre don
Ġexpec tativas
Ġenz ima
Ġin esta
Ġmu Ã±
Ġdesp ren
ĠAlon so
ĠtrÃ¡ fico
Ġesc uelas
Ġref rac
Ġ199 4
Ġmor ir
do ba
Ġpa z
ĠterapÃ©u ticos
Ġgan as
iz adas
Ġquiz Ã¡s
ĠespecÃŃ ficamente
Ġde ficiencia
Ġsuple mentos
if orn
ĠI gual
Ġopin iones
fren ia
hid ro
Ġconstr uir
Ġintercambi o
Ġa val
Ġcoleg io
ĠF re
pl ica
Ġde cl
Ġd ra
Ġa meric
Ġpo tasio
Ġsec uelas
Ġin cis
Ġdel ante
ĠIncl uido
Ġepi lepsia
Ġexces iva
Ġcortico ides
ĠB l
ĠCan cer
ĠSe Ã±
ĠF il
ti fi
ug h
Ġj a
Ġproce de
Ġs at
ĠCh ar
Ġdila taciÃ³n
Ġint ento
Ġdi eron
Ġmi Ã©rcoles
Ġmonitor izaciÃ³n
f Ã¡l
Ġparticip aron
ĠelÃ©c trica
Ġsuperfici al
Ġdispon ibilidad
Ġt esti
Ġris k
ĠAle jan
Ġsignific ado
Ġproli fer
Ġventr ÃŃculo
or rea
gli os
ĠclÃŃn icamente
Ġestad ÃŃstico
Ġpers iste
Ġden tales
vi era
Ġrev olucion
ÃŃ gen
ĠS im
d ing
quil la
20 17
Ġdifer encial
Ġescen ario
ĠI talia
Ġes til
Ġtaller es
m ÃŃn
ĠÃºl ceras
oso fÃŃa
Ġrepar aciÃ³n
iforn ia
Ġima gin
Ġa er
ĠC K
Ġjus to
w o
iz aciones
Ġinvas iva
Ġdesempe Ã±o
Ġplan eta
I ÃĵN
Ġinf usiÃ³n
Ġtempran o
Ġra ma
Ġru idos
ĠF on
Ġmetab Ã³lico
i encia
Ã³s itos
i ero
Ġgas tos
Ġen rique
bil ity
Ġcor riente
or iasis
Ġal b
Ġcos m
fac ciÃ³n
ĠR S
ĠL or
rag Ã³n
ĠC ambi
Ġhin cha
ĠPar ti
Ġb elleza
Ġmul tic
Ġintro ducir
g ina
u os
Ġ199 0
ĠvÃŃ deo
ĠbÃ¡s ico
ĠS ig
uma to
Ġneces it
ĠS ÃŃ
di cial
ĠT ierra
ac ho
e to
Ġmotiv aciÃ³n
Ġestad ÃŃstica
Ġinterac ciones
Ġatrib u
Ġac titudes
Ġtal la
ĠR osa
zep am
Ġcontrol ada
ĠVir gen
ĠPR ES
Ġrealiz arÃ¡
Ġfacil idad
ic ulares
Ġvuel ta
ĠRes earch
ĠO ri
Ġinfil trados
Ġaler gias
ĠD L
v ador
Ġcub ana
Ġlimi tada
ebo ok
i aciÃ³n
ĠLa tino
den t
Ġfru ta
ĠcutÃ¡n eas
Ġt rig
Ġtrans i
den as
Ġpers istente
Ġhon or
Ġpermi tiÃ³
Ġconfirm ar
Ġreg ula
Ġinfec ciosas
ĠsanguÃŃn ea
ĠB os
Ġrefle ja
Ã³l ares
ĠInvestig aciones
Ġclin ical
ĠelectrÃ³n ica
l d
in cl
Ġcent r
Ġeurope o
ĠPsi quiatrÃŃa
Ġdel eg
enci ana
i k
Ġso pl
Ġderiv ado
Ġfel iz
Ġtransmi tir
ĠEs tad
Ġautor izaciÃ³n
Ġman tienen
Ġex tir
ĠX V
ĠE d
Ġdepor tiva
IN E
Ġll en
Ġe upne
ĠAl berto
is tan
ten ia
t Ã©r
Ġpar Ã¡s
ĠJ ul
b es
Ġarti ficial
Ġgan glios
Ġv itro
Ġredu cido
Ġsub je
tox icaciÃ³n
omn io
Ġestadouniden se
Ġdenomin ado
Ġsens ibles
Ġacad Ã©mico
ĠFis io
Ġpal ia
Ġinter fer
Ġcompe ti
Ġl Ã¡c
Ġal fa
ĠLa tina
per s
ri t
Ġve in
Ġacab ar
ĠA mi
O E
ĠI ma
Ġmar tes
Ġadi cionales
20 18
Ġso ftware
Ġdes igual
Ġdef orm
Ġd Ã³lares
T AS
Ġp ig
Ġesper o
om ina
Ġin n
Ġ8 1
ĠCom par
Ġadolesc ente
u ficiencia
Ġa ci
Ġcomplic ado
Ġvaria bilidad
am bre
den es
Ġcl ub
Ġval idez
Ġdispon er
cri bir
ĠV ac
Ġfo tos
Ġanti m
Ġform ul
ĠD omin
Ġactu alizaciÃ³n
Ġcolabor adores
Ġjun tos
Ġef fec
Ġcuad ros
Ġrec ol
ĠCo ordin
Ġsu ficientes
Ã³ metros
gluc emia
e u
ar los
tra c
ĠZara goza
ĠeconÃ³m icas
Ġincluy Ã³
Ġinfluen za
mi cina
Ġgrad u
uch a
p lo
ĠP P
ÆĴÃ Ĭ
ĠPres s
Ġre y
Ġreper cusiÃ³n
d res
Ġs ho
A r
ĠM ir
Ġases oramiento
Ġindic ar
Ġperson ajes
Ġinici ales
dro mes
ad i
al quilo
Ġquer ido
Ġdi bu
Ġin mo
Ġvolun tarios
Ġevit ando
Ġde g
Ġagu ja
Ġpulm ones
Ġves ical
Ġneu tro
Ġcomple ja
ĠS el
ĠPro duc
ÃŃ qu
Ġmodific aciones
Ġade lan
DA H
ĠU til
Ġc ena
Ġelev adas
ro up
ĠMan cha
ĠN uestra
Ġplac as
tec n
Ġacum ulaciÃ³n
Ġalcan za
ĠC AP
Ġman chas
Ġpel ÃŃculas
Ġdes tino
ĠO ficial
fa go
v io
Ġdej ado
ĠespaÃ±ol as
Ġmens ajes
h ospital
Ġprolon gada
Ġ7 9
Ġpat olÃ³gicos
Ġab ra
Ġp Ã©lv
end ario
Ġtradici onales
Ġtransf ormaciÃ³n
cu par
Ġcelebr ado
Ġconex iÃ³n
ur ales
ĠQ U
Ġutiliz adas
Ġfeb ril
Ġlegisl aciÃ³n
Ġpier na
H D
ĠÃ ĵ
ĠDa tos
Ġli po
Ġmen opa
Ġpar enquimatos
Ġcar ta
ĠIn d
Ġdesarroll ados
ol era
ta bilidad
Ġas cen
Ġsus p
Ġg ana
an zas
Ġestre cho
Ġfavor able
ĠP D
Ġfle x
Ġev al
Ġc ha
Ġex itos
ĠC ul
Ġ1 10
san cio
ĠPh ar
di mos
Ġestudi ante
Cu Ã¡l
Ġmi to
Ġb ril
Ġsome ter
r ente
x aci
ĠCal ifornia
Ġsocio econ
Ġf Ã©r
ide os
ĠN orm
ĠG il
UL AR
Ġprevis to
v asta
Ġcam pe
r Ã³n
ĠdifÃŃ ciles
un tamiento
Ġespi ri
Ġhemor r
Ġrepe tir
oc om
ĠP ad
x ina
Ġtrayec toria
ĠW e
Ġpsic olÃ³gica
mad ura
Ġcom entar
par ina
Ġsi quiera
ER A
an Ã¡lisis
ar nos
ĠI b
Ġpublic ada
Ġpre f
ĠPers onas
Ġcar o
ĠseÃ±al an
Ġgratu ita
T EN
OS I
Ġras gos
Ġex istente
Ġcr ÃŃtico
Ġinvestig ar
Ġi le
Ġprodu jo
ĠTor res
umon ia
ÃŃ dos
Ġemo cionales
ĠquirÃºrg icos
grÃ¡ fico
Ġinfecci osa
Ġhuev os
Ġpose en
Ġab og
ear s
Ġdescub rimiento
Ġv Ã©r
Ġsup ra
Ġmi tral
Ġconsider ada
la uc
Ġcomp ens
Ġri g
Ã ª
Ġre qui
ĠBogo tÃ¡
Ġcol i
ĠH id
ĠIn tens
Ġfal lo
B P
Ġpar ad
b ida
e cido
ÆĴÃĬ l
Ġex cre
ĠCre o
Ġap os
tu rias
AL IZ
ĠRegis tro
Ġadvers as
pl icar
Ġdomin go
Ġad j
Ġejemp los
ĠPro yecto
i tica
ĠÃī s
ĠU l
Ġmejor as
Ġampli amente
ĠA mbi
Ġtar d
T RA
Ġconserv aciÃ³n
ĠMun icip
Ġfabr icaciÃ³n
Ġp se
t Ã©s
man n
ĠNa tional
Ġfru tos
Ġregres iÃ³n
ĠPo d
ma titis
ĠEx tre
Ġmil itar
Ã³b ulos
Ġo cupa
ĠH C
ur aciÃ³n
is tido
u tr
Ġdes pi
gu era
Ġposible mente
le x
p idos
Ġp ion
Ġcorreg ir
Ġpie za
pl icaciÃ³n
ĠdiagnÃ³s ticas
Ġincre menta
Ġayud arÃ¡
Ġvent aja
Ġrevis ar
Ġtrasl ado
Ġpa to
Ġhorm onal
Ġbacter ia
Ġh y
nes s
ĠPres enta
uev a
Ġcomer cio
d nis
Ġgener an
Ã¡g ica
Ġ Ã©tica
Ġgener alizada
m u
Ġpar Ã¡lisis
dos is
ĠJe fe
w a
tom ia
ĠPal abras
Ġrela tiva
vi enen
Ġexcel encia
ĠO B
Ġv emos
Ġbi olÃ³gico
Ġpublic Ã³
ĠcÃ¡l culo
. ;
Ġa j
Ġres iden
ĠIM C
h is
ĠCom er
Ġquiz Ã¡
Ġp ur
ĠM y
ĠMedic al
ĠS C
de m
ĠP U
Ġmo ver
Ġne umo
Ġhepa to
Ġacep taciÃ³n
ĠD I
Ġex ud
Ġdis cusiÃ³n
Ġus ado
Ġconven io
Ġexcep to
, ,
Ġli dera
Ġmir ada
Ġbeb er
Ġdiscipl ina
Ġcomer ciales
Ġcomple mento
Ġfir me
Ġrevis iones
Ġbro tes
ĠAs sociation
Ġantioxid antes
Ġp ico
Ġantim icrobi
Ġigu almente
Ġfin alizar
Ġcon ocen
Ġa ro
Ġhabl ando
MI ENTO
ĠCos ta
aman ca
ĠcrÃ³n icos
Ġplac er
Ġjug ador
Ġtrans cur
Ġcir cu
Ġas igna
Ġimp ues
ol d
pro teÃŃn
ĠH or
Ġcoag ulaciÃ³n
Ġcomerci alizaciÃ³n
Ġagr ad
ĠE du
Ġtrans por
Ġsil enci
ĠpÃ©r didas
Ġfron tal
Ġmus ical
ĠP ul
Ġtempera turas
Ġman io
Ġcub ano
ca p
es peci
Ġconf orme
Ġsist Ã³lica
Ġn ie
Ġgo bern
ent amos
ti cidad
Ġde posiciones
Ġcom entado
Ġcrea tinina
ĠEs p
Ġmenopa usia
Ġnutri cionales
Ġder ro
Ġpro ven
Ġre a
Ġintraven osa
Ġa x
Ġin tu
Ġhon gos
Ġdon antes
ĠAnte cedentes
Ġbet ween
g ando
z go
Ã¡s ica
Ġasegur Ã³
Ġc Ã³r
ĠacompaÃ± a
ĠCent ros
ĠAndr Ã©s
Ġverte bral
ĠN Ãº
Ġhospital arios
Ġley es
ĠCOM O
Ġcontinu idad
Ġreflex iÃ³n
Ġpro puesto
Ġdo p
Ġconf un
ĠH el
ĠS O
Ġco operaciÃ³n
ĠJ A
Ġacep tar
ĠM AR
ĠdÃ© bil
ĠQ uir
Ġab ajo
i Ã©n
ĠJ M
Ġac us
ca ÃŃna
ing ton
Ġterren o
Ġcol e
Ġfue go
Ġo ut
ĠD om
tÃ¡n eamente
Ãº r
Ġcomplement arias
Ġcre cer
Ġcer e
Ġconflic tos
Ġdiagnostic ado
Ġnego ci
Ġdescri pciÃ³n
Ġviv os
Ġretros pectivo
ĠFÃŃs ica
en das
ĠseÃ± or
Ġs tent
G O
Ġne fro
ĠU so
pl er
aliz an
Ġdetec tado
Ġingres ados
ist ÃŃa
tu aciÃ³n
Ġllam adas
Ġnom bres
ĠI L
z quez
Ġse co
Ġqued Ã³
ĠT ar
ĠO don
ĠQu in
Ġprofun do
ĠR io
Ġcre en
Ġanti bio
ril los
ĠS ecciÃ³n
ay o
Ã¡ mico
ex ia
Ġtri un
Ġtiro ides
Ġpresent aba
Ġsus tan
Ġi m
ĠN ic
ĠM ul
Ġrecuer do
Ġda to
Ġexam in
ari al
Ġ om
Ġprogres ivo
pi ente
Ġpar cialmente
F R
Ġcan sancio
ĠC el
Ġata ques
omÃ© dica
Ġr ica
Ġsemil las
Ġe u
Ġtratar se
Ġul tra
Ġcon ferencia
Ġ199 3
Ġiden tifica
Ġdestac Ã³
Ġrespira torios
Ġbol sa
ton ces
Ġverda dero
og en
Ġinmuno de
ĠHi po
Ġprovoc an
c g
ĠE mb
ĠIn mun
g ma
z aciÃ³n
p df
Ġhidra taciÃ³n
Ġejer cer
Ġneona tal
Ġ0 2
don os
Ġespeci alizados
recu encia
Ġaten didos
ĠEspecial ista
s t
Ġcambi a
bun al
J E
ÃŃn g
un cia
Ġconsider arse
Ġmar gen
ĠAs amblea
Ġse psis
Ġmar eo
americ ano
Ġf ig
Ġb rus
Ġve ci
Ġpar es
l aciÃ³n
est Ã©s
v ol
Ġur ban
Ġn acer
Ġles ion
ĠJ C
Ġvar ÃŃa
Ġsopl os
mon ar
ci tis
Ġclar as
e da
Ġexter nos
itro micina
Ġmedi co
p la
Ġjorn adas
ĠN ie
Ġmez cl
ĠT V
tr aciones
ĠI gn
de a
ĠvÃ¡l vula
Ġh Ãº
Ġdes hidra
ĠF l
ĠB ern
Ġa ter
ĠM os
Ġdis par
ĠsÃ¡ bado
lauc oma
ĠGu ti
ula tion
Ġhemodin Ã¡micamente
Ġher nia
gu ro
ĠD ec
Ġins omnio
Ġcal ific
ĠMie mb
20 12
Ġinter mi
ĠRec op
Ġdes pe
fici dad
Ġho ja
Ġperio dos
ĠDeb e
Ġden omina
ĠInf orme
ces a
enci ado
Ġdirig idas
c Ã³mo
Ġpos tura
ĠC ultura
og le
es io
ĠPR O
ĠR ies
Ġavan zar
Ġfib rilaciÃ³n
P P
t enta
ĠC ari
Ġpa que
Ġbro te
G EN
min ar
Ġcan ales
Ġvari aciones
Ġov ario
e jo
Ġtrans ferencia
ĠSal amanca
ĠP Ãºbl
vasta tina
Ġha gan
Ġtaqu icardia
Ġestable cimiento
Ġanti depres
Ġex puestos
ĠCar acter
Ġde genera
ĠestÃŃm ulos
bil izar
ĠH emos
Ġhist Ã³rico
Ã±o z
Ġperman ecer
ĠriÃ± ones
Ġ za
grÃ¡ ficos
Ġtrim estre
di la
Ġtra tada
Ġf Ã³s
Ġse den
if e
Ġcaus an
Ġllam ar
ĠaÃ© rea
Ġmane jar
Ġvac aciones
Ġpubl icidad
Ġcogni tiva
E B
ĠAnal ÃŃtica
ĠTera pia
Ġnaci Ã³
Ġconvir tiÃ³
Ġampli ar
dad as
Ġhemo diÃ¡lisis
ĠH an
ĠAs turias
Ġdej an
Ġexpl icaciÃ³n
is la
ĠN I
Ġr icos
Ġco pa
Ġaor ta
Ġpens amientos
Ġapor tan
ĠA F
Ġsuf rimiento
Ġdor sal
ĠMÃ© dicas
ĠÃŃn dices
i que
Ġesta bles
ĠEurope o
vi ta
Ġch o
al ud
ĠMÃ¡ laga
ven il
Ã©r rez
Ġesquizo frenia
v os
Ġhid r
E Z
ĠcompaÃ± ÃŃas
Ġfac ulta
or ld
Ġestudi ados
Ġpe da
ĠFamil iar
Ġcon den
te des
Ġ0 1
gan ta
Ġbas ados
in i
Ġbor de
Ġcr istal
TI L
Ġpsic olÃ³gicos
Ġpar as
Ġasegur ado
tom o
Ġrela tivo
h al
Ġvalor ado
tor s
ĠMe dio
Ġindepen dientes
gr ÃŃa
Ġse p
Ġinfl uyen
Ġespeci fic
der aciÃ³n
Ġsustitu ido
Ġno t
Ġcompor tamientos
ent ario
Ġver se
Ġanaliz a
Ġins trucciones
ĠPre ven
ĠReg iÃ³n
ĠPe diÃ¡
Ġdin Ã¡mica
Ġcl or
Ġespon tÃ¡nea
Ġtra tan
ul l
ĠAr terial
Ġeti que
Ġpar al
ĠT emp
Ġen emi
Ġevi ta
ĠT an
Ġcon curso
Ġurin ario
tab ria
Ġâī ¥
ha us
Ġestan dar
ag e
Ġirreg ular
Ġan uales
ĠBi blio
Ġmara vil
Ġcon cur
ĠMM II
ustri a
ĠMe xic
ĠO fici
Ġrecomend ado
Ġdi uresis
Ġpare des
Ġp us
Ġa ves
Ġmar cas
ĠaminoÃ¡ cidos
ĠRecop ilaciÃ³n
Ġcur va
Ġsentir se
ĠCas a
tel io
Ġdocum entaciÃ³n
ĠAl er
in ario
Ġconsider Ã³
g ÃŃas
l us
Ġsub ray
Ġconsum idores
ÃŃri tu
ĠFac tores
Ġinv esti
Ġh uel
Ġlogr Ã³
Ġexplo taciÃ³n
en z
ĠPro mo
Ġantigu o
ve lop
bil i
Ġdesarroll ando
Ġdej Ã³
Ã¡n icos
Ġre pi
Ġmanten iendo
Ġpresent arse
tÃ³ rax
Ġexpec tor
ciru gÃŃa
Ġag ru
Ġres istentes
emi as
Ġhor ario
Ġcomun itaria
ĠV iv
Ġemp ÃŃr
ĠCu al
id ina
Ġinters ti
ĠPuer to
Ġti s
ĠEspaÃ± ol
Ġbar rera
Ġent er
Ġdetal le
es c
ĠÃ¡r bol
du ra
Ġcoordin ador
am ida
ĠDe termin
Ġas umir
Ġex cepciÃ³n
Ġpractic ar
ĠA par
Ġal em
Ġla bios
Ġemple ado
xi lo
o o
Ġhum anas
Ġb ritÃ¡n
um bre
OR A
Ġgastrointes tinal
ĠX IX
Ġempez Ã³
esti m
ĠNuev o
Ġlu pus
ac u
iste mas
Ġcompro b
Ġobserv acional
Ġneces itar
% ;
Ġca t
Ġres ecciÃ³n
Ġexp uls
cula tura
ĠQ T
vent ud
Ġdeclar aciÃ³n
ac tiv
ĠA ires
ĠVal enciana
g ico
Ġhor izon
n Ã©
Ġedi ficio
Ġfu turos
Ã¡ zquez
Ġsuici dio
ES O
Ġsu bir
Ġgas es
Ġfl ores
Ġso bres
ĠIns uficiencia
ĠF lor
ĠMÃ©to do
ĠL an
Ġutiliz arse
Ġli p
ĠCÃ³r doba
ĠC he
gra m
Ġsign o
Ġprodu cida
ĠCON S
Ġpotenci ar
Ġ199 2
t entes
!! !!
vers iÃ³n
v entr
ĠI R
ĠP E
Ġquer ÃŃa
Ġcorrespon dencia
ĠEmp res
il idad
Ġang us
Ġhema toma
vi endo
ĠVal le
Ġdetec ta
Ġigu ales
Ġcos ta
ĠPol ic
Ġinesta bilidad
Ġdific ul
Ġimp ide
Ġeurope a
ke ting
or ado
Ġg eno
Ġocas ional
ĠGal icia
lu jo
Ġextra Ã±o
Ġter ror
Ġpsi quia
Ġad vier
Ġpostopera torio
Ġdescri ben
ĠEn tonces
Ġtumor ales
H B
Ġclin ica
Ġtur no
20 94
J O
Ġminu to
yac ente
Ġd uro
tec tomÃŃa
ĠIn nov
ĠIn g
Ġencontra ba
Ġhemo globina
ÃŃ fer
Ġe mis
ĠIn ici
ĠfenÃ³m enos
fon so
Ġnove dos
Ġnec rosis
Ġcl iente
ĠVic ente
u x
ĠH ig
Ġcon com
Ġperfec tamente
ĠalÃ©rg ica
Ġtrad u
Ġinjer to
Ġhe mat
er ia
in go
Ġins pir
Ġli ter
Ġas unto
Ġf os
Ġtermin al
p un
Ġperfec to
Ġperson aje
Ġprolon gado
ĠLabora torio
ĠParti cip
Ġgar ganta
ol ismo
f ord
Ġeduca tiva
ĠPers onal
Ġigual dad
cal a
ĠCas tel
ĠN in
Q UE
t n
Ġas istentes
Ġdirig idos
mi zol
Ġafirm Ã³
Ġcu entas
Ġsom n
Ġinqui e
Ġgr ues
ĠcampaÃ± as
Ġutiliz aron
Ġpi ensa
ĠCons umo
umato ide
ps ias
U T
Ġref orma
u ta
Ġexpres a
Ġestable cidos
Ġde fici
Ġdi arios
ĠcongÃ©n ita
ĠCon tra
Ġtar je
ĠM IR
Ġpros pectivo
Ġape tito
qui to
Ġd arse
Ġrecons trucciÃ³n
ĠS en
ne o
Ġperme able
Ġre tenciÃ³n
form aciones
w ard
ER O
Ġal u
Ġsurg e
] ,
ĠglÃ¡nd ulas
Ġtro p
ĠM D
ĠIN TER
gran tes
Ġin o
Ġposi tivas
ment al
lu b
p Ã¡tica
ĠIs abel
ol la
ĠT ener
Ġdej ando
Ġvi enen
Ġgaran tiz
ez as
ĠSal vador
Ġjue ga
Ġca fe
Ġprob ar
Ġon das
ĠEx cel
Ġcerebro vascular
Ġfortal ecer
ĠJorn ada
Ġsu d
Ġgen oma
es tar
os u
Ġac o
ĠÃļ l
Ġpun ciÃ³n
ol ina
Ġpor tal
ĠP in
ĠS am
ĠUnivers ity
qu ÃŃa
Ġcoci na
Ġda ta
Ġelab orar
us iones
ĠD en
Ġreun iones
20 10
ĠC y
Ġrad ical
ĠDie go
N P
Ġreco ger
Ġal eg
ran o
Ġestim ular
Ġestil os
Ġv ay
' '
f usiÃ³n
E E
ĠP eso
Ġllam ados
Ġac tÃºan
Ġespeci ficidad
Ġquir Ã³f
Ġmejor ando
Ġelec ciones
Ġvis itar
Ġex clusiÃ³n
CI AS
Ġb is
Ġon da
ĠS EM
Ġsusp ensiÃ³n
Ġan tagon
Ġ ome
Ġfer tilidad
I ENTO
ĠE V
Ġpe ticiÃ³n
Ġben ig
Ġchild ren
ĠB R
ĠÃŃte ms
Ġp lu
Ġson ido
ev alu
venci on
ec era
C C
Ġtobil lo
Ġcompa tibles
Ġtraspl antes
ĠInterna tional
l ga
Ġcre encias
ar as
o den
Ġal quilo
g lic
Ġrelaj aciÃ³n
w er
y mp
N I
ĠD ar
Ġindic Ã³
Ġun e
di fica
Ġca tara
Ġenti ende
Ġdesarroll Ã³
ĠglÃ¡nd ula
ĠV M
Ġfru to
ĠS omos
Ġelectro cardi
Ġmio cÃ¡r
Ġy og
Ġop io
ĠseÃ±al ar
Ġentrevis tas
Ġsi enten
ĠDe pen
es tival
Ã± Ã³n
Ġcu char
ĠCan tabria
Ġasoci an
Ġcab al
Ġequi p
ĠClin ical
Ġman eras
flo xaci
TR O
E x
ĠEsto y
der ÃŃa
Ġde x
Ġma dera
Ġamena za
te tricia
Ġreserv a
Ġpas ada
Ġdis per
Ġrev ela
Ġmill Ã³n
Ġinser ciÃ³n
Ġcon ducciÃ³n
ĠNi Ã±o
Ġimp ro
Ġencontr arse
ol i
Ġrece tas
Ġleuc emia
Ġg uer
Ġpi ens
oc al
Ġjus ticia
i ales
ĠE u
Ġpan talla
Ġres istente
Ġhe mb
it mo
ĠIN S
Ġperten ece
Ã³r icas
Ġultras on
Ġdi m
ĠM icrobi
Ġcl im
Ġpier de
Ġdomin io
Ġexces ivo
Ġrec to
Ġser ÃŃan
le d
ĠT DAH
Ġconserv ado
IB ER
Ġob tuvieron
Ġarrit mias
lob al
Ġanaliz ado
Ġin se
Ġmolec ulares
ĠRev oluciÃ³n
Ġg obier
Ġcu esta
OR MA
Ġj am
Ġrecor rido
Ġpas e
ĠEs e
Ġcap ilar
Ġdes ea
Ġdif fer
Ġas c
Ġan illo
ĠMu Ã±oz
Ġco dific
teli al
Ġdetermin a
Ġmedi cin
Ġcorte za
Ġte atro
Ġcandida tos
Ġconcom it
ĠH al
ĠAus tral
ĠEs per
n ab
Ġestruc tur
ĠDer echo
ĠM O
Ġcri tic
ĠPop ular
Ġunivers o
Ġintoler ancia
ĠIc tericia
n ing
Ġf re
aliz Ã³
Ġexter nas
ĠTen go
ĠH en
tre o
Ġconte x
Ġac ord
Ã ¶
rec tal
ĠES TA
N O
c m
Ġp ne
Ġunivers itarios
Ġsimp les
G E
ig ilancia
Ġmelan oma
v ido
Ġinici ado
Ġinvier no
Ġines pecÃŃ
Ġnove dades
te la
Ġpres tar
Ġretir ar
Ġr ural
ĠCon clusiÃ³n
Ġan trop
xim as
Ġprede cir
Ġeleg ido
ĠGuti Ã©rrez
ĠI den
Ġenf oc
faci al
Ġdom Ã©s
an ti
Ġdescon oce
i osa
ĠG ab
ĠE T
v ero
xi al
Ġdi visiÃ³n
ĠR EC
ĠB ajo
Ġcal endario
Ġmagn itud
mm Hg
Ġten dencias
Ġden unci
Ġra za
Ġcorrec ciÃ³n
Ġofici na
th od
Ġs yste
Ġindustri al
Ġg ig
ĠLon dres
ĠC OL
Ġcontrib uyen
Ġfel ici
dic aciÃ³n
Ġgan ado
Ġcol ecciÃ³n
es or
Ġbas adas
ĠPro tecciÃ³n
Ġpregun tar
Ġex isti
ses s
Ġveh ÃŃculos
ĠmolÃ© cula
Ġepi demia
Ġl enta
Ġbus can
rag ias
pit aciones
Ġvice pres
Ġal quil
cel ular
20 15
Ġvig or
ĠV ida
ð Ł
ĠEs trateg
Ã ļ
Ġe cu
Ġven as
Ġps oriasis
ĠDan iel
ĠAy untamiento
Ġgluc emia
Ġ0 7
ĠEdu ardo
Ġh ol
Ġmo da
ĠSoci ety
Ġinteres antes
ĠVas co
ĠHum an
plas ias
Ġpes os
s ensibilidad
Ġconf usiÃ³n
Ġv itales
ĠIncl uso
ĠH ospit
Ġex ci
Ġcomunic aciones
ĠPue des
ĠQ RS
ĠA pro
Ġre view
Ġb ru
ĠIgn acio
g ri
Ġconsider ados
Ġhipo tensiÃ³n
Ġer rad
Ġes posa
pon ina
ĠÃ³se o
Ġn av
Ġtrans mis
ĠSan tos
Ġres e
Ġpl ena
z z
ĠNav arro
B L
Ġimplic aciÃ³n
Ġus tedes
ĠComun itaria
c ales
ez can
ĠTecn ologÃŃa
Ġanti gua
ĠM AN
Ġapara tos
Ġci en
Ġsim Ã©
20 13
Ġdepen dientes
ĠInf orm
Ġlimi tado
Ġcambi ado
Ġcol Ã¡
ter ra
ĠR iv
Ġref i
ĠI gu
Ġpor tadores
Ġg el
Ġex tiende
Ġdiagnostic ada
Ġ0 9
Ġcomple jas
Ġra mas
Ġsitu ado
Ġexperim ent
Ġhabi taciÃ³n
Ġpresent ando
que o
Ġse mej
ĠGr ado
g rupo
ĠGinec ologÃŃa
Ġn iega
dr Ã¡n
ĠD iv
Ġglu ten
Ġgra mos
uc a
di mento
ĠMan ual
em ida
en fer
ĠE R
Ġa vi
Ã³ fago
Ġdis puesto
Ġqued ado
I AL
Ġper ros
tr ing
Ġprepar ado
Ġar mas
ĠH on
Ġdepor tistas
tan a
ĠComun icaciÃ³n
Ġme tal
Ġtom ografÃŃa
americ anos
Ã¨ ncia
ĠOc tubre
Ġcompres iÃ³n
ven ida
ĠPubl ic
Ã¡n icas
ĠmÃ³vil es
Ġint enta
cion amiento
Ġrepe ticiÃ³n
Ġal m
Ġmus culatura
Ġpodr Ã¡s
ĠL E
cul tivo
ĠH A
enci ar
al im
Ġco her
Ġcent ra
ĠcuÃ¡n do
Ġdim ensiÃ³n
Ġos te
Ġindic ador
Ġdenomin ada
Ġ 00
mor talidad
ĠS P
te a
ĠSecre tarÃŃa
Ġinfra estruc
ĠsÃºbi ta
ĠN utri
Ġvari antes
trib uciÃ³n
Ġkil Ã³metros
Ġ1 000
Ġbas ales
li am
Ġodon t
Ġprofes ora
ĠIn greso
Ġk m
Ġac tores
Ġbi olÃ³gica
ios os
Ġ13 0
Ġincorpor ar
ĠIn t
m L
ad ic
Ġinform Ã³
Ġprolifer aciÃ³n
ĠPol ÃŃtica
Ġest res
Ġinflu ir
Ġincon tinencia
Ġlleg ando
ĠC C
Ġcal i
ĠPar tido
pi dez
Ġdismin u
Ġline al
Ġrecur rir
Ġexpan siÃ³n
ĠA ragÃ³n
ĠC lub
z e
sal ud
Ġcoh orte
Ġresul tÃ³
ĠI AM
le t
Ġla vado
Ġnov ela
Ġade lga
Ġenvi ar
Ġemple a
Ġ Ã¡l
de os
ĠPar ÃŃs
Ġlinf o
ĠProfes or
Ġtes is
ic ante
Ġcolo ca
Ġreemp la
ĠDig es
Ġep ig
ĠRec uer
ĠB on
Ġubic ado
20 11
ĠMar tin
ri le
Ġcur ar
a unque
Ġcor ona
socia ted
S N
Ġc he
Ġprotec tor
Ġconsider aciÃ³n
or t
Ġdolor osa
Ã± ar
Ġmor al
ĠQ uer
ĠB A
Ã¡ rez
te x
pi Ã©
ec o
Ġcons istente
doc rin
di ciÃ³n
de mo
Ġmas aje
Ġindic ada
b ur
Ġag rup
e f
g ru
ec as
Ġdis curso
Ġl istas
Ġpuer tas
ĠR A
ĠSal a
ĠCas tillo
Ġcar re
Ġcuidad or
ĠU C
b ros
Ġpobre za
Ġv ec
Ġtien den
Ġmejor ado
Ġro bo
Ġtex tos
Ġder matitis
mad uras
ue los
bl os
Ġleg ales
Ġv io
He alth
Ġacos tumb
Ġ% ,
Ġconfirm ado
ĠM Ãºlti
ĠT B
ĠC lar
ĠAl fonso
Ġpres taciones
Ġpudi eran
Ġapre cia
Ġacces ibilidad
Ġaliv io
ÃŃn ica
Ġsuficiente mente
Ġ0 8
Ġpol im
Ġcal iente
ĠAmeric ana
Ġpr ena
tin os
ĠCan adÃ¡
Ġesp inal
Ġdesvi aciÃ³n
ĠB re
Ġdi os
10 8
p olar
Ġsobre carga
Ġsolu cionar
Ġcons cientes
Ġsec os
Ġg est
Ġp ide
Ġmal os
ĠPue den
Ġg ir
tis mos
Ġdistin ta
Ġcab ecera
Ġresul tan
Ġexac tamente
Ã³ xido
ec ular
Ġcul tiv
Ġintra c
Ġimpres iona
Ġan estÃ©s
co pe
Ġinsu ficiente
la go
Ġfu tbol
Ġprena tal
Ġpo tente
ĠH g
or ro
Ġciruj anos
um ologÃŃa
Ġmod alidad
Ġimp e
Ġi g
Ġsen os
Ġconj unta
Ġman da
Ġpos icion
ĠTRA TA
Ġcuar ta
Ġfel icidad
Ġinhib idor
tu ria
Ġadop tar
Ġaplic ada
Ġcon du
Ġ199 1
ĠtorÃ¡ci ca
ĠCari be
Ġhuman idad
Ġau tol
Ġtan tos
Ġre pas
Ġpla za
Ġaconte cimientos
Ġdirig e
Ġprepar ados
Ġinmun itario
d ares
ĠCar e
Ġgan gl
ĠS AN
ta je
mp li
t ula
Ġmos tra
Ġconduc to
Ġde amb
Ġfran cÃ©s
ĠAc tiv
Ġrecom iendo
Ġinmun osu
ĠTe le
Ġt ÃŃtulos
cion ado
ĠFac ebook
l ab
Ġpro f
Ġcons tantes
Ġconta mos
f oro
Ġsecre tario
i der
ad ro
Ġin gu
Ġextra c
Ġfisio terapeu
Ġex haus
Ġmor bi
Ġform ada
ĠT EP
ĠAl ta
Ġi dio
Ġinclu idas
Ġane uris
Ġsi tÃºa
Ġprodu ciendo
b um
Ġderiv aciÃ³n
tu a
Ġpriv ados
Ġponer se
el d
her e
g us
G A
o per
Ġvir tual
d ados
Ġrespir ar
Ġindis pens
F i
Ġmanifes taciÃ³n
Ġno ci
ĠÃ³ v
ĠS OL
Ġcolab orar
Ġlar gos
j ada
ec k
ĠE B
Ġparticip Ã³
ĠgÃ¡s trico
Ġde ten
Ġaprovech ar
L o
Ġa vent
te les
al s
Ġar tes
ĠIgual dad
ĠM C
Ġg ros
Ġfu turas
Ġana tomÃŃa
Ġcu yas
ĠSan gre
Ġdo ce
Ġap ari
Ġh umo
Ġsupon en
ta tion
ĠBlan co
Ġsi lla
Ġr ÃŃt
Ġ( "
ĠU I
Ġpal pitaciones
ĠAlejan dro
Ġemp ie
ĠGo ogle
Ġcorrespon den
Ġun if
Ġestadouniden ses
pe d
ĠReg ional
Ġcapaci taciÃ³n
ĠnÃº meros
ta tiva
Ġperman ece
ĠEn c
Ġciru gÃŃas
Ġresid uos
Ġima g
Ġcre er
Ġsex os
Ġorden ador
Ġ olor
ĠBuen o
ĠaÃ±ad iÃ³
Ġdomicili aria
Ġru ido
Â ©
Ġpar o
Ġrecord ado
r ica
Ġsegu ida
Ġsatur aciÃ³n
Ġnecesita mos
re tro
Ġabor to
Ġcontinu ada
ĠcongÃ©n itas
ĠDe f
ing Ã¼
n era
ĠM ag
Ġpar ticulares
Ġcontrol ados
Ġprofil axis
Ġrig idez
Ġsens or
Ġcigar rillos
Ġes por
Ġescal as
qu era
Ġinteres ados
Ġexclus iva
Ġaconse ja
Ġacum ul
Ġqu itar
CI AL
Ġre medio
Ġmagn esio
di l
Ġprior idad
Ġna us
Ġadic ciÃ³n
Ġperio don
Ġluch ar
Ġsuper vis
ĠQu iz
ĠJa pÃ³n
ĠIntegr al
M ar
j al
ĠInnov aciÃ³n
Ġc en
Ġocur ren
ĠM ill
ĠmÃ³ d
Ġre umatoide
Ġinstal aciÃ³n
me d
S H
ĠEp iso
i tores
ici pios
Ġal ma
Ġdesn utriciÃ³n
ĠP at
Ġen ga
ĠSe gui
Ġobten ida
Ġagrade cer
Ġo culares
ĠMÃ¡s ter
ĠDirec tiva
Ġins cripciÃ³n
ad al
ord s
ĠMay o
Ġconjun tamente
Ġacep table
ĠContin u
Ġcons istencia
Â ·
Ġdefin ido
i um
ÃŃ p
Ġbi ologÃŃa
l iz
Ġcromos oma
Ġconsigui ente
Ġref ieren
Ġproducir se
Ġsecre ciones
Ġconv oc
Ġefec tivos
Ġdoc encia
Ġa cid
Ã©p tico
ĠÃ Ĥ
Ġcrepit antes
Ġcab el
Ġabsolu ta
Ġex puesto
Ġaquel lo
Ġmanten ido
Ġdomin ante
ĠB u
Ġguar dia
ĠsÃŃn dromes
gen ia
ĠMus eo
ĠK o
Ġhorm onales
tas ia
Ġps ÃŃqu
Ġins taur
Ġjus tific
Ġesque ma
Ġestre cha
um er
ded ores
Ġpermi tiendo
ĠTo da
ta t
Ġca u
te mp
Ġre vascular
Ġfemen ina
Ġu Ã±as
ED AD
Ġcom itÃ©
ĠRom ero
Ġtu ve
paÃ± a
Ġd as
Ġcr ÃŃticos
Ġmer ece
Ġdefini tivo
en di
Ġautor a
O X
Ġro tura
i ter
Ġofici ales
Ġdeclar aciones
Ġbar reras
Ġven oso
ar idad
Ġambula toria
U B
ud as
ĠE A
Ġas istir
20 14
Ġintegr ado
ĠEs tÃ©tica
Ġvis uales
Ġr ico
Ġpse udo
is e
man o
Ġcuan tita
M E
Ġinclu ida
Ġnoctur no
Ġam ong
Ġal gor
o cer
ĠEn docrin
ĠTor re
Ġcaus ado
I AS
Ġcal cula
Ġch oc
Ġsal v
or den
ĠA po
Ġval e
ĠNe ws
Ġra tas
Ġobs tructiva
AD OR
Ġfr us
Ġex ista
Ġvari aciÃ³n
mo x
Ġf lo
am es
pl om
ace te
Ġlongitud inal
Ġmaravil los
e j
ĠEurope an
ĠRecom end
ĠTi empo
Ġenfer mero
Ġvis ible
Ġinhibi ciÃ³n
Ġerite matos
ĠA ra
ĠIgu almente
ĠRey es
Ġ 000
Ġinfec tados
Ġmal formaciones
Ġinfl uye
Ġpo bres
ĠW ash
ĠEj ecu
Ġpod ÃŃan
Ġasisti da
Ġw e
Ġab us
Ġin ex
gar se
Ġcarbo hidra
Ġcombin ado
ĠP AS
ÃŃ fico
li te
f u
Ġdistin to
ĠDe por
tr en
p ri
Ġrecomend ada
Ġcan ciones
Ġincon s
Ġpare cido
ent eral
Ġg lic
Ġvari ante
ig eno
Ġag e
ĠTrastor no
Ġlimi ta
Ġher mana
Ã¡ rea
Ġdefen der
Ġha ve
M G
Ġar re
Ġm ari
Ġlle gue
Ġmedi terrÃ¡n
Ã¡nd olo
Ġbom ba
Ġfig uras
Ġestad ios
g Ã³g
Ġca er
hi p
Ġparti da
Ġlinf oma
Ġtoler ada
S in
Ġcolec tivos
S O
ĠCris tina
ga tivo
Ġtri bu
Ġcr isti
Ġce f
Ġexper ta
vil a
Ġexig e
p ino
ĠInstitu te
iv ado
Ġpal p
ul lo
Ġcan ciÃ³n
Ġproces amiento
Ġevalu Ã³
ĠPor tu
D es
ĠL N
Ġtrans iciÃ³n
ĠS os
ĠNe fro
Ġcent rado
Ġtan ta
ĠautÃ³n oma
Ġsh ock
Ġo d
Ġcor ne
ĠF orm
Ġeli mina
Ġtera peu
Ġequilib rada
ĠL en
200 9
f agia
en ces
Ġh ambre
Ġcon gel
Ġgestion ar
Ġdistin guir
Ġde jo
Ġpul s
Ġang ina
ĠacompaÃ± ada
Ġg laucoma
ĠantÃŃ geno
Ġg ama
nes is
Ġmar cado
Ġclar os
p ril
Ġre misiÃ³n
ĠcolÃ¡ geno
ris a
U P
Ġidi oma
Ġsin g
in ado
ĠestÃŃm ulo
Ġimplic aciones
Ġen gros
Ġas imismo
ĠOf talm
cu ro
Ġre medios
ĠMedi ante
ĠS oy
Ġser io
Ġcere ales
ĠcÃ¡l culos
ĠWil liam
Ġpre opera
V EN
Ġcol s
Ġinfantil es
S I
Ġcr Ã©di
Ġcoleg ios
Ġpens ando
Ġenfr entar
Ġblan cos
Ġdi e
ĠM ara
Ġos cur
C ar
Ġ ital
Ġcompro bado
og ene
is co
Ġimpor ta
uy a
AR IO
Ġun ido
ĠAr te
ĠZ a
Ġpriv adas
V D
le tas
Ġintermi tente
ĠhÃº me
Ġalcan zado
Ġprofun di
ĠD ÃŃ
Ġmac ro
Ġpro gen
ĠEN F
ĠJo an
ĠT um
Ġfund aciÃ³n
s ito
Ġex acer
cho ol
ES T
uros emida
am ent
ĠR icar
Ġdi d
Ġmar ido
ĠSan t
Ġinmun olÃ³gico
Ġcor rer
Ġmetas tÃ¡s
Ġla ment
Ġtrabaj ador
ĠE vi
ĠExpl oraciÃ³n
Ġbio quÃŃ
Ġa tÃŃ
Ġti er
con trol
Ġac a
Ġcerc ana
x is
c rin
ie d
Ġrefer encias
Ġpreven tivas
C N
z on
Ġan or
Ġmarc ador
Ġha go
ĠE merg
Ġign or
Ġrecurr ente
ĠWash ington
Ã©r idos
Ġex tin
Ġmil it
Ġrepe ti
ĠC iv
ĠS ierra
tin ib
Ġan tir
Ġcomun icar
Ġrefor zar
e fec
car cinoma
Ġcur r
Ġas tenia
Ġsab es
Ġrepresent ante
Ġveh ÃŃculo
i j
Ġm ach
Ġconv encion
ĠGas tro
Ġdepor tivo
Ġhum edad
Ġmin eral
el ec
tan t
Ġanal ysis
Ġbiom arc
Ġdepor tes
in ta
Ġfil osofÃŃa
Ġabandon o
Ġga fas
Ġeso f
Ġcolab ora
Ġtan tas
Ġtrad iciÃ³n
ĠS M
T o
ventr icular
Ġsu av
Ġvivien da
Ġqu era
ch er
ĠestÃ¡n dares
Ġc eb
Ġs yn
ros a
tro cin
Ġba talla
ĠÃ³se as
Ġhidr Ã³geno
uc ar
la terra
Ġderiv adas
Ġcoleg as
Ġcari es
ĠSE G
Ġsatis fec
AN DO
Ġpros pec
Ġacer car
ĠIn icio
infec ciÃ³n
Ġha bilidad
Ġexpres ar
r ico
Ġconvencion ales
ĠD ada
ĠRes pon
ĠE D
in ales
Ġgo tas
Ġcan s
Ġgra b
C om
Ġoblig aciÃ³n
S M
Ġhig h
ĠB IO
Ġ0 3
Ġagrad able
ĠL uc
Ġasintom Ã¡tica
Ġqui era
Ġimp re
Ġcomp et
Ġflu ido
Ġconsolid aciÃ³n
tic e
Ġcons truc
Ġmejor an
Ġthe ir
Ġ13 5
ora x
Ġsex ualidad
Ġo C
T ICO
ĠU E
v ada
Ġdiges tiva
Ġminis tra
Ġcas as
Ġaut Ã©n
Ġdi al
b ran
Ġapari encia
Ġh s
ci pe
ĠAR N
Ġan tiv
Ġa ti
Ġv id
ĠT ampoco
Ġprop ens
o terapia
Ġdes trucciÃ³n
Ġneo plasia
Ġvig ente
ĠMor ales
A c
Ġw omen
Ġnucle ar
ent aria
Ġ0 6
I OR
Ġpobl acional
Ġn ace
Ġfro tis
Ġdoc tores
ie lo
Ġaf ter
ĠEx tra
Ġqu al
di mens
Ġextre mos
Ġcu ento
vi amente
tiz ado
Ġsupon er
Ġconsolid aciones
CL US
Ġedi torial
Ġse min
ĠH y
T H
P D
Ġmet Ã¡l
Ġvia jes
tun adamente
Ġa ver
Ġwh ich
Ġpl en
ĠAC TU
Ġmarc ada
g s
n ado
Ġes pe
ĠUn idades
Ġpertene cientes
Ġsal udo
Ġreduc en
Ġperit on
ĠRe visiÃ³n
aci dad
Ġsepar aciÃ³n
ĠO x
ĠcompaÃ± ero
co co
Ġplante ar
Ġesp ÃŃritu
Ġseleccion ado
Ġre iv
ĠM ario
Ġsuminis tro
Ġ _
Ġmantener se
ĠvÃŃc tima
ĠHiper tensiÃ³n
F E
Ġve ter
ĠclÃ¡s ico
ĠE le
os e
Ġestruc tural
. (
Ġdiab Ã©tica
Ġra pidez
Ġperson alizada
ĠCar ta
Ġmorf ologÃŃa
Ġfrac ciÃ³n
am nesis
Ġpilo to
Ġher pes
ĠPrin cip
ero p
Ġform ando
Ġcent rales
Ġfras e
ĠperÃŃo dos
Ġsensi bilizaciÃ³n
tri to
Ã³n icas
f rag
Ġes Ã³fago
Ġsintom Ã¡tico
Ġm ent
Ġmaes tro
Ġgo ta
Ġser ia
Ġsin dica
Ġl ento
Ġi buprofeno
Ġhab ido
ĠPla ta
ĠS ar
un da
Ġper ro
AR IA
Ġarro z
Ġin toxicaciÃ³n
Ġen cefal
Ġpuntu aciones
ron ic
Ġdec ÃŃa
ĠAmb os
ĠAs ia
cus iones
Ġo posiciÃ³n
Ġcon oc
ola te
gun a
g y
b on
Ġcardi ologÃŃa
Ġcate dr
Ġ5 75
S D
Ġabsolu to
Ġhemor ragias
ĠA ma
iv al
i mientos
ciente mente
Ġimpul so
Ġ0 4
ol ia
mus cular
Ġh il
Ġace ites
ĠT witter
Ġplan tilla
Ġvideo j
Ġcompues ta
Ġemerg encias
ĠC uer
Ġextra er
Ġdese quilib
M ICA
Ġprote in
Ġde je
Ġperiodis ta
ĠIn gen
Ġar tistas
Ġmal aria
Ġredu cida
Ġvuel to
ĠEl ena
ios as
Ġaplic ado
ĠT ab
Ġisqu Ã©mico
Ã©n trico
Ġreg las
ĠTer esa
ĠPo demos
Ġy ears
ĠJos ep
ÃŃ metro
Ġgobier nos
ĠB ea
Ġpar che
ĠUro logÃŃa
Ġhaber se
Ġeduca tivos
as ia
Ġol iva
Ġmi de
Ġte Ã³rico
200 7
e ciendo
p rim
ĠFi gura
Ġcu ero
ĠneurolÃ³g icas
Ġreg al
ÃŃ ces
Ġv el
Ġle ma
ĠT res
ĠanalgÃ©s icos
ole do
g em
Ġinter nos
Ġch icos
uen a
20 16
Ġderi va
n idad
200 6
cu tÃ¡neo
pas os
en io
ivers ario
Ġev ent
Ġneces ariamente
ĠPri mer
Ġver bal
Ġconsider ando
Ġtendr ÃŃa
v ez
Ġinmi grantes
ĠCan arias
Ġ10 1
bil ical
Ġcontac tos
Ġllev ando
ĠBien estar
Ġar trosis
p ados
ĠPrim era
Ġf luc
Ġnaus eas
Ġcomba te
Ġsir ven
ĠEvalu ar
ĠcÃ³r nea
Ġre pu
lan tes
Ġescas o
Ġestad ÃŃsticas
ĠE RC
cer tid
Ġcir cula
gÃ©n ico
ĠP ilar
Ġbor des
f ri
ĠF AR
Ġpron unci
lic Ã©ridos
F C
ÃŃl ico
Ã³g ra
EN D
ĠP C
os idad
Ġma tr
ĠComple jo
ĠU rea
ĠMay or
Ġper cep
Ġsal var
Ġblan que
Ġreg la
e ciÃ³
t acion
Ġpue blos
ĠE upne
Ġap uesta
Ġcr Ã¡neo
Ġcarbohidra tos
Ġro taciÃ³n
Ġpro greso
ĠPe Ã±a
vers ible
Ġcor tes
Ġdesarroll ada
Ġfe der
ĠH M
t he
Ġne gra
Ġorganiz ada
Ġdetermin antes
di bular
Ġar co
ĠU U
ĠE dad
Ġpredomin ante
Ġlac tantes
AN TES
que dad
Ġfirm ado
Ġdis capaci
anim aciÃ³n
ag er
tÃ¡n dose
Ġdiscri minaciÃ³n
qu ÃŃn
p ÃŃa
ĠEdi torial
Ġj ab
Ġcontac tar
Ġes con
Ġdes es
ĠIng laterra
Ġtr ic
Ġinn eces
ĠA fec
Ġanticoncep tivos
S P
tom os
ĠPres entamos
Ġexperim entar
ĠSci ence
Ġrel l
Ġsuspen der
ve d
Ġepidemi olÃ³gico
ar me
Ġcumpl en
Ġca ÃŃdas
Ġtom Ã³
ing s
Ġno tific
Ġi v
ic Ã¡r
Ġsan as
ĠAl ter
m Ã©
Ġestable cimientos
Ġran dom
ĠÃ¡n gulo
un ciÃ³n
ĠCh i
200 8
teli ales
z ina
ĠQu Ã©
Ġv entas
ĠXX I
de lo
Ġdel ic
ĠAB D
Ġru p
ĠLe e
ÃŃ metros
Ġger ente
Ġpa Ã±
ĠSi mp
ÃŃ cl
ĠAG U
ĠplÃ¡s tico
ac tivo
Ġpreca uciÃ³n
ĠDis capacidad
Ġtri ple
Ġmun icipios
ĠmÃŃn imos
Ġpro vis
Ġvalv ular
ĠE qui
ĠN aciones
Ġrec tal
ĠN R
Ġ8 00
Con s
Ġinsec tos
ĠC OR
b oles
Ġsustitu ciÃ³n
Ġpsi quiatrÃŃa
Ġdepen den
Ġter mina
ĠMiemb ro
Ġden gue
ĠRe habilitaciÃ³n
Ġ10 5
mox icilina
Ġf us
Ġparad ig
Ġl lu
D ay
Ġcomien zan
ĠBi ologÃŃa
ÃŃs ima
Ġos ci
AT ER
Ġdeshidra taciÃ³n
Ġhin ch
ra m
Ġman tuvo
M P
Ġajus tar
Ġimpuls ar
ĠAl icante
bil ita
Ġ10 2
Ġsuscep tibles
ĠT OD
Ġto car
Ġalum no
ĠTRATA MIENTO
Ã©n qui
Ġconcep ciÃ³n
Ġfan tas
Ġd arÃ¡
Ġan orm
Ġocas ionar
it s
Ġr acional
Ġcon tÃ³
ĠR amos
Ġtom e
Ã µ
Ġahor ro
ĠV a
Ġbrin dar
ĠVP H
Ġul cer
ar o
Ġsomn olencia
Ã©n ico
A A
ĠDer matologÃŃa
Ġcompar ado
Ġll eno
Ġinf recu
Ġis o
ĠJorn adas
ĠRe vis
Ġacuer dos
pro duc
Ġregis trado
Ġminimi zar
ta m
ÃŃgen as
ĠIn dia
Ġfaci ales
Ġresid ual
Ġdiagnos tico
Ġsin te
N F
Ġsign ificaciÃ³n
Ġprogres ivamente
t te
Ã©n dez
Ġcaracter izada
Ġrar o
Ġmanip ulaciÃ³n
ific ado
ĠAustral ia
Ġepidemi olÃ³gicos
Ġintes tinales
in idad
Ġprovoc ando
R ES
Ġv it
Ġencues tados
Ġju z
Ã¡nd ole
Ġemple ar
Ġequival ente
Ġrecurr encia
Ġll ena
is on
Ġgr is
Ġnas ales
Ġlider ado
ĠB ay
ĠTri bunal
V E
Ġtras cen
Ġvege tal
ĠW al
ĠRes to
Ġgl omer
Ġadap tar
Ġo clusiÃ³n
it z
Ġrespon den
ĠC IBER
Ġbar rio
ĠK ar
Ġli qu
n ica
Ġbi ci
Ġca pas
Ġmoder na
Ġsosten ibilidad
Ġhi al
ĠPs ico
ĠlÃŃ pidos
Ġsuper visiÃ³n
Ġre Ãºn
ĠelectrÃ³n icos
Ġfactor s
Ġno ches
Ġsig los
Ġautor idad
ĠCab e
Ġaisl ada
Ġsen se
Ġconvuls iones
a torio
Ġavan zadas
ĠvÃŃn culo
Ġpedia tras
ĠEpidemi ologÃŃa
Ġ10 3
Ġpie dra
Ġpresti gio
ĠOb es
Ġconc ord
ĠT re
Ġpap il
Ġdeman das
ĠA umento
ent amente
J A
S an
IC AS
ĠAnd alu
Ġf echas
% :
ĠÃ³pti mo
Ġl entes
Ġte orÃŃas
u to
Ġresca te
Ġmens tr
Ġlidera zgo
oci n
Ġmemb ran
Ġdi ariamente
ĠS US
ĠUn idas
coles terol
Ġvag ina
ĠProfes ional
Ġproporcion an
ta g
Ġdescri ta
l ac
Ġdias t
mi th
Ġde posiciÃ³n
ĠR T
Ġdestin ado
ĠÃ³p tica
Ġinteres a
ĠA gr
Ãº menes
ter es
Ġvi endo
R M
Ã³ li
ĠD IA
Ġdis li
Co V
pon e
ĠT r
par to
Ġn aran
ĠEntre vista
Ġes pl
Ġcotidi ana
in aria
e pi
ĠLD L
Ġciudad anÃŃa
Ġins pec
Ġexpector aciÃ³n
Ġtien de
Ġrefle jo
Ġcur sa
Ġr enta
TA M
Ġh ue
f lu
Ġcon ferencias
H ay
g estiÃ³n
Ġca y
Ġestre ch
ĠP el
di ales
cardi tis
ĠRec ur
Ġlic encia
of ar
Ġdi jeron
t ÃŃas
de genera
ĠE CO
Ġinstitu cional
Ġtem bl
Ġedi ficios
Ġimp on
ĠTÃ©cn ica
Ġencar gado
Ġvulner ables
Ġdi ana
Ġp ez
it ra
m uy
Ġf ues
Ġexpl orar
Ġcontrib uciÃ³n
Ġrecomend amos
Ġesper mato
fas is
Ġpublic ar
es ia
ĠInfec ciÃ³n
Ġin certid
tori amente
p ue
Ġofici nas
Ġcandida to
ĠSN S
Ġfij aciÃ³n
in do
Ġpedia trÃŃa
ÃŃ rez
Ġdeci dido
aj aj
Ġlle vo
all er
Ġma trimonio
Ġconduc e
ĠCol ab
Ġcre Ã³
N E
Ġsenti miento
as te
ĠprÃ¡c tico
Ġmencion ado
Ġreal ice
Ġra ÃŃces
ĠneurolÃ³g ico
tro m
uc o
ĠF eli
ĠE f
Ġhincha zÃ³n
Ġt olera
ti f
Ġpl eno
ĠF M
Ġri gur
Ġantidepres ivos
ĠM T
Ġhuev o
Ġapar te
Ġ0 5
UL O
Ġgener aciones
Ġcur s
Ġidentific an
ci ca
Ã³b ulo
Ġtra tando
3 00
Ġloc alizado
or f
Ġdel gado
Ġpre cip
ĠMe ta
Ġcom bus
Ġref orm
ĠProvin cial
Ġmas iva
ĠTra umatologÃŃa
ab sor
Ġsecund arias
ici onal
Ġab er
ĠEcon omÃŃa
Ġper dida
ĠA van
Ġv osotros
Ġob tienen
Ġencues tas
ĠcutÃ¡n eo
Ġdeb ida
Ġing les
te ga
Ġanti cip
ĠmÃ¡ quinas
Ġdesplaz amiento
ĠmuÃ± eca
Ġpa trocin
ĠDo wn
b y
Ġque de
Ġincon ven
Ġb ara
Ġproble mÃ¡tica
Ġbeb ida
ĠenseÃ± ar
cre en
In ter
ĠCiv il
Ġal i
Ġvolun taria
Ġi mi
Ġrecomend ar
Ġco e
Ġestruc turales
cor e
ĠENF ERM
Ġ Ã©n
ĠCon f
Ġ ðŁ
Ġtra tadas
Ġinte gra
ĠMa gn
Ġpre li
Health Day
Ġtraspl an
Ġveci nos
ĠlÃ¡c teos
Ġrep olar
Ã©nqui ma
Ġtr Ã¡n
ĠVall ad
floxaci no
Ġmovil izaciÃ³n
Ġincl us
Ġerite ma
ĠVen oso
ĠO ro
Ġpresent ados
EN TA
Ġmic cional
ĠAlb acete
ces os
Ġgest acional
Ġocci dental
Ġprodu zca
re us
R es
ĠquirÃ³f ano
l Ã¡n
M a
Ġ13 6
bil iz
Ġer itro
j ano
Ġc ÃŃr
Ġac tor
Ġfies ta
Ġla v
Ġj ar
Ġvers us
ĠM at
Ġrec al
Ġcon tado
Ġintersti cial
Ġe misiÃ³n
ĠF el
ĠRicar do
Ġci entos
ab o
Ġsor pres
Ġprotagon ista
as es
ĠdiseÃ± ar
Ġub icaciÃ³n
ĠGu ar
Ġmedi ados
Ġdefin ida
Ġau tos
ĠDi uresis
Ġescri tor
Ġac nÃ©
Ġproce dente
Ġza pa
Ġc ran
Ġque maduras
Ġanaliz ados
Ġdedic ada
Ġmul tiv
ĠÃºl cera
Ġw ork
ĠCual quier
Ġcorpor ales
form ina
Ġapun tÃ³
ĠcÃ¡ps ula
Ġn u
Ġproteg e
Ġt ren
Ġpreo cupa
er ta
orm es
Ġro jos
r ando
Ġmigra Ã±a
Ġsi ga
Ġn ico
ul d
Ġacu den
ĠCa pit
Ġestre llas
b s
ĠIg lesia
Ã¡c tico
Ã© ase
p el
ĠF rac
ĠMun do
Ġa gen
Ġbal Ã³n
Ġju bil
Ġmuc osas
Ġr um
hi bir
Ġestar ÃŃa
Ġmunicip al
tri ax
ier an
Ġestable ciÃ³
ĠCon ferencia
ĠÃ©n fasis
L D
Ġrue das
Ġdese mb
ĠES T
Ġtrans fer
Ġmetab Ã³lica
Ġhospit alizados
Ġel as
ĠF DA
ĠEs a
am en
Ġaisl ados
h y
m eno
Ġno tar
gÃ©n ica
Ġne g
biÃ³ ticos
fer as
l Ã³n
Ġincor pora
Ġro ja
id ar
Ġhiper trofia
Ġs tudi
Ġtrig licÃ©ridos
Ġobs tÃ¡
ĠI B
Ġdro ga
ĠT VP
Ġpos iciones
l s
Ġesta tal
Ġ16 0
Ãµ es
Ġembara zos
Ġcir rosis
ĠG ir
ad uras
Ġor top
Ġabor da
Ġcomplic ada
Ġtra c
h acer
gra mas
retro vir
Ġbenefici oso
ĠSe x
Ġintens ivos
Ġdiferenci ar
Ġin ducciÃ³n
ĠO PS
Ġlig ero
Ġagu dos
br ales
ta to
Ġconcomit ante
at ÃŃa
Ġgen ital
ĠC T
h r
ĠMon te
Ġv om
Ġderiv ada
bi al
Ġcogni tivas
fi lo
Ġma triz
ĠC N
fa to
Ġapor taciÃ³n
Ġla tino
ĠJus ticia
Ġm ando
ĠLe on
ĠEsta mos
Ġ10 7
Ġhom en
Ġtab las
Ġexperim entos
Ġalimenti cios
ĠP atologÃŃa
ĠT est
ĠA ten
D r
Ġsever idad
i dencia
Ġcub anos
Ġpu dieron
ĠPre val
ĠpediÃ¡ tricos
tera pÃ©u
S C
Ġher mos
T abla
ĠG ol
ĠPla za
Ġpar enteral
Ġsome tido
a to
Ġcomun ica
Ġrelacion an
an gio
Ġpel vis
Ġcontro vers
ĠtrÃ¡n sito
AN A
Ġabund antes
ĠT oledo
Ġgran ul
ĠEs clerosis
Ġfl or
ĠÃ¡r boles
r ina
Ġin to
Ġmencion ar
Ġoptimi zar
ON A
Ġpsic Ã³logo
U G
im nas
ĠW orld
Ġen ro
TIV A
N e
Ġpe le
Ġin duc
Ġreper cu
Ġco caÃŃna
Ġsed aciÃ³n
o ta
Ġpat Ã³genos
pon er
Ġprop ici
ĠI buprofeno
paci dades
Ġuter ino
ĠS L
ĠN ivel
Ġcre ce
Ġdismin uido
us as
RC V
Ġcon me
Ġesper an
Ġpod amos
Ġar rugas
ĠDe porte
Ġ198 9
con d
oci to
Ġox igeno
Ã©p tido
Ġmen ingitis
c c
ĠG reg
Ġdirec tivos
ĠG lobal
Ġte mor
triax ona
Ġevalu ado
um bres
Ġter m
ĠBuen as
Ġplan e
Ġcoment Ã³
f avor
Ġn on
Ġdeb ÃŃa
Ġcan nab
ĠN eces
Ġconstante mente
Ġinteg rantes
pas mo
Ġdirig ir
ĠDes cu
D OS
is s
ril la
Ġas sociated
ĠR oc
Ġdes ac
Ġcons ens
Ġme dular
ĠAu tor
Ġescas os
Ġmo dal
Ġpar que
Ġan Ã¡
i Ã©ndose
Ġpertene ciente
yu vante
u ter
Ġacredi taciÃ³n
Ġnombr ado
ĠÃ¡l bum
Ġgener alizado
Ã± ado
cul taciÃ³n
Ġhemodin Ã¡mica
on arios
Ġdes pues
ĠT ex
Ġpro tes
Ġru tin
Ġconcl uir
Ġpre mi
ĠA di
Ġes pu
Ġneo plasias
ĠHum anos
Ġcolor rectal
Ġa trofia
ri mir
bi eron
Ġcontra tos
Ġdemo cr
Ġrev oluciÃ³n
Ġvivien das
ĠNa tural
Ġperfil es
Ġextens a
Ġhe tero
ĠHe art
ĠT ea
ent amiento
Ġperfec ta
Ġmater no
C a
al gias
le ge
Ġimpe dir
f ormaciÃ³n
Ġaclar ar
Ġtrans mite
Ġf la
ĠO me
tab la
Ġs p
ĠE U
di ciales
Ġambula torio
um an
ĠlÃŃ deres
Ġap nea
ĠD ol
Ġhe mato
ĠFisio terapia
Ġfuer an
Ġde tener
Ġhep Ã¡ticas
Ġfuncion arios
QU Ãį
Ġdeber se
Ġaliment arios
tori ales
Ġpalia tivos
per it
H E
or re
Ġcor ro
Ī Ĵ
ĠDis cusiÃ³n
Ġf ri
Ġlimp iar
Ġenc amin
Ġdi ente
Ġinterpre tar
Ġe cos
cu al
Ġanal ÃŃtico
Ġleg isla
Ġimpres ion
F ICI
Ġf osa
Ġexcel entes
Ġpro to
Ġorganiz ar
a pro
Ġquer er
Ġsustitu ir
am ino
gen a
arc oma
Ġobes os
Ġmedi ciones
et ÃŃn
Ġapar entemente
IL L
ac ep
AT OLOGÃįA
ĠcomÃºn mente
Ġdul ce
Ġrequer ir
gÃ©n esis
Ġde grad
Ġsegura mente
Es te
ĠC Ã©s
ĠRo dri
Ġimpres iÃ³n
Ġs ales
ENT OS
Ġpreven tiva
Ġcre emos
Ġingu inal
Ġsec ciones
Ġp ac
Ġperif Ã©rico
Ġfer ro
Ġcon cer
Ġcas e
ĠCent er
Ġto ca
Ġt y
Ġci tado
ĠM EN
ĠEcu ador
Ġpen dientes
Ġminis tro
er do
Ġest oma
Ġm ur
Ġsi bil
Ġeduca tivas
ĠM AS
Ġdestin ados
uc e
aliz amos
Ġgaran tiza
ĠazÃºcar es
Ġpla que
Ġmir ar
Ġprogram aciÃ³n
Ġco che
Ġfl ora
ĠIma gen
ĠAsoci aciones
Ġblan das
ĠR HA
ĠPro b
ĠMar ta
Ġbiblio grafÃŃa
Ġinflama torios
ĠclÃ¡s ica
ĠEjecu tivo
ĠHe pa
Ġvul nera
Ġl lan
Ġse mes
M an
Ġconcre ta
Ġcaus adas
Ġanaliz Ã³
Ġdiferenci aciÃ³n
Ġaument Ã³
R o
ĠÃ³r denes
A F
c ra
Ġcon tener
Ġcr ÃŃticas
Ġesta tinas
Ġpop ulares
Ġestre lla
le to
Ġdef ien
ĠPL AN
ĠVallad olid
Ġcom bina
Ġocur rido
Ġ198 0
Ġma g
EP AR
P V
Ġ12 5
Ġn ano
Ġcam as
Ġleucocitos is
ĠCal le
Ġevalu ados
ĠR oma
Ġca tar
ĠC AS
Ġpu ra
Ġrequer imientos
Ġfuncion ar
Ġdes in
Ġenfer ma
paci ente
c ara
Ġref res
Ġalmacen amiento
ĠF G
gÃ©n icos
Ġcolabor ador
ĠL eg
Ġcelebr arÃ¡
Ġal ve
Ġorg Ã¡nica
Ġest aciÃ³n
ible mente
Ġmens tru
er tos
Ġher encia
Ġc ero
ios is
Ġcal les
Ġce p
Ġqued arse
Ġper tin
ĠJ er
Ġselec cionar
Ġp iso
ĠON G
ĠFeli pe
Ġg amma
Ġdesapar ecer
ĠT el
a z
om egal
ĠCh ild
Ġdiab Ã©tico
ĠG uer
ĠF eb
Ġsitu ada
Ġvig il
b acter
Ġhidra tos
Ġref lujo
an es
ĠM U
Ġencan ta
ĠM L
t Ãº
Ġtrabaj ado
Ġcontro la
ĠPar que
cÃ³ pico
Ġorigin ales
ĠÎ¼ g
" )
Ġar reg
Ġcalci fic
Ġbi os
ĠquÃŃ micas
Ġo to
ĠU ri
Ġtriste za
Ġal ber
ĠRe ina
Ġalter n
u den
dnis ona
Ġespermato zo
Ġgener ado
ĠC Ã³digo
Ġcor ri
Ġocur r
Ġanal itica
Ġori entar
g il
Ġdismin uyendo
Ġconc ent
ues tion
Ġcompu tar
ri les
ĠEs pero
Ġus os
Ġvari ar
Ġale grÃŃa
c olor
Ġvia jar
Ġemp u
ac en
Ġg em
Ġcer rado
UM EN
ex o
ĠRo berto
Ġdetermin Ã³
Ġco do
fo bia
Ġcica trices
Ġadministr aciones
Ġsue Ã±os
ĠsÃŃ mb
Ġvac ÃŃo
Ġalcan zÃ³
Ġocur riÃ³
Ġfuncion an
Ġf ich
Ġd uer
Ġhog ares
ĠS r
Ã© m
Ġg ene
Ġej Ã©rcito
ĠS ud
ĠBan co
ĠFarmacÃ©u ticos
p Ã³
Ġradio f
des taciÃ³n
Ġextrem adamente
b ola
Ġextran jero
Ġinvas iÃ³n
ĠP OL
Ġten ia
Ġd r
Ġestudi ada
Ġangus tia
dia gn
Ġg on
Ġref u
ĠRe cientemente
Ġnego cios
depen diente
ĠC ER
Ġequ idad
Ġescuch a
ĠPar te
ĠAle x
Ġgl Ã³bulos
z i
f l
Ġreconoci da
plas ma
Ġc Ã¡n
ĠV ia
ĠS tre
ĠCl ara
Ġhis to
Ġpne umonia
Ġlimi tar
Ġexpon e
Ġos curo
ĠVal or
Ġse vero
ĠHospital ario
ila teral
qui p
Ã© ro
ĠOdon tologÃŃa
Ġcom is
Ġri que
Ġpati ent
d Ã³
Ġno tas
Ġfem oral
Ġerr Ã³n
ĠC AM
Ġcer rar
Ġfi ja
ĠPA CI
cu idado
ti la
c encia
Ġfrecu encias
ten se
j un
ĠA Ãºn
Ġasoci Ã³
b is
T ICA
Ġv uestra
isti Ã³
iz Ã³
Ġquis iera
Ġen de
Ġpat olÃ³gica
Ġban das
Ġ198 8
Ã©p ticos
Ġqu it
Ġobten idas
ĠAc ciÃ³n
Ġmam ÃŃfer
ti u
- (
+ +
Ġcar tÃŃ
ĠgÃ¡s trica
Ġtra te
ĠR ico
Ġbi olÃ³gicas
Ġv uestro
ĠFu ente
Ġmi ra
ue bles
ĠH ern
Ġd amos
Ġtier ras
Ġdesper tar
it ritos
Ġconstitu ido
ĠE ra
Ġc Ã¡r
Ġcabel lu
Ġman ag
Ġreca ud
ĠMan tener
ter no
Ġcomor bilidad
ĠExtre madura
Ġsocio demo
ine mia
ĠRam ÃŃrez
Ġdific ulta
Ġestabl ecen
ĠR aras
Ġre um
tr ina
ĠsÃ³l idos
Ġc ell
oci ales
Ġexud ado
Ġestim aciÃ³n
Ġau reus
-------- --------
Ġhac es
e jas
Ġpon iendo
Ġpre para
ĠdiÃ¡ logo
Ġadvier te
Ġseg ment
Ġl Ã³bulo
ĠnÃ³d ulos
Ġpe dido
ĠI F
Ġres idente
i ka
200 2
ĠS S
Ġo este
Ġsist Ã©mico
Ã¡c ticas
ĠT E
Ġfor o
Ġaisl ado
ĠH om
ĠF ra
en za
vi de
Ġen fa
Ġprodu cidas
og lob
ĠCal cio
xima b
ens is
Ġre tar
ing er
Ġvol viÃ³
Ġcap ÃŃtulos
200 5
bi as
Ġlo gro
Ġdepor tivas
Ġin vi
me dad
Ġtranspar ente
i Ã¡
Ġindispens able
Ġincom ple
Ġestu vieron
ĠD P
Ġsin tomas
Ġdesconoci do
ĠD D
ĠH IP
os ino
ĠDi pu
Ġcol g
ĠEstrateg ia
Ġcas tel
Ġexperim entado
Ġcar tera
ĠHD M
Ġsup rar
Ġhomen aje
Ġporcent ajes
Ġabandon ar
Ġdiscipl inas
Ġreiv indic
l ares
Ġcu ri
Ġhab lan
ĠRes umen
Ġinflama torio
Ġprima vera
tor ÃŃa
ĠVal oraciÃ³n
Ġsometer se
ĠPre cis
Ġmas car
Ġhom ogÃ©n
Ġcolon os
or ra
Ġju ventud
Ġcre mas
velop ment
Ġenl aces
ĠMar tÃŃ
Ġer os
ĠSegun da
Ġten gas
ĠR an
ĠFE VI
or y
Ġpresent aciones
Ġrecidi va
Ġestable cida
j Ã³
Ġrodi llas
ĠQu ÃŃ
Ã¡ bamos
Ġen g
b la
Ġcuestion arios
Ġrecl u
j ados
Ġquis tes
Ġfia bilidad
Ġres tring
Ġnervi osa
te gra
Ġcontra taciÃ³n
urs ing
Ġpancre a
Ġel ig
Ġdedic aciÃ³n
Ġa qu
ri el
Ġapropi ado
Ġan cho
Ġdocum ental
i gu
ce d
Ġth erapy
ĠObs tetricia
Ġc aja
ok ies
Ġobs es
Ġcel ulitis
Ġtrauma tismos
Ġseg mentos
e le
Ġru ta
Ġopio ides
ĠAu to
Ġarti fici
TA C
Ġendo crin
Ġa blaciÃ³n
Ġaproxim aciÃ³n
Ġprema turo
ĠP M
Ġm cg
ĠMan ten
parta mentos
Ġt able
Ġabdomin ales
Ġantigu os
Ġal ine
cil la
Ġ1 12
ĠMol ecular
ĠmÃ¡ quina
Ġincre ÃŃ
Ġrefer ido
ĠPortu gal
ĠV ie
Ġar ran
Ġadap tado
Ġ18 0
Ġle vel
Ġapar ente
Ġgras o
Ġprovin cias
ti lo
qui al
Ġestar Ã¡n
U RA
Ġval idaciÃ³n
Ġdif usa
Ġmal as
ĠAr tes
Ġre tra
EN O
Ġmar eos
Ġprob ado
sess ment
ĠCon ocer
Ġpru rito
h os
Ġendome tri
f ig
Ġlimp ia
Ġo cio
Ġcorrec tas
ĠCons ulta
Ġvalor ada
ĠalÃ©rg icas
p Ã¡tico
form as
am as
tin e
L e
Ġtarje ta
ĠG L
T he
Ġunivers itario
os tic
P ara
de za
ĠPar ece
Ġagr icultura
Ġpsic olÃ³gicas
Ġti ra
Ġpan or
ĠRies go
Ġestim ula
D er
tan os
Ġkil os
ĠPal acio
Ġmo tora
am pl
ĠPer io
Ġgastrointes tinales
\ ,
pat olÃ³gico
Ġre tin
Ġpue das
Ġlinf Ã¡ticos
Ġdesconoci da
fic ar
Ġf usiÃ³n
Ġproyec ciÃ³n
Ġvolun tar
Ġubic ada
Ġaten dido
Ġanci ano
Ġci ego
Ġ% )
Ġar que
Ġcomen zado
UL T
Ġllev aron
ĠCol lege
Ġaplic Ã³
ted ra
ĠSur g
Ġe ch
Ġadap tarse
ĠP ET
ĠS IDA
Ġan tis
Ġsosten ible
Ġhist Ã³rica
Ġop tar
en zo
ĠProduc tos
Ġcabellu do
in io
Ġsu gi
Ġven der
Ġmuer to
Ġacer c
Ã³ vil
mos is
Ġdig estiÃ³n
EN S
aj al
ĠEs tim
ĠCon oci
Ġsup era
EC T
Ġredu ciendo
Ġtar dÃŃa
iz ed
Ġmarca pasos
Ġintegr ada
Ġmodal idades
Ġh ice
ĠM Ãºs
ĠCu bana
ĠCOM PR
Ġar tista
qui tos
ĠclÃ¡s icos
Ġaco pl
Ġfies tas
ĠF oro
ĠMa es
Ġcontemp or
Ġhiper sensibilidad
Ġanticuer po
Ġox ida
ĠS V
Ġex por
Ġsecu encias
Ġentre gar
Ġdes as
Ġig lesia
z ano
Ġendo cr
Ġre ver
Ġan amnesis
Ġde dica
ĠEnc uesta
P CR
ĠM aria
Ġad ju
Ġcolombi ano
Ġprofesional idad
ĠTi po
Ġhom eo
Ġform ulaciÃ³n
i anos
ĠO ral
Ġepi der
Ġagres iÃ³n
um ador
Ġme til
h asta
pa ta
Ġval ora
Ãº de
Ġconsiderable mente
creen ing
Ġresponsa bilidades
Ġextra cto
ĠNe umologÃŃa
ĠÃ³pti ma
Ġpor tavo
Ġb ras
idos is
a gre
Ġpec ul
Ġpor tador
Ġmam aria
ĠDer echos
Ġtercer os
Ġtra er
Ġgaran tÃŃa
ĠL is
Ġch icas
V al
ĠJo a
ĠS tan
Ġa tiende
Ġen se
Ġfu i
Ġadministr ado
Ġescen arios
Ġexten der
ĠV HC
ĠL ar
Ġsal en
Ġci tas
ÃŃ ticamente
osfa to
Â¡ Â¡
Ġrecibi endo
e ja
h ora
Ġin jus
ci ta
ĠSegui miento
Ġsu tura
Ġph ys
Ġsud oraciÃ³n
Ġcons umen
a a
ĠFeder al
Ġfuncional idad
ĠM J
Ã¡ ez
Ġconcre tamente
Ġprovoc ado
Ã³ metro
ĠDic ho
Ġag encia
lo ide
Ġlleg aron
OM A
P OR
Ġsal as
Ġconoce mos
Ġejer ce
fon os
Ġtal ento
Ġindu cida
Ġen vas
ud os
Ġapor taciones
ĠH aci
dic amente
th y
Ġaf irman
Ġabra zo
Ġenerg Ã©tico
ĠBiblio teca
Ġan estes
ĠR ich
Ġcent rada
ĠL M
Ġincertid umbre
Ġesp ir
Ġperspec tivas
Ġdi ciendo
Ġer u
Ġnervi osas
p ha
gu in
Ġtom as
Ġca denas
Ġalem Ã¡n
Ġfavor ecen
Ġtranquil idad
j unto
Ġsuple mento
OD UC
Ġar mon
ĠPU ED
car e
Ġcon gresos
Ġconcre tas
ĠLib er
Ġco br
Ġlar gas
Ġepidemi ologÃŃa
Ġformul ario
Ġprim arios
Ġdismin uyen
Ġneces itas
Ġtox inas
Ġdeg eneraciÃ³n
ĠNefro logÃŃa
Ġdig itales
r Ã©
Ġcent en
Ġg ira
Ġacad Ã©mica
ĠOftalm ologÃŃa
ĠLib ro
Ġdes gr
vi le
Ġrode a
Ġmetab Ã³licas
ĠCal i
ĠRe un
Ġinterval os
hiper tens
or res
Ġv ib
Ġentor nos
Ġpl ie
ĠM Ãī
Ġtrombo emb
Ãģ N
Ġar ma
ogrÃ¡ fico
C G
Ġmo dos
Ġne f
Ġinter ro
Ġa gar
Ġcal cular
oc or
Ġcam p
Ġas untos
Ġpresent en
ĠOr tega
iz ando
ĠAna tomÃŃa
ig an
Ġtran quilo
Ġl ados
ĠC in
ĠMÃºlti ple
F ig
e duc
renal ina
ĠUs ted
Ġconsigui Ã³
is m
Ġm enci
ĠB eb
ĠCu enta
ĠAmbi ente
Ġesc ena
un ya
te z
uy entes
Ġestudi a
Ġvein te
Ġju venil
Ġch an
Ġver tical
t ter
Ġavan zados
ĠW ar
Ġproce der
Ġgen itales
ĠF estival
Ġflexi ble
Ġha z
Ġimplement ar
vi mos
ĠK ey
Ġintegr idad
rin Ã³geno
so bre
ĠRe pres
Ġempres arial
ĠJ unto
Ġingres a
ĠCON CLUS
Ġcons ciencia
u th
Ġlogr os
ra el
Ġsac ri
Ġbronqui al
ĠHid ro
Ġanor exia
Ġtempran as
Ġantiinflama torios
Ġqu iste
Ġcontra cciÃ³n
ĠPediÃ¡ trica
Ġdirec trices
ag Ã¼
ĠÃ ł
ĠI TU
Ġpop ulation
gÃ¼ edad
Ġrad icales
Ġ13 9
ĠDE R
Ġsolici tudes
Ġcontr adic
Ġprove edor
Ġanaliz an
ĠRio ja
b ac
ĠfarmacÃ©u ticas
ĠOfici na
e tina
Ġrestric ciÃ³n
Ġreac tiva
im amente
Ġloc alizada
Ġapo ya
o patÃŃa
ĠV Ã¡zquez
ĠSe guro
Ġfal l
p ariciÃ³n
Ġcre ada
Ġorig ina
ĠComer cio
tos terona
Ġle v
AR D
pu ra
cep to
Ġo ver
Ġrup tura
Ġre tino
pl u
ĠEpiso dio
tr ales
Ġcompar ten
Ġcomen z
Ġas piraciÃ³n
Ġinmo vil
Ġrepres entar
ul tado
ĠI T
ĠG EN
Ġchoc olate
ĠC Y
Ġpsic omo
Ġra tio
Ġpas tillas
Ġevalu aron
ĠJ uegos
ĠÌ Ī
ĠAn gel
ID OS
Ġmateri as
Ġdescar ga
Ġpsic Ã³logos
Ġpaque te
Ġdes ori
Ġli tiasis
Ġconci li
m el
ĠM VC
Ġjam Ã¡s
D M
Ġmilit ares
ĠEndocrin ologÃŃa
Ġg ro
Ġprim or
Ġmor e
Ġdel e
Ġtom aron
Ġsi mb
me til
ĠlÃ³g ica
und aciÃ³n
ĠHer rera
Ġman z
Ġbiomarc adores
Ġli tros
Ġesta tu
ta in
AN O
Ġ13 8
Ġsab ÃŃa
Ġcon viene
Ġestim ar
Ġ198 7
Ġred ac
Ġcoinci den
Ġespaci al
Ġenc ab
Ġconta gio
Ġvuel ven
ĠCL ÃįN
ul ados
Ġinter medi
Ġ10 4
o v
tor Ã¡ci
ĠBi omÃ©dica
l ace
Ġcoron arias
Ġdese os
Ġlec tores
ĠR i
Ġvid rio
ĠDe fin
Ġneuro degenera
Ġdecre to
Ġsi enta
ri es
ix a
Ġpi enso
Ġs Ã³
Ġsens aciones
ĠCon fe
cri tos
Ġcombin ada
Ġ198 6
ĠG U
Ġpron Ã³s
Ġsur gen
Ġdi lu
Ġl Ãº
CI O
Ġces Ã¡rea
Ġsent encia
Ġr urales
Ġdivul gaciÃ³n
Ġfu tura
ĠPh ys
ĠM esa
Ġap r
Ġus ados
l oro
Ġli pos
Ġpredis posiciÃ³n
Ġestr Ã³genos
Ġinmun idad
ĠMe tab
Ġescri biÃ³
ĠCo ch
Ġsuperfici es
ĠAlim entaciÃ³n
Ġ $
Ġpla ya
ene m
== ==
ĠSan itarios
icos is
Ġvent ana
Ġse quedad
a den
Ġevalu aciones
ĠCons ciente
di um
ĠMunicip al
Ġconsidera mos
ĠÃģngel es
ie ve
ĠDel gado
ĠSe mana
Ġinter vienen
Ġvis cer
ĠAp ren
N R
Ġpic or
Ġecon om
ĠperiÃ³ dico
Ġben zo
Ġpod remos
ĠIn dic
cur s
b ula
Ġmo tores
Ġconfirm aciÃ³n
jer as
Ġamb ul
Ġcin tura
Ġhin chas
Ġace til
Ġepidemi olÃ³gica
Ġori enta
Ġcomen zaron
ble mas
ĠSer gio
Ġar ras
Ġf Ã³lico
yac entes
Ġco hor
Ġa tre
Ġdesa pariciÃ³n
ĠSan to
ĠV II
Ġdefici encias
ĠW a
Ġm Ã¡r
Ġepi telio
m arc
bier an
Ġami g
ros s
Ġquin to
Ã³n icos
ĠL ES
ĠN uestros
Ġven ir
ĠC erv
. [
C h
Ġ14 5
Ġform al
Ġprom ueve
li x
n y
ĠRa Ãºl
ĠEE UU
Ġdur ing
ĠC F
t le
ĠTea tro
Ġg imnas
Ġcar cin
ĠPa ul
Ġincor rec
Ġil usiÃ³n
Ġin ducir
ĠAu di
Ġmencion ados
enci ada
Ġcromos omas
Ġres isten
u idos
ĠL L
om an
Ġemple an
Ġdes gas
RA F
Ġcom a
ĠN A
Ġt orax
Ġes teroides
Ġfamos o
Ġanunci ado
ec ÃŃan
ĠPo co
Ġadquir ida
Ġil umin
Ġanticoag ulaciÃ³n
ue ven
Ã¡m icas
Ġvay an
Ġtit ulado
Ġhu mil
po y
aj os
Ġtecn olÃ³gicos
Ġhabi endo
Ġlec tor
AM ENTE
ĠMar co
Ġequiv oc
ĠTro ponina
u til
Ġmal trato
ĠL una
ĠmediterrÃ¡n ea
Ġcorrel acion
Ġcomor bilidades
t Ã¡l
Ġson idos
Ġcontin ente
Ġlan zamiento
ĠM icro
Ġrepolar izaciÃ³n
ĠRecur sos
Ġbi polar
Ġespec ta
). -
Ġextran jeros
Ġinvesti ga
ĠP ese
tecn ologÃŃa
Ġinflama torias
yec ciÃ³n
ĠÃ¡ tomos
G u
ĠD ens
B I
ĠLa ura
Ġobserv aciones
Ġestim ado
Ġgl Ãº
w in
e mo
Ġestudi Ã³
Ġto tales
Ġson risa
Ġpul so
ÃŃ mp
PS S
Ġhe mis
pul monar
ĠMej or
Ġp asta
â Ĥ¬
vi miento
V ES
Ġlim Ã³n
ĠE mil
ĠJ ur
ĠcÃ¡ps ulas
las a
Ġdel imi
ĠHospit ales
Ġpar ox
Ġaf ric
ĠA plicar
ĠCas i
ĠS tudy
ĠP I
ĠAr m
Ġmembran as
ĠGener almente
Ġrealiz amos
Ġa fil
ĠC orazÃ³n
ĠL ima
Ġexcep cional
ion s
C ON
Ã©n ica
Ġpolic ÃŃa
Ġaconsej able
tÃŃcul os
Ġvicepres idente
Ġpar Ã©nquima
200 3
Ġonc ologÃŃa
Ġcor tos
ĠBuen a
y entes
Ġdiagnos tica
Ġesti ra
Ġsolid aridad
Ġma pa
Ġpri vile
Ġest ro
man os
mi go
Ġresul ts
Ġ198 5
ĠmiocÃ¡r dica
Ġdetermin an
Ġan os
UL A
Ġextre ma
Ġoblig aciones
ĠSAL UD
Ġesper ando
amp iÃ³n
den ce
Ġle tras
Ġidentific aron
ĠI Q
vier an
Ġcom isiÃ³n
Ġum bilical
ĠS D
Ġargum entos
ĠIg G
ÃŃ genes
Ġpla tos
Ġp eces
OM E
ĠU su
Ġtranquil a
ĠA den
Ġfoc al
Ġalo j
ĠF RCV
Ãºbi to
ĠA ran
ĠV o
Ġvers iones
pa in
Ġpro hib
Ġclar idad
Ġar tro
ĠI z
am inas
Ġestudi adas
Ġconsum idor
Ġo cupar
e cimiento
Ġid Ã©n
Ġciudad ano
Ġprotagon istas
EN A
Ġcer tificado
Ġbici cle
Ġinteres ado
Ã§ a
Ġderi var
Ġvoc al
Ġcircu ito
ĠPod cast
Ġcubier ta
Ġempie zan
ĠRes pira
in ga
Ġco vid
or cio
ĠP OS
ĠProce dimiento
des de
ĠJ L
no w
gan tes
ĠneurolÃ³g icos
ib er
Ġl ente
Ġcre ciendo
Ġvo to
ĠDie ta
Ġau toma
ĠEsta tal
Ġtra e
Ġconsi guen
ĠEN TR
Ġome ga
Ġmar keting
Ġg lo
R I
Ġpodr ÃŃamos
Ġadeno patÃŃas
ti al
VID AD
Ġin icios
ĠP rac
ĠvÃ³mi to
ĠfÃ³rm ulas
Ġllev arÃ¡
ĠCatal unya
pi ro
Ġag on
Ġsecre to
Ġne w
Ġdu oden
ĠIs la
u o
Ġcu rios
Ġmuer tos
Ġju go
Ġden uncia
ĠbÃ¡s icamente
min al
ĠEj Ã©rcito
Ġl entamente
Ġro b
us to
ĠCaracter ÃŃsticas
uc es
ĠIn di
Ġpreocup aciones
Ġint entos
Ġprove edores
Ġclim Ã¡tico
4 00
Ġsyn drome
ĠG roup
Ġplante an
Ġreg eneraciÃ³n
Ġdepen derÃ¡
Ġdesarroll aron
Ġexperim entales
Ġapun tan
Ġov Ã¡r
tom e
ĠColeg ios
Ġo ther
Ġinfecci oso
- .
UR O
ĠNi Ã±os
ad ar
Ġcap taciÃ³n
Ã©rg icos
ĠEs co
Ġan iversario
Ġrevascular izaciÃ³n
Ġacces ible
Ġacor de
Ġpla to
ĠComun idades
Ġintrac raneal
Ġâ Ĥ¬
Ġmedicin ales
Ġfalle cimiento
ĠGastro enter
ven a
l ing
ĠCons ider
Ġestudi aron
ĠRES UMEN
ĠV ÃŃc
Ġpri mi
Ġtox ina
di ab
Ġado pciÃ³n
Ġconserv ador
ic ul
Ġexpl ora
ĠCer eb
ĠSan itario
Ġesti gma
Ġquier an
ÃŃn guez
Ġhipertens os
us s
Ġconvier ten
Ġd rug
Ġad s
Ġtra que
Ġextrem idad
an ta
i amente
Ġcaracter izan
Ġmorbi mortalidad
ĠF ab
ien es
Ġexpres an
Ġmanio bras
ĠF ri
Ã³ ticas
Ġencuent re
Ġdispon emos
Ġi ones
Ġampli aciÃ³n
trÃ³ fica
Ġfues e
ĠH un
Ġdis or
Ġay uden
Ġin tim
cios os
ĠDe x
ĠGu iller
Ġperten ecen
Ġbiblio grÃ¡fica
Ġinfil trado
Ġbrin da
Ġdescub ri
Ġdispon en
Ġins piraciÃ³n
Ġhial ur
u k
Ġdi pu
ÃŃa ca
Ġas umi
AD AS
Ġd uelo
Ġp CO
ĠR ib
Ġrecurr entes
Ġabs tinencia
ĠCom plu
Ġn arra
ĠT IEN
Ġpat olÃ³gico
ĠM es
im Ã©
ĠVic toria
Ġcate ter
Ġdifun dir
rÃ³ tesis
ĠR I
Ġlog ÃŃstica
h ay
Ġvar ÃŃan
ĠparÃ¡s itos
Ġre tira
Ġfal sos
Ġven ido
Ġdeb o
Ġit s
Ġcali bre
Ġproduc tividad
ĠActiv idades
mon ios
Ġinmunosu pres
Ġefec tivas
Ġque m
Ġmanten ida
Ġlaparos cÃ³pica
Ġpro cur
ĠRe umatologÃŃa
ĠComplu tense
Ġsol os
ĠprÃ³ ximas
on i
ĠÃºn icos
Ġinfil traciÃ³n
ĠRes oluciÃ³n
S u
tri cidad
Ġcol oraciÃ³n
Ġcar reras
ĠCro hn
ca piÃ©
Ġmam Ã¡
p so
Ġlo go
Ġdign idad
ĠPromo ciÃ³n
ĠB AS
Ġcor dÃ³n
Ġconf ia
ĠcuÃ¡n to
er ci
Ġinger ir
Ġpsiquia tra
Ġflexi bilidad
200 4
Ġfol low
Ġfoto grafÃŃa
Ġt acto
Ġcar gos
Ġdiagn osis
Ġdetermin ante
Ġseman al
Ġtraduc e
Ġa ra
T e
Ġfeb r
Ġnoctur na
ĠH ER
Ġch il
Ġres ta
ĠNav idad
Ġra to
Ã© pti
Ġrepor tado
Ġmanag ement
Ġasintom Ã¡tico
Ã¡n do
ĠCientÃŃ fico
Ġd orm
Ġredu jo
Ġsol ares
M ed
blo que
Ġb rad
Ġcre ando
ida zol
Ġn ÃŃ
ĠquÃŃ mico
ĠantÃŃ genos
v ul
Ġreproduc tiva
iz antes
Ġay ude
Ġcu bre
Ġconcl uyÃ³
G N
for tunadamente
lo gos
ĠP las
Ġalter ar
iza tion
P o
ĠP te
Ġar terio
ED ER
tre mia
Ġpiel es
Ġju gue
Ġaplic ando
Ġllam an
Ġconse jera
Ġbril lante
cul tivos
Ġpro viene
tic aria
ĠH IV
1 20
Ġlip ÃŃ
ĠH ombre
Ġamar illo
ĠAd olesc
Ġes cu
gu ieron
aliz ando
Ġautoinmun e
Ġsepar ado
Ġconvers aciÃ³n
Ġprodu cidos
ĠT enemos
Ġperiodis tas
ĠAl lÃŃ
Ġtecn olÃ³gica
Ġnaran ja
Ġcas es
ĠS OB
rane ales
Ġav iÃ³n
Ġpa in
ci ende
Ġcannab is
al ta
Ġinvoluc rados
ĠHD L
Ġan ualmente
Ġgen ial
Ġs peci
w ay
es ÃŃa
Ġcelebr Ã³
Ġcicatriz aciÃ³n
ĠMe dia
Ġconserv ar
ĠDiges tivo
ara zo
Ġco Ã¡g
Ġdi ri
Ġacep tado
d ada
Ġdel an
Ġes encia
Ġsal iÃ³
QUÃį MICA
Ġportavo z
Ġch arla
Ġre lo
ĠConfe deraciÃ³n
ĠHe ma
Ġcerv eza
Ġcon tigo
xim adamente
Ġgan Ã³
Ġmix ta
ĠV AL
Ġsemes tre
Ġgros or
Ġhin capiÃ©
Ġmultic Ã©ntrico
Ġlevan tar
Ġex istÃŃa
Ġgener ando
Ġ13 7
AC T
Ġsub yacente
ĠpÃ©lv ico
ol v
ĠP ens
Ġimpues tos
ĠS ha
Ġhabl ado
Ġcorne al
Ġabsolu tamente
Ġhor arios
ĠgeogrÃ¡ fica
Ã© ticamente
Ġconci enciar
12 5
ic ela
Ġrique za
IS A
Ġenti endo
Ġb l
Ġantiv ir
Ġinter rupciÃ³n
Ġci elo
Ġembri ones
ĠH os
tÃ©r mica
Ġhe parina
plic aciones
Ġsub si
ĠV ill
Ġdefini tivamente
cion ista
ĠO riente
Ġch ronic
Ġprema turos
ĠPsych ia
Ġconsi go
Ġn omin
Ġacep ta
Ġte mÃ¡tica
Ġp O
Ġrecuer dos
te za
ĠG ri
Ġfoto grafÃŃas
Ġdirec tos
Ġdep Ã³sitos
Ġc ad
Ġle ÃŃdo
Ġespec tÃ¡
v it
man es
ĠlÃŃqu ida
ION ES
Ġcolombi anos
Ġcontemp la
ter mia
Ġpas iÃ³n
Ġdise min
Ġreco gen
Ġa qui
Ġpin tura
Ġpros t
Ġz inc
Ġluc ro
e ga
Ġre bel
c ord
Ġcardi acas
re l
ĠMujer es
Ġmater nidad
Ġsilenci o
ĠPar lamento
Ġidentific ados
Ġinadecu ada
ĠEv itar
Ġantir retrovir
Ġafirm ar
op pler
Ġrela tivos
Ġanun ciÃ³
Ġro ta
Ġrelig iÃ³n
B R
ad minis
ĠS tar
Ġtranspar encia
Ġde ca
ve y
12 3
Ġod ino
U na
TIV OS
ĠOc ci
Ġcam in
ĠPos t
ĠOr to
Ã¡n donos
ĠM ana
ĠEn cuent
ĠAcu dir
Ġcon ces
Ġins a
d ÃŃan
Ġrefle jan
as t
Ġma x
Ġrecu ento
Ġt ac
Ġsintom Ã¡tica
Ġr ÃŃos
M adrid
Ġvis ibles
or s
E X
w ork
Ġsegu idos
Ġtor n
Ġempe ora
Ġfarmac olÃ³gica
ĠA A
Ġcomputar izada
Ġdis pens
Ġv ea
pi entes
Ġ" Â¿
Ġstudi es
Ġfun dador
Ġfr ÃŃa
Ġab arca
Ã©p tica
cu rio
ĠCardio vascular
ĠCor on
am Ã¡
Ġmu riÃ³
Ġcam pes
Ġdetal l
EC A
Ġman dÃŃ
ĠÃ© ticos
Ġf ina
Ġprev Ã©
Ġcardi acos
ĠJos e
ri z
Ġre port
s able
ĠSe bas
Ġrevel Ã³
ĠAn n
min g
ĠMol ina
ĠNorm almente
" ;
ĠFran k
ĠR ub
Ġgri ego
Ġtecn olÃ³gico
dimens ional
ĠRo bert
Ġheter ogÃ©n
Ġinterven ir
um os
Ġtis ular
Ġdesaf ÃŃo
Ġtrabaj Ã³
ĠCo pa
.. ..
AS A
Ġb le
Ġor din
Ġactiv as
ci no
am ar
Ġestable cidas
if i
ĠDis min
ĠT rad
posi tivo
Ġep il
N a
Ġtes tosterona
Ġinvas ivo
Ġvideoj uegos
Ġclasific ar
Ġpres iones
Ġconform an
ede ma
Ġsatisfac er
Ġdescar gar
m Ã³n
ĠBol iv
Ġvic toria
ĠD NA
ĠH CO
Ġlac tante
Ġfis cal
Ġenv ase
Ġlis tado
g icas
Ġcomplement aria
ĠEs cala
Ġtercer o
Ġex ce
c ro
Ġpar ie
ĠPal ma
Ġadquir ido
ĠN unca
Ġpan el
ĠMe mor
Ġmo difica
con tin
ch i
Ġ14 1
ĠD ental
Ġi on
Ġconsum e
IN AL
Ġa pa
mis os
Ã³g ena
Ġalu cin
o t
Ġf igur
Ġper se
Ġintelig ente
Ġacu pun
Ġexperim ento
Ġno vel
uer to
ton ÃŃa
Ġsu dor
Ġtex tura
Ġobs tÃ©
Ġrecog idos
ter Ã¡p
Ġabier tas
ĠProfes ionales
Ġex ager
Ġrecor tes
ĠG N
Ġencontr ados
Ġres tantes
ta mbi
Ġf es
Ġmul titud
ĠR is
Ġradi olÃ³gica
ĠJ ames
Ã©l ulas
ĠCat Ã³lica
Ġqued ando
Ġfisi olÃ³gico
den tales
Ġefectu ar
Ġal f
ens or
ĠDens idad
AM A
Ġvulnera bilidad
Ġantibio terapia
Ġre iter
ig h
Ã¡rmac os
tel la
r ador
Ġinter vencion
g icos
ĠÎ ²
Ġmolesti a
fis i
Ġva por
Ġimp o
Ġretros pec
a Ã±os
ĠG RA
Ġmenstru aciÃ³n
tr adas
AT O
ĠB ron
IN O
Ġdetal lada
Ġcogni tivos
Ġinmuno terapia
Ġid Ã³n
Ġanticoagul antes
Ġeupne ico
Ġescri ta
Ġdep Ã³sito
Ġpar ada
ĠB ell
Ġrecon ocen
ens i
OS A
Ġesper amos
ĠBIO QUÃįMICA
Ġcan tante
Ġoportun o
Ġh ielo
Ġartifici ales
uc ciÃ³n
el y
Ġemp atÃŃa
ĠGuiller mo
Ġunivers itaria
ci co
2 000
mar as
Ġdes favor
Ġmuch ÃŃsimo
Ġtriun fo
ĠFl ores
Ġoblig ado
ĠPl Ã¡stica
Ġpan tal
ĠGeneral itat
ĠIC T
ĠTom Ã¡s
ĠR ica
Ġprofundi zar
ĠDomin go
Ġro ck
Ġsub cutÃ¡nea
ĠC ine
ri torial
Fi gura
tiv itis
ĠFon do
Ġdemos traron
les ias
es of
Ġeurope as
ĠV ÃŃa
ĠPR IM
Ġca ps
hibi ciÃ³n
ĠIc tus
Ġma tar
Ġmaes tros
Ġcaus al
Ġma quin
ĠImp res
Ġest Ã©tico
Ġcon migo
paci o
Ġhema turia
ĠLatino amÃ©rica
Ġred acciÃ³n
Ġd ados
Ġlon g
Ġcor rupciÃ³n
Ġcual idades
g ador
ĠVe ga
Ġcru cial
Ġrad ica
yl ori
H ospital
Ġprescri p
Ġmono cl
ĠI P
y er
bi to
Ġcer tific
ĠAlim entos
Ġsocios an
ĠR usia
i adas
en ne
ĠA ce
Ã§ Ãµes
Ġcole cis
Ġa teros
Ġasegur an
ĠAm Ã©ricas
Ġviv iendo
ĠEl i
Ġprac tica
Ġantioxid ante
ĠA cep
Ġagen da
Ġregres o
te m
colesterol emia
Ġcoinci de
Ġmexic anos
Ãª ncia
Ġdescri tas
ĠT EA
in Ã³geno
phy lo
Ġplan os
Ġum bral
ĠD C
Ġpresent ada
Ġespiri tual
Ġproduc tiva
Ġth an
Ġpr is
Ġexam inar
ĠLe ve
Ġfarmac olÃ³gicas
Ġcatara tas
Ġna tur
Ġhospital arias
Ġla terales
Ġes feras
Ġneur onal
Ġmad rile
Ġanti hipertens
Ġconcre tos
ĠM ora
Ġa zar
or os
Ġa fici
Ġaz ucar
im us
bu ta
br id
Ġme te
Ġdiast Ã³lica
Ġjue gan
Ġpu ente
Ġfum ador
Ġco pia
Ġcomp ut
ist Ã³
Ġmexic ano
Ġafec tando
Ġcaus ante
Ġen am
Ġcon fec
Ġne um
ĠEs cri
Ġarquitec tura
Ġgaran tÃŃas
c Ã³n
ĠR N
Ġalcan zan
ĠRe alizar
Ġama ble
Ġencontra ban
Ġpun tual
Ġapare ciÃ³
Ġes cul
Ġme as
Ġcafe ÃŃna
Ġcol itis
Ġbeneficios os
Ġf urosemida
ĠcardÃŃa cas
Ġtrans curso
Ġpi diÃ³
Ġanal ÃŃticas
Ġmanifies tan
ol las
Ġsus t
ĠÂ ®
Ġanomal ÃŃa
ĠD ro
ent ados
ĠEl la
Ġco un
Ġfarmac ocin
all y
ĠC AL
Ġocup aciÃ³n
ĠMan ejo
Ġrefer entes
Ġanti agre
m n
Ġpecul iar
ÃŃn cipe
Ġrela to
et s
Ġsobreviv ir
Ġinfraestruc tura
Ġres fri
Ġhipo glucemia
ĠInfec ciones
Ġprome ted
Ġal tera
ba o
Ġdesaf ÃŃos
Ġ10 6
guar dia
Ġconcord ancia
ol eta
Ġdej amos
Ġprofun das
ĠtÃŃ pico
Ġterri torios
Ġregis traron
Ġremo del
Ġcon trar
Ġexplic aciones
Ġsencil las
ĠES TE
Ġatra ves
ues tras
ĠGreg orio
ĠPre mios
Ġafirm ado
Ġtre inta
Ġpil ares
Ġinfec tadas
Ġconf ort
er io
tÃ³ pica
Ġlac tosa
x el
tens ina
Ġaten u
Ġfia ble
Ġr aci
Ġb el
ĠB M
ĠG us
Ġprefer encias
Ġasigna tura
Ġplas mÃ¡ticas
ĠD R
ĠSebas ti
Ġdue le
Ġsecu enciaciÃ³n
Ġcarre tera
ĠRo jas
h en
ĠReun iÃ³n
f ÃŃs
ion ado
fic acia
gr ados
ĠprÃ¡c ticos
Ġcari Ã±o
m Ã³s
ma y
Ġdescub riÃ³
ĠTÃ©cn icas
Ġla bio
ĠcartÃŃ lago
Ġbio psias
Ġli fe
Ġse m
Ġ% .
Ġcelebr ar
ĠtÃŃ pica
ig encia
Ġrue da
ĠD in
Ġeval Ãºa
Ġhemb ras
H eb
Ġconsider adas
h ar
Ġcompon en
ĠNe gativo
b ul
Ġens al
ĠacompaÃ± ar
Ġinfrecu ente
Ġac triz
Ġaplic an
Ġinmunode ficiencia
Ġinform Ã¡tica
Ġce de
Ġami ga
Ġembri on
Ġeru pciÃ³n
Ġhor mi
Ġpneumonia e
Ġconf iden
ĠEl lo
Ġtien da
Ġconfirm Ã³
ac tivos
ha vi
tan der
e facciÃ³n
fos f
Ġrad ial
Ġâ ĪĴ
Ġle vo
Ġr ÃŃg
ĠDom ÃŃnguez
Ġta tu
Ġres ec
ha bi
Ġvi al
Ġevolu tivo
Ġme thod
ĠOr tiz
Ġco pias
ĠÃ³v ulos
ĠRe medio
Ġexten dido
fa gos
mer ica
uer te
Ġadh esiÃ³n
ĠF iebre
Ġver des
it ado
Ġafec to
Ġ zo
Ġben igna
ist ad
ĠPri mero
Ġ4 50
u rez
Ġexperim entan
Ġus arse
Ġromp er
ra ya
um ar
2 108
te cas
ens ible
ĠB ene
Ġintegr ar
Ġexpl os
Ġconci erto
or ios
ĠA v
Ġhiper actividad
Ġases or
ru gada
Ġrecep ciÃ³n
Ġhis p
ĠfÃ³s foro
Ġfal la
Ġmedio ambi
Ġcomun itario
Ġra mi
all ero
tr Ã³geno
ĠfÃ¡ ciles
Ġprema tura
ĠL iga
Ġver ti
Ġdesigual dades
a tivo
tes t
Ġdiur Ã©ticos
ĠB ale
ĠÃī l
ent Ã³
Ġbe en
P EC
ĠU SA
ĠV el
il i
teri ales
ino plastia
or di
Ġcompren dido
Ġconfigur aciÃ³n
ha el
ĠtÃ³ xico
Ġvincul ados
ĠYo u
Ġent us
ĠAd ul
Ġdefens as
: :
ti Ã©ndose
ĠRos ario
tudi o
Ġtar des
Ġintern as
Ġtor neo
Ġbol sas
Ġne ural
Ġpredic tivo
ic aciones
Ġpiens an
Ġparadig ma
Ġd aba
Ġex posiciones
Ġmac ular
Ġcar nes
Ġne gros
Ġneu tr
ĠG ene
Ġac aban
xilo facial
ĠmamÃŃfer os
Ġce guera
Ġocas iona
Ġirrad iado
Ġtra mi
ĠjurÃŃ dica
ÃŃc ola
ĠMo der
Ġurin arias
ĠA gra
ver te
Ġenv ÃŃo
Ġpancrea titis
Ġintent ando
Ġsero tonina
Ġactiv amente
Ġodino fagia
Ġta x
Ġingen ierÃŃa
Ġsho w
Ġa man
ĠN utr
Ġr pm
a bilidad
ĠSe dimento
Ġemple ada
Ġdol encias
Ġanorm ales
ĠelÃ©c trico
Ġtur ismo
Ġdetec tan
dal la
Ġcrea tividad
Ġocup acional
ĠMe tod
Ġfinanci ado
olar ing
T ra
Ġn al
Ġpa trimonio
ER S
Ġnico tina
Ġcho que
ĠLu z
ĠEv oluciÃ³n
kin s
Ġver b
to dos
ĠPan americana
Ġdes fib
Ġle tra
m ala
Ġsar ampiÃ³n
Ġvie jo
Ġpeda gÃ³g
Ġexplor aciones
ĠK g
Ġadap ta
Ġev acu
Ġinfec tion
r ÃŃan
Ġmascul ina
ĠHospital aria
proteÃŃn as
y endo
Ġpres ta
Ġop tim
Ġges tantes
Ġonc olÃ³gicos
Ġmus icales
Ġcercan os
ĠlÃ³g ico
Ġcon qu
s ional
Ġaleator izado
ĠCas o
ĠV ita
ĠT ER
Ġdefin idos
ence fal
enci almente
Ġviv ido
Ġcl oro
Ġdestac ados
Ġdila tada
Ġus ing
Ġauto cuidado
ĠSo fÃŃa
Ġemp o
Ġincrement ado
Ġpresent amos
ĠAf ebril
tar ismo
Ġprecis an
Ġn es
Ġdescen dente
ĠC AN
ĠAdminis tra
Ġintro duce
ci clo
ĠPro te
Ġambi entes
ĠgÃ©n ica
ien da
ĠmÃŃn imamente
Ġcam is
ĠCoch rane
Ã© dica
Ġcaracter ÃŃstico
O H
ĠClas ificaciÃ³n
Ġacad Ã©micos
Ġprecis ar
ĠAB S
oy a
Ġreg ionales
ĠS mith
ic ana
ĠCon tac
Ġfeno tipo
ĠHe matologÃŃa
Ġengros amiento
ri tina
Ġvo ces
Ġlle ve
Ġfren ar
Ġempe or
Ġtele vis
ĠSolici to
Ġdis pensaciÃ³n
Ġimpor te
Ġblan cas
ĠpsiquiÃ¡ tricos
Ġv uelo
Ġencab ez
Ġele va
Ġay unas
Ġco co
ĠU ru
eb ra
j ando
Ġvis ibilidad
i ki
tambi Ã©n
ur t
Ġing estiÃ³n
ĠMicrobi ologÃŃa
Ġpanor ama
Ġinfer tilidad
Ġdia frag
ĠObserv atorio
Ã¡nd ola
ĠM ich
ma tic
Ġvuel va
Ġis las
Ġpe ores
Ġcompor ta
ĠJoa quÃŃn
ĠA se
ĠcardÃŃa cos
bi ta
Ġhipo tiroidismo
B ar
Ġleg umbres
Ġobserv ada
bern am
i tivo
Ġdeform idad
ones a
Ġb eca
Ġtraduc ciÃ³n
bl ecer
ĠvÃŃ deos
TI VIDAD
ĠObes idad
dir se
Ġyo do
Ġde partamentos
pa tia
Ġprogram ada
Ġpod Ã©is
Ġheter oci
Ġbas an
ur ÃŃa
Ġh ola
Ġinterven ido
Ġplas mÃ¡tica
Ġlab ores
Ġsimul tÃ¡neamente
Ġepig as
ĠM P
ĠTh is
Ġra p
Ġper ina
Ġsos tiene
or ales
Ġban co
Ġconsul te
Ġemo ciÃ³n
Ġt am
ĠA un
par aciÃ³n
rin olaring
Ġaudi ciÃ³n
Ġsorpres a
ĠC Ã¡mara
Ġj ud
Ġespeci alizadas
Ġases ina
Ġcons ol
Ġester eo
Ġjug ando
ĠHEM ATOLOGÃįA
ĠI m
Ġcul p
IM C
ĠF ORMA
Ġs Ã©rica
ĠHaci enda
ĠSil va
Ġinyec ciones
icar b
Ġc em
ĠGu an
ĠP es
Ġexac ta
Ġregis trados
ĠI G
Ġdesapar ece
ĠReg lamento
Ġs ida
Ã¡s ico
Ġfras es
Ġme ter
I TA
Ġsen tidos
ĠÃ³p tico
Ġta za
Ġdetec tÃ³
ĠF idel
Ġconviv encia
ĠAl go
ĠVÃŃc tor
cal e
ke to
Ġcontra er
Ġho tel
op rol
f amil
Inter net
Ġg ala
ĠConstitu ciÃ³n
te lec
Ġplante ado
Ġmexic ana
tox icidad
Ġabs ceso
Ġv ene
Ġï Ĥ
ĠIN D
ĠP un
Ġelev ar
Ġmal ign
ĠJa ime
ĠPhar mac
Ġespeci alizaciÃ³n
Ġflex iÃ³n
Ġju dicial
Ġdisf agia
Ġfel ices
Ġcon t
Ġresisten cias
ĠE jer
Ġsuscep tibilidad
it za
Ġperson alizado
omÃ© tricas
Ġcontin Ãºan
Ġenz im
Ġtransf usiÃ³n
Ġreflex ionar
Ġnotable mente
IP O
Ġcombin ar
Ġcoe ficiente
Ġtempor ales
o ides
Ġrespe tar
Ġ7 00
Ġcran eo
Ġhal la
Z A
Ġpro pi
Ġinv is
Ġfrag mentos
Ġautoinmun es
Ġperif Ã©ricos
it ariamente
ĠN acionales
re y
ĠSu Ã¡rez
ĠA mp
den ts
Ġcomp lica
Ġs am
ĠDeb emos
Ġcelebr ada
ĠL y
ĠC ier
Ġespermatozo ides
Ġex puestas
ĠNe ona
ĠB ul
ĠRo ja
Ġapren dido
Ġtend remos
Ġamp u
Ġfa tal
bil inÃ³geno
Ġto que
fil is
Ġcontamin antes
Ġinter discipl
Ġhemor ro
ĠSN C
ĠR eb
cl ÃŃn
Ġquin ce
Ġt ec
Ġcombin aciones
P ar
baj o
ÃŃ menes
es quel
cefal ia
d am
Ġdep rim
ĠAy er
Ġgus tado
ĠPR OC
Ġs tan
Ġapreci an
ĠA CI
ĠCambi os
R ed
w ell
ĠClÃŃn ic
u ida
Ġdis tÃ©rmica
Ġres earch
col as
Ġagres iones
M IN
dad ores
Ġab ar
and ante
Ġrecol ec
Ġsub raya
Ġsolici tado
uel ve
Ġinmi gr
ques ta
ĠV III
con dri
cion ada
Ġdeses per
ĠN itritos
Ġun en
Ġbi bas
Ġagres ivo
pro tec
ĠAr tÃŃculo
or ca
Ġpaci encia
Ġar ena
ĠHo tel
ĠanalgÃ©s ico
Ġmedi al
Ġcal ma
Ġsol edad
Ġfres co
Ġespor Ã¡
Ġescri tura
Ġenro jecimiento
uc os
Ġcuan tos
ĠDise Ã±o
Ġpens amos
mad ol
Ġretras ar
Ġdese an
ĠEmp leo
ci oso
ob s
Ġvari edades
ĠC ajal
ĠUri be
se ud
Ġa xial
Ġanticoagul ante
reas t
ĠT Ã³
qu io
Ġco okies
Ġop cionalmente
u i
ĠS yste
l amos
Ġmos trando
entan ilo
Ġcumpl im
Ġvisu alizaciÃ³n
Ġsuf riÃ³
para to
Ġvir tud
Ġat mÃ³s
Ġperju dic
P M
cip ital
Ġgastro enter
ĠCris to
Ġcorona virus
ĠF L
ĠEn do
ĠQuÃŃ mica
ĠAs istencia
Ġobten iendo
Ġantagon istas
ĠAg us
U AL
Ġacon di
Ġcre encia
Ġmuer en
ĠRiv era
Ġten gamos
Ġcambi ando
hi po
n s
ĠDetermin ar
Ġre pen
bra zo
ĠDoc ente
und amente
ĠGen Ã©tica
ĠPS OE
Ġdesconoci miento
Ġendome trio
fÃ¡l ico
Ġaten diendo
Ġrespal do
a Ã±o
IC E
Ġadministr arse
Ġins tancia
Ã¡g ri
1 10
AT OS
om iel
ĠV arios
ĠPol it
Ġter res
Ġdo y
Ġw ords
Ġencar ga
Ġmalig no
di ar
Ġhi jas
endo za
Ġco opera
Ġdel i
M ENTE
Ġcaus ando
Ġp Ã³li
Ġdescar ta
Ġce pa
Ġcircuns tancia
ĠincreÃŃ ble
in aciÃ³n
Ġv era
Ġintr ÃŃns
min ente
Ġag itaciÃ³n
Ġconci enciaciÃ³n
Ġacci dental
Ġenvi ado
uch o
Ġemp a
Ġpens ado
ĠA rg
ĠS istemas
Ġdestac ando
r ÃŃt
ia trÃŃa
Ġg Ã©r
tres s
Ġac oso
ĠO br
ĠDiv isiÃ³n
Ġmanifes tado
ĠP ra
ĠAb ril
ĠCY P
Ġden tista
ĠIngen ierÃŃa
ĠCha gas
Ġso br
Ġcompar aron
Ġsal ido
ĠMÃºs ica
Ġinter f
Ġapoy an
ĠINF ORM
tia z
Ġg iro
Ġus ed
Ġhig iÃ©n
C ER
Ġvar icela
Ġ198 4
OM B
pe cia
Ġonc olÃ³gico
Ġth ro
an der
Ġas s
Ġadministra tiva
eg as
Ġes tero
aci ent
ila del
Ġayud ado
ĠF ORM
fre do
Ġade mas
Ġon e
ci es
iz ante
Ġleve mente
Ġest Ã©ticos
ĠOs car
EM PS
Ġrecol ecciÃ³n
Ġv aci
Ġhac ÃŃan
ĠMic hael
Ġme gal
ĠNa ture
ĠT aller
Ġtom arse
Ġi ban
Ġintegr ales
Ġsal iva
ĠTen iendo
Ġprior idades
Ġcorri entes
V AS
Ġexpon er
di ciones
Ġanat Ã³mica
Ġme d
ĠR C
Ġh ero
tu ar
ĠSan z
Ġvir ales
Ġent radas
Ġenfr entan
Ġdec Ãºbito
Ġsi go
ĠVal orar
ĠsÃ³l ida
vi al
ĠL l
Ġdefin en
ĠVas cular
ĠBlan ca
Ġmos quitos
Ġinvol un
Ġdon aciones
Ġmens ual
Ġn aciÃ³n
Ġcul turas
ĠCol um
ogene idad
ren a
ĠBale ares
cis iÃ³n
Ġm L
ĠP ac
Ġin capaci
Ġascen dente
Ġb aci
Ġevi dentes
Ġcoordin ado
erv aciÃ³n
Ġtelef Ã³nica
proteÃŃn a
Ġesp in
Ġand ar
er Ã¡
ĠA E
Ġnega tivamente
Ġparenquimatos as
Ġprogen itores
Ġcos tal
ol in
Ġac ent
Ġrecom en
v ic
Ġentre ten
Ġpre ce
Ġestudi ando
lam ent
V O
Ġh echa
ĠCom pos
Ġindustri ales
ĠUnivers itat
ĠT am
Ġpar ecÃŃa
ÃŃng eo
ĠCD C
Ġf lan
Ġpuer to
Ġbol s
ĠSta phylo
ĠDirec tora
Ġa tac
Ġcer teza
ros o
g encia
ĠC ic
Ġcr ist
Ġejemp lares
ĠdaÃ± ar
Ġreco p
Ġapreci ar
ĠLes iones
Ġsimp li
s us
er g
Ġrazon able
Ġenc ÃŃas
ĠPa ulo
Ġdestr uir
ĠDes ta
Ġmonta Ã±a
d ole
ĠEfec tos
gru pos
Ġartic ulo
ĠI A
uy an
Ġfarmac olÃ³gicos
Ġmulti fac
Ġves ÃŃcula
ĠEqui po
Ġhy per
AR A
Ġintra o
tiz ada
Ġpapil oma
os tomÃŃa
Ġunif orme
RA X
Ġcla us
tr ÃŃas
Ġs entado
ific ados
d ona
ĠF ro
ĠDi ario
Ġdul ces
Ġdes pro
Ġadecu aciÃ³n
b idos
Ġcontar Ã¡
ĠPÃºbl ico
Ġbron ce
Ġrepro du
ol ona
gre l
Ġneuro trans
r ÃŃ
Ġconstitu ciÃ³n
Ġs pp
Ġextra e
T M
Ġrestaur aciÃ³n
Ġmag is
c tion
Ġllev aba
Ġab o
Ġpreven tivo
ĠCÃ©s ar
O F
er y
ĠGuer rero
ĠOs teo
ĠEmerg encias
Ġpa tr
Ġmar car
Ġaspir ina
Ġap pro
v enta
ab al
ĠPre gun
Ġmi tos
ĠDef ensa
ĠmandÃŃ bula
Ġfron tera
Ġdif uso
ĠV igilancia
ĠSOB RE
Ġayudar Ã¡n
ĠR AD
Ġpu ber
Ġencuent ros
ĠS ac
Ġbacteri anas
Ġmortal ity
on os
Ġte Ã³ricos
Ġp ir
Ġg or
Ġ10 9
ĠLor enzo
ĠR FA
Ġmie dos
Ġposi tivamente
Ġrela tivas
Ġley endo
uy ente
se d
Ġtrata ba
Ġbicicle ta
Ġde ficiente
tor n
ĠAn alizar
ti as
Ġle p
Ġta quip
Ġfac ultades
ĠPolic ÃŃa
Ġfoc alidad
ĠSan tander
ĠV ER
Ġdepres ivo
cal ci
ĠMo delo
a zol
ar tos
Ġcre an
Ġorg Ã¡nicos
ĠES PE
ĠnÃ³d ulo
Ġtri al
ĠD Ã©
Ġincis iÃ³n
ĠVal de
Ġpeligros o
ĠparÃ¡s ito
f an
ten so
Ġpier den
Ġescri be
vir on
ĠgÃ©r menes
Ġconsider aciones
+ ,
Ġpropon er
6 00
Ġde cen
Ġcons umi
ĠOR L
Ġra tÃ³n
ĠI l
ent ando
Ġun der
ĠS t
ton e
IS MO
ĠCientÃŃ ficas
u ci
P re
Ġo pacidades
Ġine vi
Ġz umo
ĠMar cos
ĠDec lar
Ġimplan tar
ĠS ON
Ġar gen
Ġidio pÃ¡tica
ma gn
Ġdur ar
Ġacupun tura
ĠO cho
Ġfacil itan
Ġmig raciÃ³n
ĠSp O
ĠCientÃŃ fica
Ġlo w
Ġfalle cido
Ġhemi tÃ³rax
Ġfic ciÃ³n
Ġeupne ica
Ġplan tar
Ġexac titud
Ġv enen
Ġrad ic
var d
et onas
v ing
Ġre animaciÃ³n
Ġescri tos
Ġconstitu ir
Ġmer can
z h
Ġdepres ivos
re e
Ġfr Ã¡g
Ġb asta
Ġaqu Ã©l
EC CIÃĵN
Ġanal ÃŃticos
Ġh arÃ¡n
Ġinforma tiva
Ġembri Ã³n
Ġinform aciones
Ġco bre
Ġdis cos
tas ias
ĠÃģ vila
Ġp p
gra mos
th a
tal gia
di pino
Q ue
tern idad
Ġri gor
ci ble
di lo
ĠJun io
Ġines table
ĠR ay
Ġperf oraciÃ³n
Ġpreca uciones
keto profeno
ĠcÃ¡ maras
Ġper cutÃ¡nea
ĠAn g
Ġmono terapia
Ġti bia
Ġcastel lano
C an
Ġsu presiÃ³n
Ġdesarroll adas
adÃ¡ ver
Ġreconoci dos
ĠU V
Ġma ÃŃz
Ġatra vi
Ġre torno
ĠC ien
Ġvi ento
ue bas
Ġconf irman
ac tivas
Ġimpos ibilidad
Ġintro duc
Ġproven ientes
h ÃŃ
Ġam n
br ica
Ġch i
Ġenemi go
omegal ia
EG A
ĠSecre tario
Ġpresu pues
Ġth ese
ĠPro toc
Ġc aca
ĠUro bilinÃ³geno
Ġdestin ada
ens es
ie mia
ĠRecuer da
Ġpor ta
Ġdis ecciÃ³n
ÃŃs imas
Ġreno vaciÃ³n
Ġcompar ti
Ġhis torial
Ġtra ma
ĠBil bao
Ġgu itar
Ġcardio patÃŃas
ĠD oppler
Ġseden tarismo
ĠF UN
Ã³gra fo
Ġjab Ã³n
ĠAl to
Ġirri tabilidad
Ġrode an
Ġpre ferencia
Ġvia bilidad
Ġtiro idea
tr uir
Ġbos ques
Ġconex iones
il ares
z umab
ĠMar zo
Ġvol Ãºmenes
ĠCarta gena
re la
ĠP IC
ĠaÃ³r tico
Ġpresti g
" :
Ġacid osis
ĠAl l
Ġabier tos
Ġes pas
ĠÃ©po cas
Ġfrag ilidad
i ties
cu ando
Ġofre ciendo
Ġcor tis
Ġform ados
d amiento
p Ã¡us
os io
Ġendos cÃ³pica
ist ÃŃan
Ġfisioterapeu ta
ĠD ivers
Ġactu alizada
qu ero
ĠIn gres
Ġinver tir
mun ity
Ġblan dos
Ã¡ce os
Es to
ĠA parato
Ġc Ãº
Ġadministr an
Ġmad uraciÃ³n
U CI
Ġanti gÃ¼edad
Ġaplic arse
Ġvisu alizar
Ġver ificar
Ġflu idos
Ġsalud os
Ġpsico terapia
ac usia
Ġcos tumb
ac ciones
Ġmenstr ual
Ġoxigeno terapia
ĠPad re
ĠNe t
ĠG lic
Ġsobre todo
ce mia
Ġsigui Ã³
tr Ã©s
Ġconj u
ĠNo bel
Ġhu Ã©s
ĠDe le
Ġreca ÃŃda
Ġester il
Ġesper ado
Ġincorpor ado
Ġimpo tencia
Ġre umat
ĠH ist
ĠPreval encia
Ġsobres al
ĠUru guay
Ġar bi
Ġt wo
Ġvar ices
ĠA O
ĠfÃŃs tula
e ada
ĠcÃŃr culo
ĠRe aliza
V IS
Ġm ueve
Ġpropon en
ĠFu entes
Ġn ue
ĠO rg
tra tamiento
Ġta p
Ġfarmac o
Ġdis pu
Ã©cn ica
ĠCab rera
ten a
Ġcomo didad
gu er
Ġcri a
Ġresal tar
ĠT it
ab uena
ĠRoc ÃŃo
Ġind ÃŃgenas
an des
pro ducciÃ³n
pec ha
ulo patÃŃa
re f
Ġos cil
Ġbio quÃŃmica
a th
Ġher ed
Ġreempla zo
uer zo
Ġllam Ã³
Ġc Ã³
Ġnos ocom
Ġp ylori
Ġviv imos
Ġpar tos
le ta
h el
pi ta
ĠQuir Ã³n
ĠL og
Ġplata formas
Ġperci bir
Ġrespec ta
Ġtu bular
Î ±
ĠNo ticias
Ġur bano
ĠFi O
Ġrin itis
gra fia
Ġhe mol
ĠHum ana
ĠÃ³ xido
ĠA U
Ġtra umat
ĠGran de
Ġglomer ular
Ġcatedr Ã¡tico
Ã©pti dos
ogÃ©n ico
Ġne fr
Ġregis tra
Ġaro ma
Ġoper ar
ĠLuis a
pat olÃ³gicos
t ona
ce des
Ġad quiere
IN G
Ã©nd olo
Ġme tales
vi x
ĠNe umonÃŃa
ĠImp or
ĠA quel
he mo
Ġconcl uido
Ġesco g
Ġrestric ciones
ĠC og
Ġrel ieve
Ġaudi tiva
Ġpo tentes
Ġsolu cion
Ġepid ural
O r
Ġt Ãºn
15 0
ala pril
go v
Ġlo gran
Ġsta tus
ĠFrac tura
ier ro
Ġrefuer zo
Ġexperim enta
Ġmalig nas
ĠP SA
Ġemb ol
Ġw ho
Ġfil tro
Ġpsicos is
Ġori ficio
fi gura
Y C
Ġprevi ene
v Ã¡n
Ġecocardi ografÃŃa
Ġc Ã³lico
tad ura
ĠXV III
Ġlinf Ã¡tico
m ida
Ġc adÃ¡ver
cu enta
ÃŃns ula
tros copia
c entr
ĠR oy
IM IENTO
ĠEf fec
ĠHepa titis
oma tosis
Ġelectrocardi ograma
Ġneuro logÃŃa
Ġ19 70
Ġtri go
ĠH LA
Ġinmun oglob
Ġni trÃ³geno
Ġdiagnostic adas
ĠDise ase
Ġoxida tivo
domin al
Ġun idos
Ġ( >
Ġpl Ã¡stica
ĠS or
Ġneces ite
Ġalb Ãºmina
Ġsibil ancias
Ġgrad ual
ĠElec tro
ac y
Ġcaus ados
Ġ-- >
Ġpal adar
ech n
ĠW o
ĠT os
aci na
v ene
ĠT Ãĵ
Ġrecib ida
S alud
ĠacompaÃ± ante
Ġagres ividad
Ġequip amiento
ĠC etonas
du re
Ġgen Ã©ricos
as o
Ġh ad
Ġfoc os
ona zol
ĠMedi terrÃ¡n
pa z
Ġcent ÃŃmetros
ĠJ J
Ġes quel
ĠC le
Ġaprob ada
Ġpropens os
ĠL inf
ĠENFERM EDAD
ĠAd ri
ampl ona
Ġven til
ĠAmi lasa
Ġu p
ĠCON TR
Ġp uro
Ġcaracter izaciÃ³n
Ġrecog ieron
ĠL ance
ALIZ ADO
B E
Ġgan ancia
Ġsegu idores
Ġpubl ici
ĠS PSS
Ġconme m
Ġhemis fer
Ġecocardi ograma
Ġmes as
Ġpri va
Ġesp esor
Ġd ad
Ġpens aba
f orme
ĠMar ina
Ġconduc tos
Ġpro cl
Ġreper cusiones
ĠnÃºcle os
Ġconcent ra
Ġhorizon tal
Ġc Ã³n
Ġent ran
Ġmas co
Ġmodific ado
Ġconvers iÃ³n
Ġl la
ome di
Ġselec tiva
Ġox igen
ĠM Ã¡r
Ġsuges tivos
ĠSeÃ± or
Der ivado
Ġv ieron
Ġhialur Ã³nico
Ġaer Ã³b
ĠS F
Ġdes ech
Ġsatisfac toria
Ġsimul tÃ¡nea
Ġre habilit
Ġpersonal mente
Ġrepi te
ĠCons ell
Ġca e
ĠsÃŃn cope
ĠgÃ©n eros
ÃŃ colas
etas ona
ĠpediÃ¡ trico
jal Ã¡
Ġpor quÃ©
es ter
Ġesf ÃŃn
Ġindirec ta
bi tal
ĠR ol
iz ador
ĠF an
ĠTo tal
Ġsorpren dente
ĠNR L
Ġfaculta tivos
Ġgig antes
Ġsu ba
ĠmÃ³d ulo
icÃ¡r dico
ac al
Ġqu eso
isten cial
Heb ron
ĠB ri
Ġdesa grad
Ġfec al
ht ml
Ġmu tu
ĠS ara
NA E
ad illa
Ġsensor ial
cop ÃŃa
ĠatmÃ³s fera
Ġac ar
Ġtro mp
Ġorto doncia
ĠStaphylo coccus
Ġpublic adas
ĠV D
mar ca
ĠAu ton
Ġendo carditis
Ġnom bra
Ġconsens u
ĠS pain
Ġout com
ta Ã±a
Ġradi olÃ³gico
Ġsu puestos
Ġur ticaria
Ġc c
Ġpreserv ar
Ġimplic adas
Ġdeclar ado
th o
gi Ã³
po tas
Cu ando
ĠMul ti
Ġines per
e k
Ġplac enta
ĠÂ °
Ġmer cados
Ġper for
ban as
Ġqu ÃŃstica
Ġantimicrobi anos
mer gen
ĠEmb arazo
Ġa ri
ĠRel aciones
ĠCh an
Ġoto Ã±o
ĠJ an
Ġ( -
Ġsegui mos
Ġfalle ciÃ³
Ġten dÃ³n
j ala
ĠT P
e ix
Ġactiv ar
Ġdesarroll arse
Ġcontex tos
D IO
Ġadh es
icarb onato
Ġarch ivos
Ġal gias
Ġmulti plic
Ġadic ciones
ĠMo vimiento
ĠT G
Ġad vir
aci os
ĠE G
Ġsurg ir
Ġcar encia
fic ado
Ġs creening
ĠHar vard
ĠCS IC
Ġmaquin aria
Ġper miso
ĠAc ad
Ġdi plom
ĠGu adal
ar ly
ĠGe orge
ĠIs rael
ĠIn tel
Ġdomicili ario
ĠEn s
Ã©c til
g inal
id ona
Ġin ca
Ġca tÃ¡
Ġinter medio
Ġol vi
Ġaneuris ma
of f
Ġsobre pas
C U
Ġcateg or
Ġexig encias
Ġespon tÃ¡neo
Ġglo bo
iv es
xic loro
Ġdesempe Ã±a
ud al
Ġsu mar
d Ã©s
quier an
Ġdestin adas
agÃ¼ ey
pro fes
Ġtermin ado
Ġdeclar Ã³
Ġcin ta
ĠF r
Es ta
Ġgal ard
es pasmo
Ġ10 8
evalu aciÃ³n
n utriciÃ³n
vi as
ĠRich ard
ab ell
tic uer
H R
Ġmam as
Ġqual ity
Ġmeta mizol
Ġreal icen
Ġingres ado
Ġafron tamiento
Ġan Ã³m
Ġman us
Ġvig ilar
ĠHEM OS
ad ie
ier es
Ġregular mente
ĠP Ã¡g
Ã² n
ĠS tu
ti Ã³n
Ġmedi ano
Ãĳ O
t adoras
Ġdiar re
Ġcancer osas
Ġloc aliza
Ġacum ula
Ġplen amente
matos is
le go
Ġvoc aciÃ³n
Ġtu viera
ĠIs las
ĠPro blemas
Ġconf i
Ġconsecu tivos
ard ÃŃn
Ġcor ticos
Ġ198 2
ĠN T
Ġg roup
AR IOS
Ġ11 5
Ġmus culo
C ol
es to
O CI
Ġobserv ados
Ġpredic ciÃ³n
ĠPa tricia
ĠVM K
ĠSe gura
Ġand alu
Ġperman entes
Ġcar as
Ġ198 3
gin osa
________ ________
Ġinvers iones
Ġdivi de
Ġpsicos ocial
ĠEn ero
ĠMic ros
ĠIntens ivos
Ġmalig nos
ĠP ie
Ġpar ar
Ġin mer
Ġap as
Ġguar dar
es en
ĠN osotros
v ÃŃ
Ġs aco
ĠE m
ogra fÃŃas
Ġax ilar
Ġdi ga
Ġrever tir
ta men
me lo
Ġpre ju
ĠBos ton
Ġsuper aciÃ³n
Ġdol encia
Ġinhal aciÃ³n
ĠPa u
ĠVil lar
ter ÃŃas
Ġ1 11
Ã¡g icas
Ġfi jar
ĠJ ack
Ã³r icamente
Ġtermin Ã³
Ġbeb e
B C
Ġsencil los
Ġdesequilib rio
Ġhom bros
Ġrec ambi
Ġfic ha
ĠDic ha
S G
ÃŃ v
Ġesco ger
t aliz
ul t
Ġfavor ables
Ġestr en
Ġh un
olu ciones
m ante
Ġam istad
ori ales
ĠSi gui
Ġcontinu amente
ĠMed ina
ĠF rente
Ġfinanci era
s ÃŃn
pe da
Ġadministra tivo
Ġmultiv ari
Ġinterrump ir
Ġencar gada
Ġextir paciÃ³n
ĠM all
Ġaisl adas
Ġlan zado
Ġosci la
meno pÃ¡us
Ġentus ias
Ġprimor dial
Ġalum nado
ĠTom ar
Ġafici on
xicloro quina
Ġterapeu ta
Ġre mon
Ġhu bieran
ici al
Ġtro pas
Ġpsicos ociales
Ġpropa gaciÃ³n
Ġdop amina
rolÃ³g ica
Ġacu diÃ³
g ener
ĠR CP
Ġso ja
Ġv ideos
Ġati enden
1 12
Ġescuch ado
Ġpa tri
Es paÃ±a
56 1
Ġsuper ado
Ġhist Ã³ricos
ci Ãĥ
Ġg ing
ĠCol o
Ġmanz ana
200 1
Ġaprob Ã³
ĠCam pe
vie do
Ġdi je
Ġconduc tual
idel ines
Ġor ÃŃgenes
Ġconduc tuales
Ġbil iares
Ġidi omas
Ġreci piente
Ġ14 2
Ġemple ando
Ġreg ener
Ġapropi ada
ĠFo to
ĠS EN
ĠSoci edades
Ġtri p
Ġprefer entemente
Ġvincul ado
B LE
Ġde bilit
tr arse
Ġasc enso
Ġcontrib uido
Ġger iÃ¡
Ġan si
Ġneuro patÃŃa
Ġ( <
mpli miento
di di
Ġperman ecen
EM IA
ph p
Ġdese ado
tic ales
ine te
Ġdedic ar
Ġconta ba
am etasona
ple j
gu ero
Ġforma tivo
Ġon ce
ĠobstÃ¡ culos
ra te
Ġmoder no
Ġgran os
ĠR EL
tÃ³ x
Ġperju icio
Ġp ÃŃl
Ġrecom bin
Ġescas ez
Ġh ones
Ġpreo cupar
Ġcerv icales
Ġenfo ques
Ġayudar te
Ġdesgas te
ĠS G
ce mos
aliz arse
Ġmedi cinas
F ES
g aron
ul e
ve mos
ĠF AC
ĠpÃ¡r pados
fal o
Ġotor ga
ĠMer cedes
Ġfisi olÃ³gicos
IT O
tum bre
ĠperiÃ³ dicos
Ġauxil iares
Ġbos que
IT IS
14 2
Ġquin ta
Ġre ju
k es
Ġpene traciÃ³n
Ġpre c
u f
der son
ĠMas s
Ġcabal lo
Ġcor tical
Ġtom o
Ġendos copia
que ta
8 00
ĠsÃ³l ido
Ġnum er
Ġl ingÃ¼
Ġtien das
Ġde cid
ĠEs tÃ¡n
pu bl
ĠSer rano
ĠG an
ĠFib rinÃ³geno
Ġbras ile
Ġas ume
Ġactu alizar
Ġper icar
ĠAmb as
Ġregres ar
Ã³di gos
Ġheredi taria
Ġadul tas
Ġrecomen dadas
Ġacudir Ã¡
Ġdescan sar
Ġgratu ito
Ġsin cer
wo od
Ġadi poso
TOR IA
Ġsubje tiva
ĠS chool
Ġcap tur
Ġagu deza
Ġmicro bio
ĠSue cia
Ġdescom pensaciÃ³n
Ġgen Ã©ticamente
Ġpor tu
Ġyog a
AB LE
ĠPe ter
Ġinvers a
ĠR ela
ĠEC A
Ġpa pa
Ġcomple mentos
Ġartic ulares
Ġmet formina
Ġviv a
Ġinhib e
Ġer Ã©ctil
Ġcostumb res
in ados
Ġpe ti
Ġmode l
Ġenfr enta
Ġc recen
Ġcon gestiÃ³n
Ġhemo grama
Ġglu ta
ĠUnivers itaria
ĠPr Ã¡ctica
Ġmor tales
ĠBio quÃŃmica
Ġavan za
Ġchar las
medi cina
con oci
Ġautol imi
Ġconserv ados
Ġalgor itmo
bi mos
ac ea
TR OS
ĠTC E
Ġab ur
Ġcal zado
Ġhacer le
10 5
Ġamig dal
Ġreg alo
Ġir Ã¡
Ġaliment arias
ĠTÃ©cn ico
ĠL ec
R R
Ġaliment ario
Ġexpon en
ĠNE UM
Ġcompet ente
ĠSebasti Ã¡n
Ġalgo dÃ³n
Ġov arios
ĠCa te
Ġdepen der
Ġdila tado
Ġcir cular
Ġvari ada
Ġofrece mos
Ġtransi toria
pas s
Ġnove dad
Ġl ech
Ġcontraindic aciones
hospital aria
blas toma
Ġtra tÃ³
Ġanaliz adas
Ġmiocardio patÃŃa
ĠpaÃ± al
ĠLance t
in ing
CuÃ¡l es
Ġse pa
Ġob ede
Ġpsic Ã³loga
Ġconstitu ida
Ġcer tificaciÃ³n
ĠCe f
. ?
Ġrecog ido
Ġsemej ante
Ġti me
D i
Ġag encias
Ġingres ar
Ġprof undamente
Ġmas tic
Ġactiv ity
Ġayud ando
Ġasintom Ã¡ticos
ĠP amplona
ĠM endoza
p ic
Ġes poso
Ã© ramos
Ġidentific Ã³
ci encias
Ġlig amento
Ġeffec ts
r aciones
ĠEs tre
Ġas istente
Ġprofes iones
ĠH Ã¡bi
los o
Ġo pi
Y o
Ġdetec taron
ĠFis cal
Ġtranscur rido
Ġa moxicilina
ĠacompaÃ± an
ĠCor ona
Ġrestaur antes
Ġin duce
por que
Ġsurg iÃ³
ĠTR AN
ĠAC TIVIDAD
pto coccus
Ġdi ces
tom y
Ġ19 60
gi osa
Ġinteg ran
Ġarch ivo
se a
Ġabog ado
s s
Ġalter nar
ĠSU PER
E mb
ĠPara guay
gÃ¼ enza
Ġperju dicial
f ano
Ġagre gÃ³
Ġsenti mos
Ġm ico
Ġsab ido
Ġconta g
Ġes cl
ĠhÃŃ dr
ĠMetod ologÃŃa
Ġatrac tivo
?? ?
d ras
Ġexpl ÃŃ
S ab
Ġpre vista
in dex
Ġfran cesa
diagn Ã³stico
ĠN aciÃ³
Ġestrech amente
Ġper diendo
Ġsel lo
Ġcontempor Ã¡n
Ġsol dados
ĠMa x
id ney
ĠRM N
ĠAl var
Ġefec tivamente
ĠTra uma
ĠdiseÃ± ados
Ġmos t
Ġcontinu Ã³
ĠÃī tica
Ġtembl or
Ġadelga zar
Ġdem ora
Ġsing ular
ĠFran co
T u
ĠAl fredo
Ġterri torial
Ġconstr uido
Ġmach os
S ON
pre ci
Ġmayor itariamente
Ġata car
Ġauxil iar
hor abuena
ide as
Ġur bana
ĠLo u
ĠDa ta
Ġcar gas
ĠmetastÃ¡s ico
ĠRE F
Ġconsigui endo
h ista
n g
Ġsin t
ĠCla u
ĠL oc
Ġpa ta
Ġla var
ĠAgu ilar
Ġaleator izados
ĠA CM
fÃ¡l ica
Ġver emos
Ġme to
Ġci tar
Ġa jo
Ġterren os
or ada
ĠÃ© tico
Ġcolec tiva
Ġcatal og
ĠRES P
al ia
coh ol
ĠT ol
ĠIn icia
c Ã¡n
ĠCh ica
ĠreÃºn e
el ia
Ġmues treo
ocor tico
ĠR ock
Ġpropor ciones
ĠjurÃŃ dico
fer entes
ĠM R
Ġfortal ecimiento
ue ta
Ġcompara tivo
ĠEstad ÃŃstica
Ġana fil
c ron
Ġr osa
Ġba terÃŃa
ĠG l
h l
ĠRES ULT
ĠB L
ĠT EN
Ġcaus antes
Ġap endi
Ġro jas
ĠIb ero
Ġdis puestos
tir Ã¡
Ġd uc
Ġco ex
Ġcal ificaciÃ³n
ĠR og
Ġha bilit
ĠT rump
Ġsocioecon Ã³mico
Ġultra vi
trop ol
Ġhi lo
idas a
Ġagu jas
Ġty pe
Ġ( %)
tom ÃŃas
Ġjer inga
mÃŃn icos
ment s
b aciones
Ġplan ificar
ĠpsiquiÃ¡ trica
den s
Ġcor tar
Ġestim aciones
ĠCom pe
ĠCam p
ĠES PA
Ġimpul sos
ĠNie to
Ġloc alizar
Ġneurotrans mis
a f
Ġdi l
ĠT rin
Ġcosm Ã©ticos
Ġplu ri
Ġhubi ese
Ġgu bernam
ĠperiÃ³ dica
ur y
Ġre ces
19 99
ĠSegun do
Ġseguir Ã¡
Ġre ten
Ġpos turas
ĠAy uda
Ġacog ida
Ġcoordin adora
N T
ĠCon duc
Ġpu ri
Ġmal e
Ġdiges tivas
ĠPe que
Ġcualita tiva
AM IENTO
Ġaplic able
ĠFuer on
me dic
f oc
TAS IA
y en
Ġanterior idad
d ores
ĠOme prazol
Ġtrasl ada
ĠIn gesta
Ġimpor tant
Ġma quilla
ĠN eo
ĠAn gio
ĠB MC
ĠJ ordi
Ġdenomin aciÃ³n
Ġinvit ados
Ġmoder ados
ĠÎ ±
ĠL ig
Ġampli tud
ĠO P
Ġregis trar
is to
Ġdepor tivos
Ã¡nd olos
c tomÃŃa
ĠPer e
Ġesc Ã¡n
Ġdedic ados
Ġinvit ado
ĠOB JE
ĠAnal ÃŃticamente
or ragia
ĠDes cripciÃ³n
ĠEmil io
Ġpade cimiento
Ġmegal ias
ĠAr ri
Ġg li
Ġfac ultad
Ġcohor tes
e mas
Ġde uda
enfer medad
p icamente
PI RA
ale lo
ogrÃ¡ ficos
ona tremia
T AR
cul itis
Ġsuperfici ales
Ġrevel an
ol itis
Ġre porte
bier tos
omÃ© tricos
ci alidad
in cu
ĠM ach
Ã¡s tico
ĠEs cas
Ġpobl ado
ol isis
ora zepam
ĠC olor
Ġneuro psic
ĠMexic ana
Ġcu ch
Ġpr isiÃ³n
Ġbiblio teca
Ġmen ingo
Ġpas aj
Ġultrason ido
Ġcar ece
Ġsub cutÃ¡neo
IM A
Ġconserv a
ĠA Ã±o
VEN CION
ĠO viedo
re os
onal d
Ġdra ma
ĠMedic amento
Ġcaro tÃŃ
ĠMad re
Ġfr uc
Ġori ental
Ġtu ber
Ġref rig
AP IA
Ġcomplement arios
Ã¡ micos
ĠNÃº Ã±ez
ps i
Ġcog er
ĠCri terios
th ro
Ġtu b
Ġdirec tiva
Ġglob ales
min ares
Ġun ir
Ġren unci
Ġdes vent
m ado
ĠPan amÃ¡
Ġe cl
Ġaceler ar
ĠAu tismo
Ġcambi Ã³
tu res
tÃ¡n eas
Ġradiof recuencia
ĠExcel ente
Ġcolon ias
ĠcatÃ©ter es
no ut
ĠestadÃŃs ticos
ĠBlo g
Ġsim ulaciÃ³n
C as
ĠR V
ĠÃºn icas
ĠtÃ³ picos
Ġapor tes
Ġan as
Ġfisi olÃ³gica
ac Ã¡r
Ġpre fi
U ER
Ġcompren den
b anos
Ġo u
Ġex tr
Ġton os
Ġen cu
ĠMe xico
et ts
Ġapor tando
Ġte Ã³rica
Ġdepor tista
os ta
Ġmanten idas
Ġenfrent arse
Ġpal pe
Ġobserv amos
Ġsub grupo
ĠUn i
Ġprop uso
tu be
Ġagre gar
Ġinnov adores
ac he
ĠInter venciÃ³n
Ġin us
ĠAs es
ĠC Ã¡r
ĠS H
Ġreun ir
bacteri as
B S
Ġcontrovers ia
w an
ĠEE II
Ġ ï¿½
Ġar ren
l ara
er ador
Ġmetab Ã³licos
ĠVac un
" ).
us os
Ġcar tas
Ġtu tor
lo c
cre tamente
Ġmi xto
cl ina
Ġinf in
Ġregis trÃ³
ĠC G
erv a
Ġlogr ando
ĠGu ate
ĠCam po
Ġmito condri
ĠGener ales
Ġpol lo
ĠAutÃ³n omas
Ġhist olÃ³gico
t ti
uch as
ĠNic ol
Ġf at
ul osa
e gos
Ã© imer
ĠD rug
ĠCons ide
Ġcontro ver
14 0
om io
LD L
Ġperio d
Ġno tificaciÃ³n
OR ES
Ġamena zas
lan os
Ġent eral
Ġllev amos
Ġasign aciÃ³n
ĠPres entaciÃ³n
Ġpredis pon
Ġcon tando
ĠRu bio
zh Ã©imer
Ã¡ qu
ĠH B
cul aciÃ³n
ĠMe del
Ġinstitu cion
Ġten din
Ġal Ã©r
un t
Ġapun tado
id s
Ġ198 1
Ġencuent ren
Ãĵ G
ĠFun ciÃ³n
ĠC ron
ĠsÃŃmb olo
ĠEs tra
Ġa xil
tric s
Ġcef triaxona
Ġin hibir
Ġreg ulares
PR E
Ġje fa
Ġpat ente
Ġos cura
cÃ³ cica
ĠcÃ³mo do
Ġl Ã¡gri
r um
Ġdetal lado
Ġpion ero
Ġhinch ada
R AS
Ġp Ã¡nico
Ġconduc tor
Ġ13 4
Ġmascar illa
Ġs aci
Ġperme abilidad
ĠTro mb
Ġcambi an
z ones
Ġcaracter izar
aj ara
Ġe char
ĠResul tado
Ġre absor
ĠAs per
Ġcap ilares
Ġfisi ologÃŃa
Ġconsider aron
Ġmax ilar
g ante
h as
Ġinform Ã¡tico
Ġangio plastia
Ġme tro
Ġinform ados
ari ta
ĠEncuent ro
Ġllev ada
Ġperju diciales
Ġsi gan
Ġrel len
Ġantigu as
Ġat mos
far o
ĠT S
Ġcualita tivo
in arios
Ġi ra
Ġcomp ras
Ġn itro
Ġamar ill
Ġacu te
omiel itis
Ġpus ieron
Ġprescri bir
uc al
Ġameric ano
Ġedi ciones
Ġreserv as
ĠQuiz Ã¡s
Ġmad urez
ĠPhar ma
Ġper ÃŃmetro
Ġse men
Ġch ica
Ġin her
ĠSan itarias
Ġpon ga
Ġlig amentos
Ġrevolucion ario
ĠX VI
AN D
Ġint entado
ĠtÃŃ picos
Ġgrues o
Ġadministr ada
tra um
ĠM ATER
Ġpro ges
Ġses go
Es tados
ĠNeu tro
tiv es
Ġparticip ante
ĠEste ban
ĠDis tribuciÃ³n
Ġest acional
Ġchar acter
Ġproce dencia
Ġmedi ca
ĠÃ©xi tos
ĠGab riel
Ġre pos
ĠMa Ã±ana
Ġcam inos
UR L
ĠHig iene
Ġdel ito
Ġinmo bili
Ġtard ÃŃo
un idad
Ġaloj amiento
i guar
Ãģ S
es os
fici l
Ġdolor osas
Ġsom bra
Ġfuerte mente
Ġfinanci ero
Ġper diÃ³
Ġprim arias
Ġintens iva
ĠacompaÃ± amiento
ĠfÃ©r til
Ġsimi li
Ġangio tensina
Ġto c
Ġpu de
Ġirri table
f ur
ĠG in
Ġdis uria
P res
ĠF lu
Ġjus tifica
ĠRecomend aciones
ĠCor respon
Ġpur ul
Ġdesencaden ar
de la
Ġtes ts
U I
k en
Ġvege taciÃ³n
Ġlimp io
Ġinform an
Ġmac rÃ³
uev as
g ement
Ã¨ s
Ġginec Ã³logo
dr os
ĠF ase
Ġc ora
ĠseÃ± alizaciÃ³n
Ġextin ciÃ³n
Ġreno v
Ġbas Ã¡ndose
ĠDescu bre
ĠC IR
Ġinse guridad
Ġalcal de
ĠCon cepciÃ³n
Ġcolonos copia
cons ulta
Ġ36 0
ĠHEMOS TASIA
Ġpre dnisona
Ġs oma
Ġcu entos
P a
Ġco au
cla je
ĠR on
ĠJ ar
con duc
an cy
ĠVis ita
Ġmenci ona
Ġart ÃŃstica
Ġim mun
Ġinto xic
Ġcompar te
mar t
Ġcalcul Ã³
un ar
s ta
Ġca za
ĠRo che
ĠNo viembre
ĠF ig
Ġj ap
Ġsolici tÃ³
ĠSig nos
ĠcrÃ©di tos
ĠR R
Ġte a
cion ario
Ġhiper colesterolemia
Ġhall aron
ic ciÃ³n
Ġdise Ã±os
Ġr al
ma x
ĠPer man
Ġempe orar
Ġch ina
Ġper cen
Ġcu a
pa to
Ġpo deres
Ġradi ologÃŃa
Ġanat Ã³micas
ĠT ÃŃtulo
Ġsuscep tible
Ġfalle cidos
ĠDÃŃ meros
Ġutil ice
ĠDoc um
as s
Ġpol en
Ġrell eno
Ġent r
Ġsue los
Ġoc Ã©
Ġcolec ciones
OS IS
quÃŃ deo
ĠP ros
cion istas
Ġbenefici arse
ĠFuer za
Ġresuel to
Ġaudi tivo
Ġregul an
Ġmedias tÃŃn
potas emia
Ġbuc o
Ġper pe
Ġmal igna
Ġg oles
Ġsus trato
Ġarg umento
Ġd ÃŃ
od g
Ġagrade cimiento
ve jecimiento
Ġradi olÃ³gicos
Ġrese Ã±
ĠDeclar aciÃ³n
ĠE gi
Ġpen al
Ġvaso dila
Ġsever as
blas tos
Ġpie dras
Ġan titu
Ġba zo
M Ã©
h ua
ĠZ am
Ġcer rada
Ġestric to
cul tural
Ġcaracter ÃŃsticos
titu ciÃ³n
Ġmis terio
li tos
Ġinconven ientes
Ġus ada
aci miento
ĠCan dida
Ã©n icos
Ġinaugur aciÃ³n
ĠS y
Ġadap tada
ĠTecn ologÃŃas
âĢĵ ,
av ir
Ġprofun dos
Ġm s
Ġadj unto
Ġc Ã³digos
Ġc lo
ima gen
Ġdor so
Ġfebr ÃŃcula
Ġcos tumbre
Ġesque mas
ĠCar olina
Ġcer em
Ġpres encial
Ġpaci ent
OL ÃĵG
Ġs O
Ġo ÃŃdos
ĠZ ona
ĠD IC
ĠColab or
Ġor inar
Ġimp iden
Ġprotein uria
ce le
Ġmas to
ĠCu adro
Ġac eta
Ġjun ta
Ġfan tÃ¡s
ÃŃ tis
ĠIC C
Ġcar ro
TI EN
Ġter mo
ĠBol etÃŃn
ĠU TIL
ĠPr ueba
Ġagre ga
Ġinquie tud
b ach
Ġsist Ã©micas
Ġelectro dos
ĠV ice
Ġdeb ut
por aciÃ³n
fi eld
Ġlan z
tor vastatina
cl oro
M o
Ġcompe ticiÃ³n
ĠCons tantes
ĠBur gos
ĠCor te
ph ic
Ġdespren de
Ġv alidad
Ġeduc ar
far mac
ona tos
Ġvisit antes
Ġcuan tas
v ulas
Ġc y
Ġmul tin
Ġide ales
Ġdesfib ril
Ġcotidi anas
ĠAn s
Ġetique ta
ĠMeta mizol
Ġinevi table
Ġhipertens iva
Ġgus tan
Ġrin orrea
ĠNÃº mero
u res
ĠL am
Ġindic ados
ĠCor uÃ±a
Ġexpres iones
Ġcons tancia
11 6
os ex
Ġb er
it enci
Ġmanio bra
Ġeritematos o
t ulas
Ġrelo j
Ġluc es
ĠvÃŃn culos
Ġhab Ã©is
Ġba ilar
v ac
Ġr icas
por ts
Ġpropor cional
Ġpan demia
T AN
Ġinstitu to
c am
Ġdise minaciÃ³n
ĠCientÃŃ ficos
Ġdiscre ta
ĠdiseÃ± ada
Ġamp ollas
Ġat letas
Ġexig ir
Ġalter ada
Ġneces ito
ĠPro p
Ġrar os
ĠTh omas
ĠM IN
Ġgra tis
Ġdistin ciÃ³n
Ġpriv acidad
Ġcoinci diendo
ĠGuate mala
ĠPR OP
ĠDes cribir
ĠÃ ĥ
Ġalo pecia
Ġse t
ĠE ri
Ġinyec table
Ġmedic al
ĠAlter aciones
Ġen ju
Ġsu yo
tra cciÃ³n
Ġga to
Ġtra yecto
ĠO M
Ġpon der
Ġsubray ado
ĠK le
ogrÃ¡ fica
Ġconsul torio
Ġalum inio
Ġres ol
ĠcÃ³mo da
Ġe yecciÃ³n
Ġes tir
Ġli br
Ġmus lo
Ġiz q
Ġfi jo
ĠHa bi
Ġempez ado
Ġven daje
ĠPuer ta
Ġron da
Ġtraslad ado
ĠINFORM E
ĠBoliv ia
Ġfom ento
ĠAs pectos
Ġbronqui tis
Ġfeder al
ĠtÃ³ pico
Ġintu baciÃ³n
Ġsal to
Ġveg eta
Ġrecor rer
om onas
fici ts
CS IC
hu ana
Ġmac ros
Ġsuger encias
Ġderi van
entes is
tan eo
Ġmanifes tÃ³
ĠNI H
Ġamar illa
ĠTener ife
ĠI X
Ġpol is
Ġdeber ÃŃamos
Ġobliga toria
ol ol
it ana
Ġcompar tido
gui to
Ġso plo
Ġa ula
Ġsi lic
Ġalimenti cio
ĠT I
Ġdoctor ado
Ġreflex iones
In s
Ġconstitu cional
ĠNo ta
ĠR EG
Ġnefro patÃŃa
lu encia
Ġexpres ado
Ġdisper siÃ³n
Ġincluy a
Ġvene zol
Ġmultifac torial
lan dia
Ġprodu zcan
Ġinvas ivas
ar emos
Ġcontinu ado
Ġpor tÃ¡
ĠF ron
Ġfi el
l um
ami lo
Ġestim ada
Ġ- --
ĠVar gas
Ġque ma
ĠSal ut
dez co
ĠV amos
ox a
f ina
Ġpros ta
Ġpreten den
ĠAb s
ĠInfec t
pro te
Ġescas as
ĠCr Ã³nica
pa tas
e des
an i
Ġgas tritis
Ġdis tensiÃ³n
ĠV ive
ĠColom bi
Ġextraordin aria
Ġex cus
Ġvo tos
mej or
ĠInd ustri
la za
ĠH ID
ĠD OL
ĠJohn son
ĠInd ustria
ĠF AM
Ġelec toral
Ġsever os
Ġmicrobio ta
Ġdos ificaciÃ³n
Ġespecta cular
ĠDe m
Ġ( +
Ġpeligros os
Ġmoder nos
tu oso
ĠsÃ© pti
Ã¨ n
Ġrol es
d ora
Ġcav idades
B ER
ill y
Ġpar alelo
Ġtar da
N M
Ġt echo
Ġcompren didas
Ġinfec ciosos
a Ã±ad
Ġrefer idos
Ġleuc o
ĠPAR TE
Ġba Ã±
Ġhom osex
Ġprodu jeron
an ismo
ĠSi tuaciÃ³n
Ġentren ador
Ġencar gados
al la
ĠSu iza
Ġre tom
Ġ19 59
ÃŃng ea
, '
tu alidad
Ã©p ticas
mo der
Ġo titis
ĠAn im
Ġest aciones
se gÃºn
ĠCon ven
b ados
Ġconside re
Ġ1 19
Ġfran ces
ĠInstitu t
an ts
PR ES
ol ares
Ġas om
Ã©rg ico
ac ar
ĠApo yo
P ue
Ġas us
Ã©is bol
ĠCan aria
Ġhier bas
r eros
Ġsal Ã³n
c ÃŃa
Ġtendr Ã¡s
Ġsu c
Ġex istan
H H
Ġaver iguar
IL O
M i
Ġni Ã±ez
Ġepi teliales
tu ri
Ġdiscu tir
ĠGre cia
ici embre
Ġpresi dencia
Ġoptimi zaciÃ³n
ĠAdminis traciones
ĠO p
Ġrec tor
QU IER
ido grel
ĠHum ano
Ġimplic ado
Ġzapa tos
Ġindic ando
ĠPlata forma
ĠAr ro
Ġarrit mia
ĠsÃŃ filis
Ġcompren diendo
Ġsi entes
Ġresul taron
ĠtÃ³x icas
Ġperiodon tal
n ias
dem y
Ã© tera
Ġdenomin ados
Ġcor tas
Ġreemp laz
ar tritis
Ġ19 78
Ġbo tul
iv ir
Ġobs er
Ġverte brales
B NP
Ġtum efacciÃ³n
Ġdiges tivos
ĠACTU ALIZADO
ĠM ec
Ġ cia
ĠConse jos
l ados
ec lam
Ġsustan cialmente
Ġci tada
ĠAl bert
Ġingre diente
Ġrealizar Ã¡n
ĠÃģlvar o
j adas
Ġpro tÃ©s
ĠMan tiene
Ġaur ÃŃcula
k ers
Ġvolun tario
Ġrequi riÃ³
Un ivers
ĠAgus tÃŃn
j anos
Ġinterven idos
Ġprecoz mente
Ġmaquilla je
Ġcolg ajo
r idos
Ġm ante
ĠcÃ¡r cel
acion s
ĠE va
Ġinf artos
Ġproduc tores
us ion
Ġmer curio
fun ciÃ³n
H a
pens as
ĠbritÃ¡n ico
Ġmen ciÃ³n
Ġfrus traciÃ³n
Ġdiffer ent
Ġla x
Ġimplic an
Ġbor rosa
Ġqued aron
Ġges tores
Ġro j
Ġsopor tar
f uegos
Ġcent rar
Ġdetal la
ĠCÃ¡ diz
ĠS olid
Ġbas ura
ĠSoci o
Ġjar din
era to
ĠK ing
Ġas al
Ġpre mis
ĠSos pecha
Ġd ure
Ġcomunic arse
p ensa
ĠparÃ¡ metro
Ġ13 3
Ġure tra
Ġespe jo
Ġadi ciÃ³n
Ġ9 00
Ġaument ada
Ġorg Ã¡nico
Ġexcre ciÃ³n
Ġpredic tor
Ġserv ido
Ġanaliz ando
Ġatmos f
10 2
Ġinter media
Ġcircu itos
Ġiden tifi
ĠcatÃ¡ logo
c Ã©
indo ws
Ġest ri
Ġdis posiciones
ĠCuer po
Ġmanten ga
jec t
Ġun ilateral
Ġb ecas
ĠS oc
ie go
Ġrea f
h um
ri Ã³n
Ġesta tus
Ġrevis ado
Ġautor izado
ĠRen al
Ġrela ted
h ab
Ġalcoh Ã³licas
ĠD if
Ġali ento
Ġdegrad aciÃ³n
op h
Ġhe mic
Ġcopa go
Ġirre versible
pen di
ĠMo vil
ĠGer encia
ĠMara Ã±Ã³n
rec tomÃŃa
os Ã³
Ġfluc tu
Ġprovoc ada
ĠPÃ¡g ina
ĠVal dÃ©s
m y
di d
Ġres ide
ĠL ea
Ġsuper an
ien ce
AG UL
Ġmover se
us ional
Ġmicros copio
Ġpi den
Ġcoher ente
Ġavent ura
Ġap ell
Ġvis tas
Ġconform idad
Ã ¢
Ġtr is
Ġinici an
oles terol
ĠD O
Ġvacun al
olo go
buta mol
Ġpa ula
Ġmetabol itos
ĠL lam
Ġresul te
Ġsuprar renal
ces s
Ġpreval ence
Ġmec Ã¡nico
Ġinadecu ado
Ġanun cio
Ġf ama
ĠPr uebas
ĠF EDER
Ã¡ zar
ĠFo od
Ġreco pil
ĠT AM
it Ã©s
ĠMill onarios
Ġsin dic
Ġadministr Ã³
Ġsel f
f ritis
Ġfal so
Ġradio grafÃŃas
ĠA J
Ġp om
Ã± e
Ġman dar
ĠE de
Ġtraslad ar
ĠPo der
Ġpas iva
Ġen fis
Ġra bia
ĠPa ti
Ġdev olver
Ġmotor as
Ġfabric antes
Ġvesti r
Ġ19 76
CA A
Ġdesgr acia
bil itar
mo h
Ġcar Ã³
Ġver gÃ¼enza
Ġdiar reas
Ġdis plasia
ĠAs ma
ĠRel aciÃ³n
Ġtra ÃŃdo
Ġhiper plasia
Ġcam ina
Ġconci ertos
Ġjus tificar
ĠTÃĵ RAX
ĠChica go
Ġenc am
Ġgra m
OLOG IA
Ġmate mÃ¡ticas
Ġform Ã³
Ġal so
ĠPsychia try
Ġsu bl
Ġofer tas
i aca
15 2
Ġblo od
ĠrÃ¡p idos
Ġadvers o
ĠDol ores
Ġdeb ÃŃan
Ġam aman
Ġc Ã©
Ġe go
per ci
Ġfaculta tivo
per io
ĠN P
ĠDis trito
Ġocup an
e dia
Ġla ter
ĠT oma
ĠDe mo
bl an
Ã©r dida
Ġetc Ã©tera
ĠÃ³se os
ĠFib ro
ind d
EL L
Ġtesti monio
cion an
Ġcons ecuciÃ³n
Ġejecu tivo
Ġocul ta
Ġde cor
ĠA H
Ġpig ment
ĠA plic
Ġile g
ĠR ecu
Ġpresu puestos
Ġper fun
Ġsindica to
ĠF aci
ĠVir us
Ġtradicional mente
Ġque jas
ar don
Ġb icarbonato
ĠTIEN E
c ampo
Ġreform as
Ġedi tor
ĠCam pos
Ġpolim orf
Ġdo taciÃ³n
ĠtelÃ© fonos
Ġau tÃ³
Ġb r
Ġrecuer dan
Ġbibas ales
ĠIN VENCION
Ġneona tos
fer ente
am bres
Ġcontrol adas
ĠCP AP
tra que
Ġphys ical
ĠS ES
ĠAca demy
Ġex ante
ĠelÃ©c tricos
M on
ĠCo vid
gu Ã©
Ġmejor Ã³
ell er
ec os
ĠClÃŃn icas
Ġrecord Ã³
Ġprotec tores
Ġasoci ar
ĠES TU
Emb argo
ĠW ol
Ġconec tar
car se
Ġsiste mÃ¡tico
Ġent rÃ³
Ġbi omÃ©dica
Ġfabric ante
ĠG ro
Ġfal los
Ġana tomo
p ig
Ġodon tologÃŃa
ĠD ich
Ġv uestros
Ġseman ales
Ġexten so
uls iÃ³n
am arca
ĠT es
Ġoftalm Ã³logo
ĠDis positivo
Ġinnov ador
ĠvÃ©r te
ic ulo
ĠZ ika
a ta
ĠAN TI
Ġneu trÃ³filos
ĠB EG
Ġsub grupos
ĠPR OB
Ġprecis Ã³
Ġaz itromicina
ĠÃ© tn
ĠSer Ã¡
Ġpin cha
ist Ã¡n
Ġreca ÃŃdas
Ġ19 79
Ġh arÃŃa
Ġpos esiÃ³n
h on
Ġplante Ã³
Ġb ut
Ġresul tante
Ġneutro filia
ĠPas cual
Ġparie tal
D AD
Ġalucin aciones
Ġsuici da
B N
Ġman dibular
Ġobserv arse
Ġelas ticidad
ĠI de
Ġanti psic
Ġexclus ivo
Ġrec rea
Ġorg ul
ĠPh il
ach ing
Ġ3 50
Ġobs truc
ĠperiÃ³ dicamente
tron omÃŃa
ĠMari ano
ĠT im
Ġdescub rieron
ĠGEN ER
Ġfib rin
t Ã©n
Ã¡ ticamente
ca ps
ĠV in
ĠIn ci
Ġhipo gas
Ġcercan as
ĠExper im
Ġs c
ĠautÃ³n omo
ĠS ie
CO O
ĠEmpres a
ac ha
Ġmonitor izar
ĠacompaÃ± ados
Ġextra Ã±os
Ġag ro
ĠAler gia
Ġgeno tipo
ĠD T
Ġs mo
Ġsosten ida
D S
Ġes fera
ĠD al
Ġapare cido
ĠH acer
ĠAs istencial
Ġon co
iz as
ĠL CR
ĠEjer ci
Ġsu man
ĠSan itas
ĠMil los
ĠG A
Ġfisio patologÃŃa
Ġsuger ido
Ġventr iculares
Ġca va
istan ce
Ġfron teras
Ġagres iva
ĠelÃ©c tricas
Ġneo plÃ¡s
S IDA
Ġautom Ã³vil
Ġtrop icales
Ġcontrar res
ĠAC V
Ġfisi olÃ³gicas
Ġap ical
Ġpers isten
Ġfu ga
Ġdi Ã³xido
ĠJe an
g ol
ĠA AS
Ġacum ulada
tos o
ĠResul ts
idal go
tan ol
Ġinde x
Ġalcohol ismo
torÃ¡ci co
gu as
Ġsecre taria
lop idogrel
s ible
ĠA IN
ĠF orma
Ġadeno carcinoma
Ġrequer ido
ĠCon cretamente
Ġsist Ã©micos
Ġdemocr acia
i dentes
Ġpo esÃŃa
Ġpertin entes
Ġvincul adas
ĠTi enen
tens ion
Ġas istido
ĠA um
Ãĳ A
us k
Ġdescubri mientos
ĠA I
Ġhuel ga
Ġun irse
ĠB is
Ġsobre dosis
ĠA EC
Ġopera tivo
s h
ĠQuiz Ã¡
Ġmorf ina
ĠEn con
Ġden un
Ġpul sos
ĠRadio grafÃŃa
Ġsignific ant
ter ectomÃŃa
ĠEX TR
per son
w al
iz umab
Ġpen icilina
dl ine
verte bral
v ados
Ġbil irrubina
ĠFarmacÃ©u tica
Ġhiper glucemia
ĠGuadal ajara
Ġcu en
ĠChar les
ĠL ara
ĠUn os
ĠdÃ© ficits
Ġmejor ia
Ġcefal eas
Ġenemi gos
Ġej es
. Â¿
L ES
Ġy ug
Ġlan zar
ĠPÃºbl icas
Ġfacilit ando
tu ximab
H T
ĠSu pre
ĠF I
AP S
Ġviscer al
Ġestu viera
Ġconden s
Ġmi ento
Ġan tin
i ti
Ġinstrum ental
Ã©nd ole
cu er
Ġutiliz amos
eclam psia
ici as
Ġcoci nar
tr Ã¡n
Ġpr Ã©s
Ġrepe tidas
Ġestudi an
ĠHal laz
ĠTÃ³ rax
Ġul timo
Ġalcan zando
bal gia
ĠV O
Ġcuadr ado
ĠP OSI
Ġdeci den
ĠENTR E
gu ida
Ġint entan
Ġamp olla
Ġps ych
Ġendo telial
er aciÃ³n
Ġfamos a
Ġconf ron
Ġcan cel
Ġb ÃŃ
com icina
Ġven tila
ĠSe p
Ġcondi ciona
ĠET T
ĠRodri go
ĠM OD
Ġobserv adas
lo ba
ari ales
it mos
Ġtu bercul
ĠNicol Ã¡s
ĠA merica
ĠF recuencia
ĠG i
Ġpas ados
Ġgu iar
ĠSue le
ĠG GT
ĠvÃ©r tigo
Ġcar ecen
Ġl itro
Ġc ens
Ġdetermin aciones
ĠdÃ© ci
pira toria
ĠFer rer
D is
Ġterri ble
ĠP ESO
ĠV aria
ĠCal der
ĠPol ÃŃticas
Ġcoci n
Ġcombus tible
s ue
Ġdecl ara
Ġexitos a
Ġtit ulares
Ġdefien de
Ġsu pl
direc tor
ĠP om
ĠM AL
Ġ11 4
ĠmÃŃn imas
Ġital iano
Ġempez ando
Ġacu dieron
sa bilidad
Ġi b
P ero
oprol ol
ICA CIÃĵN
Ġperci be
ĠDIS P
ĠF Ã©
ĠAl ianza
Ġdesapar ecen
tiv aciÃ³n
n ico
Ġad mir
Ġu rea
ĠtÃ³ pica
ĠmacrÃ³ fagos
ĠQu iero
Ġintim idad
P er
Ġexisti endo
Ġhemorro ides
Ġperi fer
Ġmencion adas
var tis
Ġa ero
Ġ19 75
s mo
Ġcontro lan
! .
Ġcons isten
Ġcump lan
ĠM io
s ul
F YC
ĠLi mi
Ġic tericia
Ġejer cen
Ġk ilo
ĠX a
Ġsum amente
Ġanti hista
Ġmic ciÃ³n
Ġres tante
ĠSal Ã³n
A meric
j Ã³n
Ġpa th
Ġw ar
ĠCh r
ĠQu i
Ġsol v
Ġn acen
Ġpol o
Ġenve j
cis mo
Ġvi entre
Ġlocal idades
Ġmio pÃŃa
Ġfer til
ĠcrÃ©di to
Ġh Ã©ro
dis ta
ari edad
ific ada
Ġmi algias
Ġfal sa
Ġresiden cias
ĠEl los
ĠGo bern
Ġdi vis
ec al
ĠcutÃ¡n eos
se vier
Ġpas aron
aj us
Ġrev esti
Ġradi aciones
par as
Ġdedic adas
ĠCambi o
Ġautom Ã¡tica
ĠRes ulta
Ġpapel es
Ġorigin an
Ġconcl uyen
Ġrepar ar
ĠB at
Ġjur ado
Ġterm ome
Ġemis iones
ĠEgi pto
tel erÃŃa
IN F
ĠT IC
ĠRad iologÃŃa
do i
ol ÃŃtico
Ġretino patÃŃa
uel va
Ġobjetiv an
Ġcur sar
Ġsocial ista
Ġestric tamente
Ġsin us
ril l
Ġdeamb ulaciÃ³n
Ġplante amiento
Ġba u
tro ke
b ack
Ġpon emos
f isis
Ġonc olÃ³gica
vene cimiento
10 4
ĠP ub
bier ta
Ġnorm alizaciÃ³n
ĠM ON
Ġas um
Ġaisl amientos
Ġajus ta
ĠDES CR
ĠE c
Ġrecomend ados
Ġmari huana
Ġocasional mente
ĠMil itar
ĠhuÃ©s ped
): .
ĠEn seÃ±
ĠCan al
Ġmicroorgan ismo
Ġinspec ciÃ³n
om icina
min ales
Ġsex to
ĠvÃ¡l ida
Ġenvas es
fic aciones
Ġtoma te
of t
th erapy
Ġpuber tad
ĠHu bo
ĠM ama
Ġdeb idamente
ĠfÃŃs icamente
Ġintrao cular
Ġpo eta
Ġs ymp
Ġpublic an
Ġconcep tual
ĠC ell
Ġdedic an
ven osa
Ġinform aron
Ġinvas ivos
Ġre ple
Ġpo quito
Ġdescu bre
Ġcumpl ido
Ġdes pl
Ġcomple tos
Ġllu via
Ġjugue tes
P AS
Ġfortal eza
Ġf ito
Ġurban as
Ġaf or
ĠInmun ologÃŃa
Ġsindica tos
p rin
Ġrepro ducir
ud ar
Ġt here
ĠPR ODUC
AR R
Ġapo p
Ġintens os
lo dipino
estruc tur
Ġmedi taciÃ³n
vi ra
Ġ13 2
Ġdej aron
z ona
** **
Ġde velopment
Ġsal ga
pi ri
Ġdesigual dad
Ġofici almente
Ġad yuvante
Ġgen Ã³mica
Ġpractic e
li p
Ġdiet Ã©tica
Ġp io
Ġperman encia
Ġanticoncep tivo
Ġdes orden
Ġvulner able
Ġaudi encia
Ġdi ficil
pue de
Ġb ic
Ġaber tura
mi lar
Ġac h
Ġverdadera mente
Ġgu ard
Ġpar ado
Ġfin alizado
Ġdismin uyÃ³
Ġusu almente
Ġpostopera toria
oci aciÃ³n
Ã³rm ula
Ġâī ¤
ĠMall orca
Ġtener se
Ġtransform ar
tan to
Ġley enda
Ġges to
ĠCompos tela
Ġcor pora
ĠPro gramas
Ġavis o
Ġimag inar
Ġr x
d ur
ĠPACI ENTE
Ġahor rar
Ġinsa tis
erv icio
ĠEco grafÃŃa
Ġgig ante
Ġautom Ã¡tico
ÃŃn tesis
Ġdisli pemia
Ġsepar ados
J o
ol fo
ĠCien fuegos
Ġgan ador
Ġinnov adoras
Ġlu x
Ġselec ciona
ĠTex as
Ġinvestig ando
Ġins iste
Ġimpor tar
ĠQ ual
Ġmuer e
ĠD ATOS
Ġcuri oso
il le
Ã©m ur
Ġvan guardia
Ġprepar ada
Ġseleccion aron
Ġcono zco
enci ados
Ġpredic tores
Ġdesarrollar Ã¡
ĠF IS
Ġlogr aron
Ġespon tÃ¡neamente
ĠbioquÃŃ micos
Ã¡s trico
Ġhemb ra
Ġdel incu
ĠN UE
Ġdolor osos
Ãĳ OS
Ġol igo
ĠPos ible
depen dencia
Ã©r vix
ve a
pan ish
Ġtraum Ã¡tica
ĠV A
ĠDe tecciÃ³n
Ġguar da
Ġdu plic
S al
Ġrela tos
Ġse gre
Ġdetec tados
Ġnegoci aciÃ³n
un es
ĠpÃ¡r pado
Ġex puesta
Ġcomien zos
ĠCÃ¡ tedra
enes s
Ġman uales
ĠI t
Ġmad rugada
/ -
Ġfrag mento
Ġna tal
ĠSu p
Ã³g enas
Ġin da
ti g
cal cemia
Ġ11 7
Ġir se
Ġa tÃ³pica
ĠÃģ cido
V er
ĠO cup
Ġesc amos
Ġrepor ta
Ġante brazo
co cos
Ġtrans cripciÃ³n
ĠPrecis amente
on ucle
ĠL esiÃ³n
ĠCh il
Ġinterfer ir
12 9
Ġcompar Ã³
Ġven cer
ĠD iciembre
Ġbloque ar
Ġcatara ta
Ã¡ce a
C OM
tÃ¡n eos
ĠLic enciado
Ġconces iÃ³n
Ġpol ar
ĠL ucÃŃa
Ġse des
Ġflu ores
Ġsuf riendo
trib u
u di
Ġtrabaj amos
Ġfir st
Ġso b
Ġal as
Ġpol if
TU RA
ĠAS P
taliz as
ĠK e
Ġcerebro vasculares
E H
un os
ĠM Ã©ndez
Ġnave gaciÃ³n
Ġreg ion
Ġapren de
Ġbar ra
ĠOx ford
Ġre tic
Ġcurios idad
Ġgal ardon
ĠCul tural
Ã± ones
Ġgol pes
Ġo pres
ĠF le
Ġprovin cial
Ġ14 3
odg kin
ici oso
ĠG AS
ĠB las
Ġdefin iciones
Ġhemo cultivos
Ġimpues to
13 8
Ġingres Ã³
10 1
Ġul tima
ĠGus tavo
r s
Ġpal iar
ĠÃ© bola
Ġtes ticular
Ġdespi erta
Ġpref ieren
li que
Ġpl omo
Ġves icular
ĠEcu Red
ĠBl ack
Ġgangl io
Ã©n dice
Ġa rea
Ġestan cias
Ġirreg ulares
ĠNi Ã±a
Ġrequis ito
Ġa mio
ĠClar o
re laciÃ³n
AC TER
ph il
one fritis
Ġacces ibles
Ġimagin aciÃ³n
Ġins cri
ol s
Ġlimi tados
Ġrecog idas
perit oneal
Ġp Ã©ptido
Ġsil ves
f ÃŃ
er es
ĠOcho a
Ġtab Ã¡qu
Ġcontes tar
Ġpro mes
rol imus
ĠvÃ¡l vulas
ĠV HB
ĠPal ia
val or
Ġay uno
Ġso ber
Ġasoci arse
ĠCONTR OL
Ġenerg Ã©tica
Ġsegur as
especi almente
ĠdÃ©bil es
Ġv ina
Ġal a
ĠIden tificar
ver de
Ġaudio vis
Ġhipogas trio
Ġimprescindi bles
ĠIz quier
Ġal co
Ġadministra tivos
z il
Ã¡s ticas
ĠMe dline
Ã ¤
ACION ES
Ġoportun a
G RAF
Ġsuero terapia
ĠEupne ico
se lo
ĠEn g
Ġorg ullo
Ġopi Ã¡ceos
ĠCo operaciÃ³n
Ġbrus ca
Ġpre di
Ġe gres
ĠF en
Ġvec tor
ĠJ P
Ġintelig entes
ĠGu ÃŃas
Ġrespec tivos
irÃ¡ mi
omedi cina
MS S
ĠH BP
Ġcomp one
Ġcur vas
Ġhall Ã³
ĠT y
Ġabor tos
vul Ã¡nico
Ġal moh
ĠMi ra
Ġ12 8
pers onal
G U
e ado
Ġper tur
Ġmam ografÃŃa
Ġlig ada
i Ã¡n
tid ina
Ġelectro magn
Ġavan zando
Ġpermitir ÃŃa
Ġliber ar
ogÃ©n esis
Ġa vena
Ġbronco dila
l is
y Ã³
aj aja
on t
Ġe yac
ĠempÃŃr ico
OL U
ĠCar re
Ġtrop ical
Ġsociodemo grÃ¡ficas
Ġse cas
Ġmodific ada
Ġajus tes
Ġor ejas
Ġpl Ã¡
ĠestratÃ© gico
ĠÃ¡ tomo
Ġfoc ales
Ġpos tural
Ġpreocup ante
Ġin cÃ³mo
Ġlinfo penia
Ġd re
ne as
Ġconse gui
Ġpor ciones
ĠCab allero
Ġcompro misos
ĠÃº rico
ĠFAR M
Ġinquie tudes
incl uyendo
cl or
f ety
v s
EN AL
Ġirrad iaciÃ³n
Ġmiel oma
Ġproduc tor
T EC
ĠEr nes
b uen
ĠS IG
cas o
Ġz an
lo g
yec tos
re al
pi de
Ġpon entes
Ġdefin iÃ³
Ġdemos trada
tiz ados
esti ona
Ġconside ro
Ġmonta Ã±as
Ġtermin ales
di era
ĠBea triz
C al
Ġpa tas
Ġdeb idas
ci ano
Ġqu iso
Ġencontr adas
Ġhue co
Ġin cur
Ġadul ts
Ġultravi oleta
men os
f ul
Ġb reast
Ġdere chas
Ġ13 1
Ġneur Ã³logo
Ġci tados
uel ta
ĠvÃŃ rica
ĠAnd re
Ġfisioterapeu tas
ĠT M
ic ÃŃlico
tÃ¡n d
Ġfund ada
Ġprotagon ismo
ĠW indows
teÃŃn a
Ġmo co
Ġb ac
erop uerto
ĠR ED
Ġextrac tos
ĠmÃ³d ulos
Ġd ucha
Ġfinanci ar
ĠAgr icultura
Ġinter viene
ĠNo vartis
ĠGre en
ĠAndalu z
se g
Ġagres ivos
Ġnas ofar
Ġdibu jos
ĠCam agÃ¼ey
Ġcristal ino
cre a
Ġmanda to
Ã¡nd oles
de re
Ġagr ÃŃcolas
ĠSer ÃŃa
bi t
Ġactu alizado
Ġalim entar
Ġ11 3
Ġac lara
Ġep ÃŃ
Ġrecu b
Ġbi omÃ©
Ġloc alizaciones
ĠquirÃºrg icamente
Ġsul f
val o
ocito penia
Ġapar tados
Ġch u
Ġcoordin ada
Ġcre ador
ĠR P
Ġhon go
Ġpr endas
Ġintra opera
SN S
lo gia
ola to
Ã©rg ica
Ġdirec ciones
Ġalcoh Ã³lica
Ġyog ur
Ġch ico
Ġpis cina
i anas
Ġcomprome tido
ĠD or
Ġsobre aÃ±ad
ĠFar ma
ĠMy co
Ġcrist ales
Ġo k
Ġ11 6
ĠcoÃ¡g ulos
y ente
Ġn eb
Ġprotec tora
Ġpro biÃ³ticos
ĠÃīs te
Ġcortis ol
a ur
Ġperif Ã©ricas
ph ia
Ġsyste m
Ġsuple ment
Ġje fes
ĠP iel
ĠCons iste
Ġin tac
gu da
tar lo
fib ro
ĠMar k
Ã ¬
Ġl anza
ER G
Ġincrement an
ĠBro wn
Ġincu mplimiento
Ġpes ca
es s
por ina
ĠOrg Ã¡nica
ĠestÃ© ril
Ġlevan tarse
di vers
Ġneur onales
Ġdirig iÃ³
A d
se t
v ino
ĠN ada
til l
ĠpÃ³li pos
Ġre ma
ĠS he
tu aciÃ³
ĠB ru
Ġasegur arse
Ġpresent adas
OS P
Ġs Ãº
ĠP H
Ġvas culitis
ĠApro ximadamente
b urg
AS T
Ġexpe diente
Ġocur ra
Ġtransmis ibles
ĠJ ane
Ġadquir idos
us p
Ġex acto
ĠCam pus
Ġrepor taron
Ġviv iÃ³
Ġoper ado
us h
ĠSa tur
ĠG ru
Ġinclu ÃŃa
po t
ĠSig lo
Ġf Ã©mur
Ġdes gar
Ġm Ã³r
Ġprecip it
b ulo
Ġincons ciente
mÃ¡ ticamente
Ġtend ones
om y
ul inas
CI P
Ġesper aba
Ġlib era
Ġindividu alizada
Ġcercan ÃŃa
ĠMon tero
ĠRe alizamos
Ġtu bos
Ġrecu pera
pe des
as on
ĠCom en
Ġpersonal idades
Ġintrodu cido
Ġvis ite
ĠCh ris
ĠQuir Ãºrg
p ical
Ġvari adas
Ġcin cuenta
IT AL
ĠM F
car b
ch ado
ĠSe min
Ġalcan z
ĠMedel lÃŃn
Ġcuan tificar
Ġpe o
ĠCu atro
Ġga tos
Ġaprob ados
Ġpar ezca
Ġconcentr ado
Ġban cos
ĠNeuro cirugÃŃa
Ġgluc Ã©mico
ĠTras plante
Ġimp i
Ġproduc tivo
ĠUnivers idades
Ġhospit alizaciones
glic er
Ġconoc ÃŃa
Ġpro puestos
ĠAn emia
Ġjue z
ĠMinis tro
ĠAr t
Ġcol ap
Ġencefal opatÃŃa
Ġmen ing
Ġbenefici ar
ĠVir gin
xa to
Ġnormo color
Ġsospech ar
Ġdis trito
Ġapro x
ĠB ach
Ġcuidados amente
ĠMon itor
Ġins truc
Ġpla zos
Ġimpuls ado
Ġforma tivas
Ġprim ary
Ġexpres Ã³
Ġan od
Ġte mÃ¡ticas
Ġdur as
Ġdiagnostic aron
B D
Ġaus cultaciÃ³n
Ġinde termin
ĠNutri tion
ĠC Ã©lulas
Ġcon torno
uel en
inf orm
Ġpol imer
Ġp Ã¡
ĠEs pin
ĠV ent
ĠProvin cia
Ġcre cido
bacteri um
Ġsa Ãºde
Ġâ Ĩ
Ġdis cul
ĠEj emp
ĠB aja
Ġne umon
Ġremi tido
Ġbenig no
ri mos
ne ica
a gr
Ġcomun itarios
Ġlis to
Ġenci clo
ĠN ar
Ġconvers aciones
Ġ19 58
ĠespectÃ¡ culo
Ġperina tal
Ġcal entamiento
Ġse para
unda tion
Ġri ego
Ġapar ezcan
s ub
Ġhemato poy
Ġmeta anÃ¡lisis
ĠFlor ida
Ġde mor
Ġ12 3
t una
Ġdiagnostic an
Ġcor e
us ieron
ne ga
ĠC is
ĠMar g
ĠM ILL
ĠAn exo
l lo
u an
ĠES P
Ġcon ges
Ġfac tura
Ġconjun tivitis
Ġ Ã±
Ã³n icamente
Ġtra gar
Ġclas ifica
ĠmÃ¡r genes
Ġaplic adas
OS O
Ġgus taria
Ġval iosa
Ġdirec tores
tra mos
ĠDepen dencia
ĠR EP
Ġforma tiva
ĠStre ptococcus
ĠHb A
par esia
ar quÃŃa
Ġcas ual
S EM
ĠInfec ciosas
ticuer pos
Ġpose er
Ġcuar enta
Ġintra uter
Ġen vÃŃa
Ġposi bilit
il ure
Ġre quieran
Ġas sessment
ĠPo blaciÃ³n
Ġsuav es
ĠS CA
Ġhor talizas
Ġhal o
hi te
Ġcolabor adora
ĠA ta
Ġpresent arÃ¡
Ġasigna turas
Ġc raneales
ĠHÃ¡bi tos
Ġre ino
ĠO C
Ġk e
Ġajus tado
Ġsuce der
tin es
Ġevalu ada
ĠG es
ĠCa teg
ĠRES PIRA
ĠR as
Ġtens iones
Ġpreco ces
Ġconven iencia
es clerosis
ar mac
Ġmen Ãº
ĠpronÃ³s ticos
Ġilumin aciÃ³n
s ec
ĠsanguÃŃn eas
Ġci tologÃŃa
f ÃŃn
ti gar
UL AS
Ġinv al
Ġfavor eciendo
tr aci
ĠlÃ¡ mina
on y
ĠS UM
ĠAn ual
ĠAc ceso
des a
ĠFeder ico
Ġdis cur
ĠalÃ©rg ico
Ġac Ãºs
n ormal
ĠÃŃn tima
b ares
ien se
ĠRes puesta
Ġcuan tÃŃa
g ente
Ġaclar amiento
Ġpreli minares
ĠperiÃ³ dicas
Ġex istÃŃan
ten o
mon s
ĠE ur
Ġca Ã±a
ĠM AD
Ġsuce dido
Ġmoles ta
Ġincom pa
Ġesta bilizaciÃ³n
Ġespi ro
Ġmar gin
ĠXV II
par o
Ġespu to
Ġdise ases
ĠDOL OR
Ġvina gre
E O
Ġ( .)
ĠPro gram
Ġdescri biÃ³
Ġmez clar
Ġquier as
ĠpÃ¡r ra
Ġw ell
ĠCh am
ĠHemo din
G arcÃŃa
Ġoblig ados
Ġagu an
tar Ã¡n
ĠMas ter
Ġata xia
H TA
Ġdesarrol le
Ġtrad iciones
Ġhabi taciones
Ġprolon gar
Ġneutro penia
Ġresfri ado
Ġconduc en
tom osis
Z O
Ġin activ
Ġan f
ĠJ R
Ġten Ã©is
Ġpalp acion
ĠWilliam s
Ġeviden ciÃ³
Ġdese en
Ġempez aron
Ġrefer irse
tr ante
ĠEsta ble
TI ON
en tific
Ġmun diales
ĠFeb rero
Ġqu estion
Ġempres arios
ĠCoordin ador
ri e
ĠG Ã©n
dnis olona
ĠH ierro
el in
Ġ17 0
C V
Ġhar ina
Ġofre ciÃ³
Ġenten dido
Ġcolon ia
Ġminis terio
Ġpreopera torio
EM OS
Ġfinanci eros
ĠL ife
ĠF O
ĠenseÃ± anzas
Ġc ÃŃ
Ġvari ados
ĠgrÃ¡ fica
Ġtrans forma
Ġdesencaden ante
Ġapendi citis
Ã¡ vez
Ġah i
Ġamp l
Ġajus tada
ĠgrÃ¡ fico
Ġheredi tario
ĠPal mas
Ġreconoci Ã³
Ġtraslad Ã³
ĠCh o
Ġago tamiento
Ġma gia
ona vir
Ġverda deros
Ġredon da
Ġdesapar ecido
Ġbo tÃ³n
Ġlu jo
vers a
Ġte tra
Ġneurodegenera tivas
Ġp ista
Ġep igen
Ġcompens ar
Ġmaravillos o
men da
Ġcuadr ados
el li
uy o
guir re
Ġes car
Ġve ÃŃa
13 0
u ps
Ġmar rÃ³n
Ġdo i
tan zas
ĠIN CL
G AN
ĠCe fal
ci Ã©ndose
Ġme lo
UL P
ĠErnes to
Ġextraordin ario
Ġsub es
ĠO tor
ĠNo v
Ġmos quito
Ġnota bles
col i
terior o
Ġclas s
Ġcomprome te
Ġpl us
Ġcer rados
10 3
Ġhipo acusia
Ġperci bida
Ġpaque tes
ĠdesempeÃ± ar
Ġent era
Ġhabl Ã³
Ġpermitir Ã¡n
Ġpalpe bral
Ġbacter iemia
Ġencontr Ã¡ndose
ill ado
ĠJa Ã©n
F IS
ter ritorial
Ġgluc os
Ġcolap so
Ġde biÃ³
Ġagr ÃŃcola
Ġemerg entes
Ġemi tir
Ġn aciones
ĠO S
ron utri
ĠCo un
Ġpic adura
Ġl Ã³bulos
Ġconf iar
Ġol v
ĠAl rededor
Ġeffec t
ĠPreven tiva
qui as
Ġcontrib uyendo
ĠNuev as
C AM
ĠV era
F I
Ġcon tenciÃ³n
Ġan ex
Ġcampe Ã³n
Ġacos tarse
Ġhab le
Ġ12 6
Ġrevis a
Ġo ÃŃr
ul an
Ġdermat Ã³logo
ur in
m bre
Ġdin Ã¡mico
Ġfund Ã³
ĠPro f
e cieron
Ġre ti
Ġcomp uls
Ġcu ota
trans fer
la zar
ĠMe dico
fis iologÃŃa
Ġreserv orio
Ġgus te
Ġatrib uye
ĠRESULT ADOS
Ġino cu
Ġg arra
Ġcolon izaciÃ³n
IV A
Ġar dor
Ġsac ro
Ġdis ten
Ġre quiera
Ġex ti
j arse
Ġdedic Ã³
Ġsup uso
onces to
Ġateros clerosis
Ġtermin an
O s
trÃ³ leo
Ġclor uro
ta ment
Ġsub venciones
ĠImp erio
TIC AS
Ġvec tores
ĠHallaz gos
los a
Ġque ja
Ġinm uebles
Ġimp u
Ġper icÃ¡rdico
Ã©r mica
ue ga
Ġmie lo
id an
iz acion
ĠSec und
Ġ19 77
Ġdej en
ĠValde cilla
Ã©l gica
ĠEsta tu
Ġdegenera tiva
lam aciÃ³n
ĠSÃŃn tomas
ĠantibiÃ³ tica
Ġcubier tas
Ġrelacion arse
Ġvom itos
Ġbar ri
Ġro mÃ¡n
Ġs era
s is
t aciÃ³
estes ias
ĠPUED E
Ġinv ad
Ġselec tivo
Ġre baj
Ġmin or
ĠH UM
na ire
Ġci pro
Ġrit mos
Ġpeo ple
Ġpar ciales
gun as
ĠÃŃn dole
diz aciÃ³n
Ġcolombi ana
Ġdem encias
Ġesta bil
Ġsens ores
Ġmani pul
ĠOl iv
ĠNeutro filos
ĠEl sevier
Ġpsicomo tor
ĠSe ptiembre
th el
ĠE ch
Ġsuges tivo
ĠS Ã¡
Ġab riÃ³
ĠT ru
av a
ĠAr tritis
15 36
Ġad yacente
Ġemp i
ĠUnivers al
ĠS co
ul tados
ab dominal
Ġinca paz
Ġconvir tiÃ©ndose
Ġgrad iente
Ġclasific ados
t to
Ġa o
Ġendometri osis
Ġap p
Ġrec re
Ġsolid aria
? "
Ġaum ente
Ġfundam entos
Ġat ento
r ones
Ġpres iden
ĠestratÃ© gica
ĠB acteri
pa th
ier os
Ġal zhÃ©imer
ĠCal vo
ĠÃ¡ ra
Ġlengu as
ĠA EP
Ġblog s
Ġdecen as
ver n
gl uciÃ³n
Ġlinf omas
ĠReci bido
om ic
ren ales
Ġsatur adas
Ġmec Ã¡nicas
esof Ã¡gico
Ġmo to
Ġdisfru te
ĠSA HS
Ġprovis ional
ĠCom pu
Ġfres ca
Ġgimnas io
Ġthe y
TIC OS
enci o
Ġro le
ÃŃ fica
ĠGuar dia
Ġdis c
Ġver rugas
Ġnoci vos
Ġse ll
il as
Ġsens oriales
ues to
Ġrela tions
ĠAN TICO
Ġexcl uir
Ġhos pe
Ġbuco dental
Ġox idaciÃ³n
Ġcuan ti
ale tra
Ġcomprome ter
ĠIn dependiente
! ,
Ġque do
Ġcorrespon der
br ados
Ġderiv aciones
ĠS IST
iz er
fer ol
Ġplas mÃ¡ticos
Ġev itan
Ġexhaus tiva
Ġde bi
Ġinclus ive
ĠA TP
Ġrecambi o
Ġdefin idas
Ġhema tomas
Ġmal tra
quirÃºrg ica
ĠC EL
Ġpon encias
ho ut
Ġanun cios
Ġcardi Ã³logo
ĠGu z
ĠPar to
IS IS
ĠEs truc
Ġheter ogeneidad
Ġsuple mentaciÃ³n
Ġrepar to
ĠK im
Ġafirm aciÃ³n
may or
Ġconec tado
Ġre ina
Ġdes infec
Ãº e
Ġrelig iosas
om ida
Ã³s ter
bo x
Ġpredominante mente
ĠAr turo
Ġpon encia
ĠANTICO AGUL
ĠC es
Ġacent u
ĠEs tom
his to
Ġtradu cir
Ġlevel s
ĠMediterrÃ¡n eo
Ġdes tre
Ã Ĥ
er ÃŃas
Ġinnov adora
ad io
Ġsal iv
Ġo dio
Ġmas ajes
Ġpe d
Ġpeligros a
Ġocul to
di Ã©ndose
ĠempÃŃr ica
Ġcl on
ĠW at
ĠMir anda
Ġpref iere
Ġesca par
Ã³d ulo
rinolaring ologÃŃa
Ġneuro muscular
Ġvincul aciÃ³n
Ġpro vienen
Ġpat olÃ³gicas
Ġhis tori
Ġpi ra
ĠLu gar
Ġ11 8
Ġinteres adas
Ġsent ÃŃa
b ron
cer es
Ġabo ut
Ġelabor ados
ĠL SD
ÃŃs imos
Ġdig it
le a
TI R
ĠS R
Ġalquil er
Ġcap tura
se x
ed s
Ġpreval entes
ĠObr ador
dific aciÃ³n
Ġconserv adora
Ġprovoc Ã³
ĠH idalgo
Ġ% ),
Ġll or
Ġe ficientes
Ġpreven tion
ĠdesempeÃ± an
ven ido
gr Ã©s
Ġinnov aciones
ĠPac ÃŃfico
Ġpre dom
Ġprofes sional
ĠS ir
16 0
ola teral
Ġinform Ã¡ticos
ĠA gua
ĠSen ado
Ġal ianza
En fer
ward s
Ġetique tado
ĠIg lesias
ĠD IR
TR AS
Ġpos traum
Ġemple adas
ĠABD OM
ĠD S
ĠLo zano
Ġd ona
mas car
lo gy
Ġcas eros
Ġinform acion
ĠPor tal
Ġba ile
ĠBra vo
Ġalea toria
Ġdisor ders
g amiento
Ġre versible
op ol
ĠA rias
Ġsac erdo
Qu iÃ©n
Ġcoloc ado
Ġsir va
qu Ã©s
Ġrandom ized
Ġci t
al quil
Ġac ud
tar y
u tas
Ġe mite
Ġcomple tas
ĠD SM
Ġacu dido
ĠaÃ© reo
Ġen ormes
ĠEfec to
liz umab
Ġfor os
ĠSel ecciÃ³n
ĠCar rera
dar d
Ġsome tidas
Ġintens ivo
Ġins tan
y cho
Ġmal nutriciÃ³n
Ġasi mil
Ġcontrac ciones
Ġp Ã³l
Ġmonitor eo
tri p
Ġelec tricidad
ine al
Ġo pon
Ġpelo ta
Ġcosm Ã©tica
ĠMe thod
ER C
Ġv entan
Ġmo des
Ġhabi a
in to
ĠE J
Ġmac ho
ĠTR AS
Ġrefle jos
ĠAt lÃ¡n
ĠFo undation
Ġder matologÃŃa
Ġinforma tivo
ĠNEUM ON
ĠCoordin aciÃ³n
', '
ta mo
ĠDER EC
Ġsi entan
ĠTum ores
Ġt orm
ĠV ig
Ġgus tos
ĠCM V
Ġlar vas
Ġacab o
aj ada
ĠPer fil
Ġp ica
ten cias
ĠN um
Ġantirretrovir al
Ġpreserv aciÃ³n
tre xato
ĠM ID
Ġven den
ĠanestÃ©s ico
li tis
Ġe osino
Ġcron icidad
ĠP AD
Ġins ta
Î ²
ĠMon tes
Ġfil tros
Ġeti olÃ³gico
Ġdeba tir
ta Ã±as
VI H
19 98
Ġaf ro
Ġfal tan
dis pon
Ġru tas
ĠH AB
ĠA mor
pl antes
gu ido
ĠS AT
com p
Ġin al
ĠDe presiÃ³n
ĠAu gus
Ġrefuer za
ĠAl icia
000 1
Ġevidenci an
e Ã±a
AS E
Americ an
Ġepigas trio
Ġse di
ri me
c ano
Ġfil osÃ³
tor ales
rol i
ĠSi endo
h ÃŃa
Ġam ÃŃg
Ġins cribir
Ġvac a
Sin Embargo
Ġalm end
Ġbon ito
Ġrefer ida
Ġso fis
ĠRec on
ida e
Ġp ilar
ico bacter
Ġvincul ada
Ġsuger ir
Ġf ores
Ġabsor b
Ġcarb Ã³n
Ġblo ques
ĠAdi cionalmente
ĠAgra de
Ġde pre
Ġdecir le
Ġconduc tores
m ec
Ġdes tina
Ġhemisfer io
ĠMar y
ĠFamil iares
Ġinde fin
Ġseleccion adas
Ġblan da
Ġes encialmente
a k
p ales
ĠON U
ĠSer ie
ĠF recu
Ġins tante
or mo
ĠmÃºs icos
u ginosa
Ġ12 7
ĠFÃ© lix
Ġejecu tar
iladel phia
T AL
Ġmanifes tarse
id Ã³n
Ġsurg ery
ec om
ĠMEN OS
Ġr Ã©c
Ġfin alizaciÃ³n
Ġfa una
Ġmitocondri al
Ġpar ches
cin g
Ġcumpli endo
lÃŃn ico
ĠCOMP OSI
Ġsi guieron
Ġhemorr Ã¡gico
ĠN EGA
ĠMe t
Ġmar ch
Ġol ig
ĠDig ital
d x
Ġc ese
crip ciones
TI TU
r arse
ĠM IC
Ġhipo x
Ġintelec tuales
ĠTrin idad
estig os
Ġredon de
Ġdis tor
ĠAlcal Ã¡
Ġmete or
ĠAs ocia
Ġdemos trando
on ÃŃa
Ġtom en
Ġcontrib u
Ġdomin ios
o ur
Ġcru zada
Ġindu cido
ĠVirgin ia
ĠG or
Ġpreval ente
ocitos is
ĠLab oral
Ġcu ras
Ġmos tr
Ġerrad icaciÃ³n
Ġrequer ida
Ġaci dez
Ġau tista
Ġtu tores
Ġnar co
ec tasias
N D
Ġbo x
ag ue
ĠZ el
iz os
ĠD osis
ĠAl ba
Ġinfec tions
form es
UE L
N H
ĠS Ã£o
ĠDes car
Ġn ula
Ġsub tipos
ĠIN M
Ġab uela
Ġhe matÃŃes
Ġsoci almente
Ġindi cios
j amos
ter m
Ġan ces
ĠLabora torios
Ġinjer tos
Ġaten didas
Ġfal sas
ĠG S
Ġmonta je
g lu
ĠL ID
Ġapoy os
ĠCalder Ã³n
Ã³ p
Ġco bra
Ġconten gan
ĠSo to
Ġpau tada
ĠUni ted
Ġdis tancias
Ġ19 50
Ġdesa perci
ud ina
Ġmunicip ales
Ġdiet Ã©ticos
T IN
Ġcent ran
Ġhep Ã¡ticos
Ã³ j
Ġv ello
trop ina
Ġhemodin am
ran go
Ġsilic ona
Ġrefu gi
K g
Ġser ios
ari Ã¡
Ġta pon
ucle ar
ĠR AM
Ġcal mar
ĠC res
Ġac Ã¡
Ġexig encia
Ġcamis eta
Ġprolon gados
Ġparenquimatos a
Ġmon e
Ġotor gado
Ġmil los
Ġadvir tiÃ³
il lan
Ġposicion amiento
Ġtum oraciÃ³n
Ġdesarroll en
isti endo
d ones
Ġor bi
Ġap las
ana hor
ĠT L
Ġinterfer Ã³n
Ġmedi ada
Ġconfiden cialidad
ĠpÃ©lv ica
Ġpol Ã©mica
Ġmal formaciÃ³n
menopÃ¡us icas
ĠPro ceso
Ġvoc ales
Ġlin k
Ġllan to
Ġcefal orra
ĠPalia tivos
Ġs Ã©ricos
EC CION
Ġdemo grÃ¡ficas
ĠÃ¡n gel
ĠExper tos
Ġbene fi
Ġfec undaciÃ³n
ĠNor th
Ġl iso
Ġcon ti
Ġinm ensa
Ġense Ã±a
ĠAndalu za
ĠaÃ© reas
Ġ12 2
an ina
Ġo xi
Ġtrascen dencia
Ġve an
rig ht
Ġad yacentes
Ġrepres entado
he d
ar tria
pues tamente
Ġsuces os
Ġcol ch
Ġgluc ocortico
Ġhipo gluc
Ġalter ado
Ġpat Ã³geno
Ġto po
ĠG las
Ġperci ben
â ī
Ġ12 1
Ġevit arse
ĠLuc as
Ã¡ cido
ĠCar cinoma
Ġoftalm ologÃŃa
Ġvacun ados
Ġresal ta
Cu Ã¡n
ĠPER O
ĠPsych ology
ĠRepres ent
ĠH ill
k el
ĠME J
Ġab dom
Ġa mo
ti empo
Ġ12 9
ĠHab lamos
Ġginec ologÃŃa
Ġinci dentes
Ġfabr icar
iv ing
ĠTera pÃ©u
Ġcri men
Ġcine mato
Ġabs ur
Ġpau tado
ĠCate dr
Ġalgor itmos
ĠX II
Ġpros pecto
OG RA
Ġs tu
Ġcuchar ada
didi asis
ach os
Ġimplan tado
ul oso
ĠEl ab
Ġs core
apro pi
mp a
Ġpa ga
ĠAn dro
Ġinmun izaciÃ³n
ĠAs s
Ġmanifes tar
Ġalve olar
ĠH P
ĠDes arrol
ĠIntens iva
Ġcre ÃŃa
Ġhacer nos
os amente
pra mida
ĠïĤ ·
ĠmÃ¡ ximos
Ġcl ic
bas ed
Ġesque leto
ĠTOD O
Ġmeas ure
Ġcombin ados
ĠAlim entaria
Ġme dalla
Ġla tidos
Ġmalign idad
ĠPh iladelphia
tim amente
cre di
ĠPR EV
Ġprofesor ado
Ġtransmi ten
Ġobliga torio
Ġinfraestruc turas
Ġbrad icardia
ĠAs untos
Ġsir viÃ³
ĠR itmo
Ġllev arse
ke y
Ã¡ce as
Ġdefen dido
lic e
Ġextra celular
ar le
Ġmi er
Ġexud ados
ci osa
man as
Ġinfec tado
ĠA EMPS
Ġtor rente
Ġeviden ce
ĠGra m
Ġlimp i
Ġlibre mente
Ġsal ario
nos is
Ġoc cipital
ĠB au
ĠFer ia
Ġsensi bilizar
n to
ĠCor tÃ©s
Ġnovedos o
Ġri f
Ġco pi
Ġmer ecen
Ġlar inge
ï¿½ ï¿½
Ġceb olla
Ãį AS
ec tomia
Ġ12 4
es i
on io
ĠfÃ³s iles
ĠA INE
ĠLe uc
ĠC ENT
Ġpon go
Ġafec tos
ĠEsper amos
I QU
tur ados
Ġlig ado
led ge
ĠIn terior
Ġbas ed
Ġcoleg iados
ĠProtoc olo
Ġconoci Ã³
Ġayud Ã³
um ina
Ġcompar aciones
Ġcardio pulmonar
Ġacab ado
ĠEnfer mera
Ġevolu ciona
Ġaconte cimiento
Ġestu ve
ĠHon or
Ġenfis ema
Ġex pos
Ġdeci dieron
Ġlan zÃ³
Ġde gluciÃ³n
arc os
Ġcivil es
Ġapop tosis
P acient
era peu
Ġulcer osa
Ġcar encias
bl ia
Ġesta tura
Ġfac tible
ĠðŁ ĺ
ĠInter territorial
ĠTu berculosis
Ġes can
Ġu ma
Ġub ica
ĠsÃ³ dico
ec Ã©
Ġmanip ular
ĠT AR
IL I
ĠHer ida
Ġexpec tativa
Ġtel es
Ġcontra tar
ĠÃīs ta
A CI
Ġaconse jar
Ġconfun dir
uel to
Ġrevis aron
Ġdisminu ida
Ġsatur aciones
Ġbo dy
r ue
Ġs Ã©ptico
ĠP ier
de fin
Ġab uelos
Ġacces orios
Ġagru paciÃ³n
par te
Ġecu aciÃ³n
ĠDismin uciÃ³n
F G
Ġpeligros as
Ġsofis tic
ev al
ĠBar re
Ġabsor be
Ġmon os
Ġfil trado
Ġviv encias
Ġrepas o
Ġhip onatremia
t oles
Ġn ursing
TER IOR
Ġrestaur ante
ĠH OR
Ġaplic ados
uestion ario
pl oma
Ġpropon emos
ĠProb ablemente
ĠTrad icional
Ġin como
ĠmÃ¡s ter
Ġevolucion ado
ĠL eo
mer ia
Ġendocr ino
Ġsens acion
ĠvÃ¡l ido
ĠCh Ã¡vez
toc lo
O Y
Ġpun tuales
Ġencontr ada
Ġmetod ologÃŃas
M OS
Ġ* **
Ġclasific an
ÃŃgen a
ÃŃn ea
Ġba Ã±os
Ġcomplement ar
Ġcalci ficaciÃ³n
ur ar
Ġcolabor ado
ĠtÃºn el
ĠO ne
Ġinici aron
Ġton el
K G
z ono
ce do
Ġactu ando
Ġagu jero
Ġuro cultivo
ro mo
Ġd anza
Ġpor tadora
ar ch
ĠS igue
ci ence
Ġm ech
Ġpe trÃ³leo
par tÃŃculas
Ġarmon ÃŃa
Ġrar amente
Ġt ela
Ġarri es
ĠCog ni
Ġdes eas
Ġas tro
Ġresuel ve
Ġapr ueba
ĠMar ÃŃn
ĠDro gas
tor nos
il y
ĠB Ã¡sica
ĠVir tual
Ġpopular idad
Ġmus eo
ĠAden o
Ġro bus
ĠSue Ã±o
Ġrefle jar
D eb
ĠOf re
Ġan Ã³n
T V
ĠRad i
ĠaÃ±a den
2 123
Ġfor zada
gan o
ĠTer cer
ari lo
TR UC
Ġase ver
Ġenorme mente
tra je
Ã¡s icos
Ġd adas
Ġdar Ã¡n
Ġma Ã±
Ġinform ada
Ġk now
Ġcoci ente
Ġma ta
ĠAcudir Ã¡
ĠC AB
pro tecciÃ³n
end an
ĠRe producciÃ³n
Ġproteg ida
ĠEstra tÃ©
ĠtÃ³x ica
ĠMedi das
Ġll orar
Ġentren ar
Ġvej ez
Ġac ero
val ente
CION AL
ara gua
ĠGonz alo
person ales
Ġidentific adas
Ġcoher encia
Ġsin cron
ĠJ en
ve da
Ġprevis tos
ĠHos p
no va
ĠNeg ro
Ġproces ados
di ll
Ġcompar tida
mus culares
nes ia
ĠOrden aciÃ³n
ĠInici almente
Ã³ meros
Ġc res
ĠE EG
Ġol vido
gÃ©n icas
ĠCon oce
ĠautÃ³ c
Ã¡c til
Ġprote gen
Ġpas aba
Ġdescon ocen
cer eb
2 50
Ġdenomin adas
Ġeti quetas
Ġencontrar Ã¡s
Ġofici o
tÃ³ pico
Ġnervios ismo
y an
id urÃŃa
Ġlle guen
G C
Ġtit ulada
oci o
ĠAN AL
Ġdep ilaciÃ³n
Ġdeba tes
ac ruz
Ġhay as
Ã¡ logo
ĠMa tanzas
Ġmoder nas
Ġpes a
ĠVi go
Ġcon tun
Ġin vita
Ġlu br
v estig
Ġdar les
Ġjur is
Ġrevel ado
Ġautom Ã¡ticamente
Ġinterpre ta
ĠON CE
ĠVe ter
Ġdistribu idos
Ġh echas
Ġf Ãºn
Ġsepar adas
ol ÃŃticos
as i
Ġdeci mos
Ġo clus
ve t
ĠMunicip io
Ġb rillo
Ġdesencaden antes
Ġexperim entaciÃ³n
ĠLi bre
un ciones
ĠNuev os
" ),
Ġdescom pens
ĠVer de
ĠSex ual
ĠTe orÃŃa
Ġsuperviv ientes
ĠActu alizaciÃ³n
Ġtesti monios
Ġcorticos teroides
Ġayudar nos
Ġestimul ante
r ida
ĠV idal
Ġpermi ti
Ġparticip ando
Ġvia jeros
Ġsal va
ĠPal acios
Ġbols illo
Ġdiur Ã©tico
Ġhe m
ĠTra tado
Ġsepar ar
Ġth ose
Ġad renalina
ĠCon ten
toclo pramida
Ġanal y
ĠalÃ©rg icos
ICA CION
ĠIncl uye
Ġp icos
ir s
ca t
Ġapoy ado
Ġfas cin
Ġla tente
Ġpractic an
Ġayudar le
IO TER
Ġf osfato
ĠseÃ± ora
Ġag ran
ĠI RC
Ġcorre la
ĠG C
ĠMa te
ĠtÃŃ picas
Ġpas tilla
Ġinvoluc ra
ĠE QU
Ġvisit ado
Ġus Ã³
ĠRec ons
ĠIm mun
Ġtecn olÃ³gicas
ĠsimÃ© trica
ici das
ĠQu is
Ġfir mas
Ġt amb
olo til
Ġben Ã©
Ġdis cal
Ġdo bl
Ġru tinas
Ġvag inales
Ġcompar ada
ĠA ur
ĠEduc a
Ġcefalorra quÃŃdeo
ĠM ez
ĠB U
Ġrecomend Ã³
Ġap res
Ã³s idos
ĠCom pro
Ġch ino
Ġenerg ÃŃas
ĠC li
ĠS EP
Ġevalu ation
ĠSe guir
.. .
Ġinde se
ĠovÃ¡r ica
Ã¡s trica
ĠN u
Ġfundam ento
ĠSE F
Ġcircula torio
Ġo ch
Ġdel itos
Ã³ tidos
Ġloc alizadas
Ġjubil aciÃ³n
AR ES
erra t
Ġocci dentales
Ġhacer me
Ġobserv ando
Ġsub e
Ġ> >
me t
Ġtermome trada
Ġsar co
i tiva
ĠC uen
divers idad
fi anza
Ġconfirm ada
N S
Ġin apropi
ĠR ÃŃos
Ġderro ta
Ġacerc amiento
Ġafec tivo
Ġanti f
cion ados
Ġtama Ã±os
Ġrazon amiento
Ġcri anza
Ġpoder oso
Ġincomple ta
Ġvoluntar iado
Ġlum in
al b
10 6
Ġrefer ir
ĠSN G
Ġrelig iosa
Ġes mal
ĠPers iste
Ġapar ezca
ĠM V
Ġdon ar
ĠÃļl tima
Ġsuf ra
Ġelabor ada
Ġre bo
us ter
Ġsolici tan
Ġenfa tiz
u era
Ġmoder n
Ġaban ico
ĠHol anda
Ġgu iada
Ġcan to
ci era
ĠN F
ĠNor mo
ĠANTICOAGUL ANTES
ĠZam ora
ĠC RE
Ġtur nos
S on
ac ta
le u
ĠT ron
Ġerrad icar
Ġcon tenta
Ġun ida
Ġescal eras
Ġtrans port
Ġperio pera
Ġg re
Ġz anahor
ĠSeÃ± ora
d ina
pro p
Ġflan co
Ġg ase
Ġabund ancia
Ġasesina to
Ġtit ulaciÃ³n
Ġ14 4
o u
Ġas citis
ista g
Ġla go
ĠEspecial idades
Ġmultidiscipl inario
Ġneg ras
Ġest om
Ġpes cados
fil axis
ĠH ues
Ġmon tÃ³n
Ġcenten ar
Ġfin as
Ġexpe diciÃ³n
tric ciÃ³n
Ġllen ado
Ġemple Ã³
%) ;
Ġanti bacteri
ĠExper iencia
Ġreempla zar
Ġproce den
ĠAs esor
ĠGar cia
rag on
Ġprolon gaciÃ³n
Ġsuges tiva
Ġentre gado
ach us
ĠH odgkin
oc aciÃ³n
Ġmam ario
Ġsustan cial
ÃŃcl ico
Ġir rig
Ġtra umatologÃŃa
Ġloc alizados
Ġc able
ĠM II
Ġt rea
Ġazul es
Ġconec tivo
Ġval le
Ġadop tado
? :
Ġdoctor al
Ġtendr ÃŃan
Ġacces os
ĠA vis
Ġcoordin ar
Ġplie gues
ĠÃ³r bita
Ġgru pal
ĠCas as
Ġinmun olÃ³gica
Ġindustri as
IB LE
ĠES C
Ġen cen
Ġs tress
Ġvia ble
Ġoper ados
Ġman d
Ġe mail
ĠC CAA
Ġca deras
AT OR
Ġde vas
ĠM UC
ĠF inal
ĠcompaÃ± era
f s
Ġpobl acionales
um as
ĠSil via
ĠL im
Ġme la
Ġfo und
ĠAs tra
Ġven ÃŃa
ĠS ED
Ġinfec tada
ol l
Ġalterna tivos
Ġcul min
tÃ³n ica
Ġno dular
ĠE II
la y
Ġcuan tificaciÃ³n
TA CION
je je
Ġmol de
Ġsemej antes
ĠDIA GN
os ina
iz arse
Ġcigar rillo
ĠT reatment
ĠH ULP
ĠImp lan
Ġdes o
ĠCur s
Ġhier ba
Ġen com
om b
Ġer up
vers ibles
Ġejemp lar
Ġanos mia
Ġla tÃŃn
Ġcontr ala
ĠDipu tados
ĠAP L
Ġile gal
os ter
ES A
U FICI
l uen
ĠN orma
ĠPas tor
Ġrutin aria
el ing
po fol
ĠP f
IC AM
Ġmicro c
Ġpais aje
D C
ĠT O
Ġprom ueven
Ġca ÃŃdo
ĠEdi ciÃ³n
Ġconjun tival
Ġresid uales
Ġin a
Ġcuer das
ĠSin dica
Ġpal a
mon ella
ĠClÃŃn icos
Ġdisfun ciones
ĠMS D
ĠMÃī TO
ĠN adie
U Y
Ġdivi den
ĠCol e
Ġras go
Ġsul fato
tiv ar
in sa
Ġampli os
Ġprefer ible
ĠSec tor
ĠInform Ã¡tica
ĠEn gl
inas a
Ġdeleg aciÃ³n
Ġca udal
Ġad quieren
Ġti p
Ġab on
ĠA com
Ġabs cesos
Ġotor gar
Ġman guito
Ġsecre tos
Ġch amp
Ġtransi torio
olog ic
Ġvie jos
ĠRo jo
Ġefectu Ã³
Ġinmun itaria
Ġpers igue
Ġj ardÃŃn
tens a
tri es
Es tamos
Ġrum bo
ĠMicros oft
ar ma
ĠM ET
s car
Ġauton Ã³mico
Ġcatal Ã¡n
ĠOcci dental
ĠJ aco
Ġome prazol
ĠlÃ¡gri mas
ĠW C
in ea
Ġgrad ualmente
Ġmedi do
Ġbar rios
ĠlipÃŃ dico
ĠGuz mÃ¡n
ĠT SH
Ġexpuls iÃ³n
di lla
Ġpobl adores
ĠCor ea
bloque antes
Ġdivi dir
ĠAc osta
ĠPri eto
Ġyug ular
Ġofre cido
ĠSER VI
Ġdi es
Ġcos tado
Ã¡g icos
ĠP AN
d t
e cidos
aci Ã¯
Ġre mun
Ġdi ger
Ġcereb el
Ġmonocl onal
Ġdes ier
f ru
ĠCur r
Ġp Ã©ptidos
Ġin na
Ġmis iones
ch em
Ġsol itario
Ġcier ra
ĠPres u
ich ia
ĠCr isis
Ġremi tir
ci tado
Ġneuro pÃ¡tico
Ġa eros
Ġguar dias
ic ado
Ġpres s
r ante
g rim
ĠB oy
Ġo puesto
ĠEL A
P s
g ing
ĠC ADA
ĠInf orma
ĠUsu ario
m cg
D el
Ġargen tino
Ġesta tales
ĠF ID
ĠhÃ¡bi tat
Ġdesemp leo
Ġrefi riendo
Ġtempor adas
Ġpr en
ĠCa ixa
Â® ,
Ġcla u
traque al
eta mina
Ġenten dimiento
Ġfigur an
pe ar
Ġreg lam
Ġcru z
Ġpermi tieron
ĠAus cultaciÃ³n
ay os
Ġdeleg ado
Ġfer ritina
Ġexpor taciÃ³n
b aci
it ch
Ġsol as
ĠI Z
Ġmo di
Ġlimi tan
ĠLi mp
ĠPreven tion
f ias
Ġbe havi
Ã¡ Ã±ez
Ġsemil la
Ġbenig nos
o us
Ġvan comicina
in er
15 1
Ġpas eo
Ġprop Ã³sitos
Ġnec ro
ĠAc ta
7 00
i mia
Ġsobre vida
Ġinici arse
Ġhomeo patÃŃa
Ġcal ib
ĠIg M
ĠHu go
Ġab ren
Ġcon fes
Ġpre eclampsia
ada p
Ġdud osa
b Ã©
ici da
Ġqui ta
Ġpel os
ĠSer ra
Ġur banos
ĠDoc tora
ĠC asta
ĠIg E
ĠQuer emos
ĠÃ³v ulo
Ġper didos
ĠPa pa
pla tino
di acep
Ġpreli minar
Ġinterac tuar
Ġrepor tes
Ġcampe onato
Ġ \
14 6
Ġdue Ã±o
Ġavi ones
ĠPres idencia
emb ol
ĠRub Ã©n
Ġenf ri
Ã¡ til
ĠEupne ica
tan ce
Ġregis tran
ĠBer lÃŃn
S er
ĠB ig
Ġcre es
ges tas
Ġseleccion ada
brid ge
Ġm Ãĥ
ĠS IM
Ġplan tillas
Ġidentific ada
ĠaminoÃ¡ cido
TR ACT
ĠP inar
Ġentusias mo
Ġdes ple
Ġprepar aciones
ĠÃŃn tegra
Ġcomple tado
Ġestira miento
Ġalmacen ar
Ġn Ã£o
ĠPr ÃŃncipe
Ġdur ant
Ġsegu idas
Ġdiscapaci dades
adr Ã³n
AC O
Ġcontrib uciones
Ġami lo
ĠBen ito
Ġlipo proteÃŃnas
Ġnue ces
b ara
Ġdo tar
Ġcontinu as
ĠM IS
ĠR EM
Ġobes ity
ĠConven io
Ġque mar
Ġci lin
df ul
u z
tu osa
ĠApar te
j i
19 97
Ġintegr ados
am icina
B arcelona
ĠB Ã©lgica
ĠRe ferencia
Ġpregun to
Ġpregun tÃ³
Ġdeb u
ar trosis
Ġpa gos
Ġdex ametasona
Ġpas ivo
ID AS
ĠConf lic
ĠV ers
Ġau ge
Ġhemorr Ã¡gica
ĠRies gos
Ġver Ã¡
ĠOl ÃŃmp
Ġre tiro
ĠB rig
Ġsitu ados
N OS
Ġagra v
is tics
Ġdivi dido
Ġex hib
Ġindic aron
Ã©r mico
rig in
ĠEn er
ĠX I
Ġen marca
Ġsurg ido
Ġcarcin omas
Ġest Ã©s
ĠSci ences
Ġcateter ismo
ul ario
Ġcomen zando
Ġperiton itis
Ġban dera
Ġhidro xi
p ad
ĠColeg ial
ĠCONCLUS IÃĵN
Ġinterven ida
de ri
Ġtom ada
Ġdespren dimiento
Ġins istido
ad yuvante
ĠS es
u ga
ĠB ran
Ġpres ion
Ġ19 61
ĠPro por
Ġmedicamentos as
Ġdemos traciÃ³n
Ġpic aduras
Ġrespon diÃ³
ve lo
ĠSalud os
cÃ³ picas
Ġalterna tivo
Ġarteri ales
ĠTra tamientos
ĠH OSP
Ġprecis ado
Ġinstitu cionales
ĠCu idado
v ari
Ġrobo t
Ġaum entos
ĠA dap
ion istas
Ġimper fec
ĠFac tor
n ivel
ĠG E
ton os
ĠG old
Ġbien venida
Ġdeber es
osa u
Ġexplic ando
tr ona
Ġ19 74
Ġacum ular
Ġcump la
o fo
ĠFis iologÃŃa
ĠðŁ Ļ
r Ã¡s
Ġa min
man tes
ĠP N
Ġampli as
Ġgranul oma
Ġle e
ĠEspin osa
Ġsal sa
th al
pas a
Ġabord an
ĠlÃ¡ tex
Ġanas tomosis
ĠCon clus
Ġfirm ar
t ÃŃan
Ġorigin almente
ĠFil osofÃŃa
ĠConoci miento
Ġaplic ables
omÃ© trico
Ġecos istemas
n on
Ġap Ã³sito
ĠB lando
Ġbronco espasmo
17 58
ĠAn estes
ger y
for t
g Ãº
Ġpro hibiciÃ³n
ĠUTIL IZ
Ġenti enden
ÃŃri tus
S o
ĠABS TRACT
Ġpa tria
ex iÃ³n
ĠpsiquiÃ¡ trico
OL ES
Ġreac cionar
ĠO per
Ġaer uginosa
ĠDepen diendo
Ġsolu ble
Ġfamos os
ĠS ÃįN
Ġefectu ado
Ġde ter
Ġpl ur
Ġjus ta
Ġro edores
f umador
Ġadap tados
Ġfo od
ritis h
ĠMarg arita
Ġinci de
T T
Ġtom adas
tin amente
Ġdar nos
dar ona
Ġpare ciÃ³
isti an
ĠplÃ¡s ticos
ĠP le
ĠEn tero
Ġex tras
ĠM Ã³nica
adr ado
Ġa ga
Ġbre ves
Ġl una
AN E
Ġaspir antes
C omo
Ġrecib ÃŃan
Ġsymp tom
Ġvalor able
g ologÃŃa
ĠMar c
es tad
Ġdetermin aron
ĠAns iedad
I E
Ġa tero
mo ide
Ġconsidera ba
Ġa ulas
Ġh erv
ĠAmbi ental
ĠO MC
U TR
Ġadministra tivas
u idas
gan os
paci entes
fr ÃŃos
Ġg all
Ġsustitu tivo
tiaz ida
Ġcons istiÃ³
ab ra
Ġpre cur
Ġapas ion
Ġexten dida
Ġhil os
Ġp ra
Ġval idado
qu ido
Ġapor tado
Ġsolid ario
Ġindi que
b ene
Ġuter ina
ĠautÃ©n tico
ĠCon tr
quirÃºrg ico
Ã¨n cies
ĠG aran
Ġpre cedentes
Ġserv irÃ¡
Ġconseguir lo
Ġu ve
ĠCin co
en co
Ġocurr encia
Ġcapit Ã¡n
Ġgastroenter itis
ber os
ĠGu ad
S F
S EC
Ġpro visiÃ³n
ĠB ir
Ġ19 73
Ġsuce diÃ³
ĠgrÃ¡ ficos
ĠMÃ¡r quez
Ġintraven oso
Ġespeci fica
Ġdetermin e
Ġcardi orres
Ġoscur as
Ġa que
ĠHi p
Ġa is
Ġinf rac
ĠdiseÃ± Ã³
Ġinsul in
ĠJ E
Ġta bi
CI OS
ĠMo tivo
Ġc aj
ĠP TH
ĠFin anci
Ġbuc ales
Ġdibu jo
Ã© ter
th s
Ġhidra tante
ĠBR CA
Ġperiton ismo
15 7
ICI NA
vil le
Ġaden oma
Ġob viamente
Ġri val
ĠTo xic
Ġubic ados
Ġreg ÃŃmenes
ĠAp ple
Ġre plicaciÃ³n
Ġreci ban
Ġprecis os
ĠDer mat
Ġprevis tas
ĠR ece
Ġinf usiones
Ġjun tas
Ġgra baciÃ³n
Ġcoloc an
ĠAn derson
Ġevalu adas
Ġcompos itor
Univers idad
Ġnaci mientos
Ġde ath
rec ciÃ³n
Ġart ÃŃstico
Ġti ros
Ġ24 0
terapÃ©u tico
h it
gan da
ĠY A
Ã©c tor
ĠPres encia
Ġexces ivamente
ĠMATER IAL
Ġmi diÃ³
ĠSus ana
Ġfin o
Ġactiv an
Ġre genera
Ġser ologÃŃa
Ġpres crito
Ġpare cida
Ġmela tonina
Ġp irÃ¡mi
Ġpes ados
Ġdin am
Ġreun ido
Ġdesign ado
Ġper u
cons ultado
h tt
tic es
Ġrestaur ar
ĠTur ismo
ĠP seud
Ġcaus e
C or
Ġrespon dieron
ĠLi tera
Ġex ca
Ġlle ven
EP OC
g et
ul ador
Ġci ones
C AR
ĠE van
Ġsu puestamente
Ġromp e
P F
mo to
Ġurg entes
per idona
Ġcin tur
Ġsi tÃºan
Ġus adas
ĠsobreaÃ±ad idos
Ġme tan
ht m
Ġacep tables
ĠtrÃ¡ mites
Ġtrasplan tados
u mp
ord ina
Ġse mb
oc y
ĠG y
ĠIn dex
Ġdescrip tiva
Ġaltern ando
Ġt estigos
ĠR O
Ġcereb ros
Ġproce diÃ³
Ġterres tre
Ġprogram ado
Ġappro ach
di litis
is ter
Ġhig her
Ġex pensas
gn a
ĠIns trum
Ġari lo
ĠIV A
l x
ila tes
Ġcono zca
Ġconec ta
Ġinvis ible
Ġcal Ã³rico
Ġpar am
ĠAl merÃŃa
Ġfil Ã³s
Ġsu ch
Ġfu ma
far ina
pi demia
ĠMay ores
ĠCu anto
Ġv enci
ĠCom paÃ±
is io
ĠT echn
Ġl echo
ĠW est
Ġexitos o
g ren
Ġconsum ido
Ġti mp
Ġher nias
h ol
Ġestr Ã³geno
ĠU GR
Ġregis trada
te ch
Ġambul ancia
ĠB ase
Ġmes o
ĠHol guÃŃn
Ġbotul ÃŃnica
ĠDes tac
Ġciudad ana
Ġsos tener
Ġempren der
ti t
Ġgen Ã©rico
Ġapro bar
ĠSin trom
ĠmÃ¡ ximas
Ġno tado
Ã³r denes
ti er
Ġh ia
ĠN H
ĠMon ts
Ġconjun tos
s ter
Ġpla yas
Ġenvi Ã³
Ġver lo
Ġestu pen
ĠcongÃ©n ito
Ġape go
Ġv on
xi mi
Ġintra muscular
Ġn utr
Ġinter rup
ĠCom por
Ġdese ados
ĠElec trÃ³n
cl as
Ġmusculo esquel
oxa parina
ariÃ¡ trica
Ġgu antes
d olor
ĠH am
Ġignor ancia
ĠO ut
Ġbenefici osa
ĠfÃ¡ brica
UFICI ENCIA
tos copia
is iones
Ġcuan tific
ĠDesta ca
Ġabsor ber
Ġprecur sor
ĠrÃ¡p idas
Ġcompu tadora
ĠLe er
ĠhomogÃ©n ea
ĠPER SON
Ġcep illo
tras plante
Ġdistrib uir
Ġadj unta
ĠHel icobacter
M ED
ĠmÃ© ritos
Ġangio grafÃŃa
ĠEn dos
ĠAn estesia
cardi ograma
Ġcal ambres
Ġher e
educ aciÃ³n
ĠG im
ov igilancia
Ġth ree
z ante
ĠG eron
Ġextra Ã±a
ĠS panish
Ġrela jar
ĠglÃº teos
ĠRe fer
Ġfun ction
Ġpes quis
Ġencan tado
ĠPaÃŃs es
ĠTOD OS
Ġin oc
Ġfor tuna
der ly
Ġ19 62
ĠPe ar
bun ales
Ġnovel as
dful ness
Ġf ul
Ġdiver tido
Ġinstaur aciÃ³n
Ġsu ya
Ġves ÃŃculas
Ġatravi esa
Ġproxim idad
Ġmon tar
Ġdocum entado
ĠMass achus
Ġadver tido
V ER
ur se
Ġaprovech amiento
Ġsa ga
Ġno via
Ġalem ana
ĠHon duras
Ġque den
ĠP AL
Ġcor o
ĠGer iatrÃŃa
Ġtra cciÃ³n
ĠBio Ã©tica
ĠF J
Ġmejor e
Ġmens uales
Ġexig en
Ġconven cer
ĠCuen ca
Ġcar tu
EM AS
ĠcÃ¡n ula
F ran
Ġaf inidad
Ġnum ero
Ġpreju icios
ĠE VA
Ġesc alo
ĠC AD
Ġgan ando
Ġmencion ada
Ġdes h
ĠK ra
Ġhom oci
Ġempres ario
Ġregular idad
cl ÃŃnica
Ġtu vieran
ĠV IS
Ġsab ores
Ġcomprob Ã³
m Ã³
Ġquer idos
Ġestric ta
ĠCor tes
ĠAb or
Ġasi ento
Ġtin ciÃ³n
ĠF ol
Ġpre gn
Ġiden tif
Ġpol y
par tment
Ġdistin gue
und ante
ĠA guirre
Ġr ent
Ġexhaus tivo
ĠF om
ĠProb able
Ġris a
Ġinde mn
R NA
ĠA por
Ġpercep ciones
p id
Ġbenefici arios
ĠQT c
Ġnorte americano
s ol
Ġesc lav
Ġdiafrag ma
que tado
Ġv uestras
Ġpar cel
form ance
Ġestimul an
T IS
ĠC IV
Ġcoron arios
Ġantipsic Ã³ticos
j ol
Ġger men
cher ichia
Ġal iado
ĠJul iÃ¡n
ĠH Ã©ctor
Ġco oper
Ġelimin an
S ervicio
ĠC lo
Ġam en
Ġtraum Ã¡tico
ĠA gosto
Ġca z
Ġcromos Ã³micas
Ġgener alizadas
Ġ19 68
ĠB ill
ĠanÃ¡ logos
iz aron
ĠCon venciÃ³n
Ġrefi riÃ³
Ġres ume
ĠH all
Ġmi den
Ġcap tar
Ġpost grado
Ġdis olv
ĠNeona tologÃŃa
Ġaproxim ada
omÃ© trica
Ġv ÃŃs
abell Ã³n
Ġt ari
Ġd ys
Ġantiinflama torio
ĠB rus
ĠS un
Ġmen tira
ĠCastel lÃ³n
Ġmens aj
Ġin venciÃ³n
Ġins trucciÃ³n
Ġbio tecn
ĠVita mina
aca te
pan y
Ġcuantita tiva
ĠG lor
Ġof ens
Ġleg almente
Ġen ce
ĠP ic
Ġhe art
Ġma in
ĠI vÃ¡n
Ġpas amos
ĠFE V
Ġres istance
Ġro cas
15 6
com un
tÃŃcul a
ĠEX PL
Ġ- ,
Ġinci dir
Ġe arly
Ġre posiciÃ³n
Ġus aron
en g
ĠMar cha
Ġrela ta
Ġco difica
ir as
ap pa
ĠNE UR
Ġemi tido
ĠB E
ĠG M
ĠRev olucion
Ġc usto
Ġincrement ando
Ġeval Ãºan
p ing
ĠF EC
Ġacep tada
Ġconcili ar
ĠN ursing
ĠPro yectos
Ġculp able
Ġllev ados
Ġsuf rieron
Ġresul tando
ĠT EC
Ġthro ugh
Ġcor rig
ĠJu ventud
Ġmo tilidad
gres iÃ³n
lo y
ĠOr top
Ġpion era
Ġrecom pensa
Ġdemo grÃ¡ficos
Ġdur os
ĠhÃŃ br
Ġapare cieron
Ġanormal idades
Ġalter an
10 9
Ãł s
ĠC AT
ĠU p
Ġsab idurÃŃa
mor e
Ġinten ciones
ĠMemor ia
ÃŃ e
Ġdi rÃŃa
Ġpreserv ativo
Ġ ud
Ġindirec tos
n el
Ġd ual
ĠP O
ĠI sa
gu aje
Ġban c
Ġcompet entes
ĠCon ci
Ġlipos ucciÃ³n
ti us
om i
Ġtoler ado
fÃŃs ica
ĠL egal
Ġevolu cionar
estim ulaciÃ³n
ĠAl ma
Ġmetod olÃ³gica
Ġfia bles
Ġsu ena
ĠM ÃŃn
Ġpon gan
ĠpolÃŃ mero
ĠC ES
ĠD IF
Ġpropens as
ĠAGU DA
s tru
ĠD OS
di to
Ġcabal los
ĠA ri
ĠEs pec
Ġsuper mer
ur go
Ġas pira
ĠPlan ificaciÃ³n
Ġhuel la
erop enem
des arrollo
pira torio
ĠME TO
Ã© lite
Ġdescen dencia
Ġmejor amiento
Ġvacun ar
Ġfo i
n ec
Ġconmem ora
Ġac ro
Ġjus tificaciÃ³n
Ġsum ado
ĠHig h
Ġpublic aron
Ġpade cido
Ġir Ã¡n
Ġvig entes
Ġmir ando
cion ante
ĠCÃ¡r denas
Ġo val
ca te
Ġneb ul
ĠA ir
Ġdi anas
ĠG om
oro este
ĠDomin icana
Ġinconven iente
Ġacab Ã³
ĠPolit Ã©cnica
Ġc lopidogrel
Ġinf rar
Ġpal ma
Ġhidra tada
Ġtelef Ã³nicamente
v uls
ĠH AS
Ġle gi
Ġprotoc ol
Ġal gas
n iciÃ³n
lex iÃ³n
ĠPu ig
Ġlaparos copia
Ġcorro bor
Ġfarmacocin Ã©tica
in ares
ĠHi jo
ay as
Ġestable ciendo
Ġintrodu jo
Ġencontr ando
Ġintoxic aciones
Ġhipo xia
Ġconviv en
Ġexante ma
Ġdis oluciÃ³n
ĠPues to
fic acy
ill erato
Ġlu cir
ĠC OS
Ġhom olog
Ġmus los
Ġov ulaciÃ³n
Ġbur bu
Ġreum Ã¡ticas
Ġbar co
Ġvege tar
ĠJ ones
Ġp acto
Ġp istas
ĠA plicaciÃ³n
ĠA bra
Ġtu vimos
Ġgem elos
ir os
ĠPe da
Ġman tuvieron
aria ble
Ġtrabaj adora
Ġnervi osos
ĠRespon sable
Ġinforma tion
Ġsuces ivas
ĠÃĵ scar
w th
Ġrelig ioso
Ġtesti go
Ġmejor en
ag ro
Ġmad ura
Ġmuc osidad
m end
gr acias
Ġsin Ã³nimo
Ġginec olÃ³gica
Ġasi metrÃŃa
Ġlo como
acea e
k al
Ġtom arÃ¡
ĠDie z
ĠPubl ica
efec tividad
la gos
Ġingles a
rac k
Ġexci taciÃ³n
g ara
og a
an dos
AM E
Ġregres Ã³
Ġmar inos
Ġpul gar
Ġantivir ales
Ġfuncion ando
Ġapare ciendo
ĠP rÃ³tesis
Ġges tos
ĠEs ther
Ġdo tado
ler ÃŃa
Ã¡c ticos
UN D
Ġcuantita tivo
ĠhÃºme do
g ras
Ġenfer mas
ĠDi plom
Ġdes liz
Ġdirig entes
Ġba tal
Ġinflu encias
ĠBra zil
k is
Ġasoci aron
ĠK en
ĠInstitu ciÃ³n
Ġfrances es
Ġne gar
tÃ³n ico
ĠNic aragua
Ġhumil de
ul cor
cu Ã¡l
ĠPos ee
Ġvit alidad
Ġto xic
da te
Ġob vio
ĠLe w
Ġimpresion ante
Ġgener ados
Ġs chool
Ġvalor an
w or
Ġs orte
Ġarren damiento
ĠPa ula
Ġportu gu
Ġincre as
Ġrespec tivas
dis tas
Ġadquir idas
ci dades
tu ber
Ġcertific ados
Ġextir par
TO P
ĠMexic ano
Ġdis tales
Ġpon drÃ¡
ho od
Ġag lu
go ci
aj or
ĠCom posiciÃ³n
ap ren
Ġju gos
Ġcos tas
Ġven gan
Ġcer do
Ġarte fac
n ell
si empre
in k
alim entaciÃ³n
h ue
Ġesf or
ĠC B
Ġbo th
ĠCe cil
Ġes torn
Ġfe min
Ġdel a
Ġad ren
an dez
Ġfamil y
Ġque hacer
Ġindic adas
DR OME
Ġllam amos
Ġasign ados
Ġveci no
L AS
um entos
Ġexp uso
Ġameric ana
Ġtele fon
ĠL ÃŃ
ĠF Ã¡
ĠNe ur
ĠMana gement
un e
ICI O
Ġdesenca dena
ĠPedia tr
Ġaprovech ando
Ġcerem onia
s olo
ĠVacun aciÃ³n
z y
Ġbar ro
ĠWil son
n ic
olog ico
for e
Ġmeto trexato
on se
mi tte
ĠRe tir
Ġimpar tir
ĠO pin
Ġingen iero
z or
Ġalcan zaron
Ġlig a
Ġcosto fr
Ġestimul antes
ĠSi tio
Ġen marc
ĠS oria
ĠmÃ© xico
Ġestable cieron
enter io
Ġimpac t
N os
Ġesc ro
AD E
Ġescuch ando
Ġ22 5
Ġreconoci das
ĠBel Ã©n
Ġmostra ba
ma gem
ur ado
Ġma pas
Ġcontemp lar
he im
Ġpres tan
Ġwe ight
AR C
p enem
ĠImp acto
ĠanestÃ©s icos
Ġus ual
Ġdeform idades
Ġir is
Ġregis tradas
ĠA qu
Ġdeci dimos
Ġdenomin an
Ġases orÃŃa
Ġmicro gramos
ogrÃ¡ ficas
Ġparox ÃŃstica
Ġse destaciÃ³n
ĠDe amb
Ġelec trones
Ġcica tri
ĠPROC ED
ar tan
idad a
Ġafec te
Ġexpres amente
Ġepidemi olÃ³gicas
Ġen gan
ul i
Ġqued arÃ¡
Ġvalor ados
reg ulaciÃ³n
Ġreal idades
b able
Ġrealiz aba
ĠA Z
Ġti rar
Ġdef i
Ġgrave mente
ĠCam paÃ±a
Ġconfirm ados
Ġtransf usiones
EF E
v ela
ĠVer acruz
Ġrecuper ado
ist s
ĠPue blo
b ismo
Ġm ud
ĠT NF
Ġgalard Ã³n
Ġmu rieron
Ġtromb ocitopenia
er ciÃ³n
co ag
Ġdar te
pre dnisolona
OL A
ĠEspeci alizada
M L
ic on
Ġincu baciÃ³n
Ġbio ps
pol is
Ġcontrala teral
h oy
Ġb ec
Ġtonel adas
aliz o
Ġocup ado
Ġdesplaz amientos
Ġser lo
Ġle tal
Ġdestac ada
ĠGar rido
istÃ³ bal
dor as
Ġad or
Ġpu p
Ġsa biendo
ĠA mar
Ġenfo car
ĠJ r
Ġhici era
ĠLac tante
EN DE
od y
Ġfalle cimientos
Ġorient adas
Ġproges terona
ĠJ U
Ġapren diendo
ĠIn c
Ġvig encia
==== ====
Ġaus tral
ICI L
Ġconvoca torias
fic ada
h h
Ġeng loba
ĠDin amarca
e us
Ġanaliz amos
ĠEC V
d ul
Ġtrata mos
Ġperci bido
ĠCOMP UES
tab ina
ĠFarmac ologÃŃa
ĠIN TR
prin cip
Ġbrin d
ĠMer cado
O O
ĠAl cohol
a fec
Ġna taciÃ³n
Ġcalcul ado
Ġduer me
d ÃŃas
Ġses enta
s ive
Ġs arcoma
Ġautor izados
Ġbara to
m ullo
Ġpol ip
elas co
Ġrepor tÃ³
ĠPat olÃ³gica
en cy
Ã³ pata
rolÃ³g ico
Ġhermos a
ĠS ens
Ġdef unciones
Ġrecu biertos
Ġconstr uyÃ³
ĠMonts errat
Ġbor ra
. Â»
ĠI ll
Ġcur san
es table
Ġtri dimensional
Ġdescan s
Ġc Ã©rvix
cer v
Ġfin aliza
Ġcom entan
Ġevalu a
ĠinespecÃŃ fico
ĠsimÃ© tricos
ĠS ul
di tis
he x
Ġat enta
Ġdesagrad able
v Ã©ase
ĠMa uri
Ġdeman d
Ġglucocortico ides
Ġinci piente
Ġcardi Ã³logos
fici encias
ĠDes a
Ġequival entes
10 7
13 1
???? ????
ĠL ocal
Ã©c do
Ġnum ber
Ġestre pto
do pa
don de
Ġsup rimir
Ġinmunosupres ores
ĠO F
Ġs trateg
Ġhab lo
Ġgener ada
del l
Ġa telec
Ġre tr
Ġdis p
Ġpers istentes
ĠPa tr
Ġrelacion ar
Ġplu ma
ĠG PC
Ġvir ul
Ġimpac tos
ĠautÃ©n tica
Ġt ech
ĠA Ã±ad
ĠD ay
ĠQuirÃ³n salud
te lo
ĠCereb ral
ic ano
Ġorden adores
Ġmarc ados
ĠsÃº per
Ġpar lam
Ġ2 20
ĠF ru
ĠRe medios
ent adas
Ġpro la
Ġhu Ã©r
Ġser ias
Ġrelig iosos
Ġta pa
Ġexcl uidos
ER N
Ġcomun itarias
Ġtiro ideas
ĠAT B
H is
ĠC COO
Ġmoder adas
Ġregres a
Ġagon istas
rela ted
el amente
ĠCI E
ĠH il
15 5
z er
Ġnecesit en
ĠDe terioro
ĠMen Ã©ndez
es tern
ĠC ano
ĠD J
ĠCar ras
es p
Ġes quina
Ġtal Ã³n
Ġintra celular
Ġpa gina
GEN CIAS
ĠCOM UN
Ġcorrel aciones
ĠGru pos
Ġh Ã¡
Ġwh en
Ġan ular
Ġn an
inc Ã³n
Ġpar estesias
ĠEs pacio
uer do
Ġpromo tor
Ġtra bal
lan da
Ġabord ado
ĠFel ici
Ġcu ida
Ġestar emos
IL IDAD
Ġconlle var
ĠPf izer
f ra
n c
ab ar
Ġrep ente
ĠSos ten
t ta
Ġf estival
pre via
Ġregal os
Ġb uro
ĠEnfer magem
Ġvesti do
Ġpri mo
ĠLon don
Ġedi tores
Ġfa ilure
ĠOR IG
Ġ19 72
CI D
ĠCar acas
+ .
di ci
ĠH acia
tin ela
cons ul
Ġtarje tas
Ġpredom ina
D ia
t ch
Ġacumul an
Ġver ificaciÃ³n
Ġactiv ado
sÃŃn drome
ĠHemo grama
fi le
Ġdiri gen
Ġinci den
ĠA moxicilina
am aciÃ³n
Ġsyste matic
Ġbrus co
ĠIns pec
Ġges tante
ĠGastroenter ologÃŃa
go gÃŃa
Ġenv ol
Ġproporcion ando
Ġorient ados
m ales
Ġmezcl as
Ġf osas
Ġder mis
itos is
ĠcongÃ©n itos
ĠR he
Ġhemo filia
ĠrÃ©c ord
Ġbom bas
g ed
Ġcu ente
per as
Ġpre curs
ĠContinu ar
Ġal re
19 95
Ġ .
ĠCom plicaciones
Ġrepresent ando
Ġsub tipo
Ġdios es
cloro tiazida
ĠMa to
Ãį S
oci lizumab
cep t
ÃŃcl icos
ĠEs trada
Ġdiet Ã©tico
ĠCr istÃ³bal
Ġp esti
Ġcompro baciÃ³n
ĠAz ul
Ġtes tÃŃculos
ĠZ o
s ÃŃ
H emos
aliz ador
ĠInf anta
HD L
Ġbronqui olitis
Ġw it
Ġproteg ido
Ġin co
Ġad misiÃ³n
gr ada
Ġcl ÃŃ
Ġpreven tivos
Ġrefrac taria
mi endo
og ar
Ġase qui
Ġllen ar
Ġhal lado
TE L
Ġbal oncesto
b ec
Ġbiom ec
Ġescri tores
Ġcay Ã³
Ġhal lan
Ġhidro xicloroquina
ĠCapit al
Ġten ÃŃamos
Ġserv idor
Ġpat entes
Ġincorpor Ã³
Ġinter personales
ĠR NA
ĠAs i
Ġextra cor
Ġaficion ados
Ġter ci
ĠSab emos
Ġdecl ive
Ġgubernam entales
Ġle gado
ĠDes cri
taneo us
Ġantif Ãºn
Ġdis artria
Ġemp erador
Ġconlle van
on eo
Ġelectro do
Ġprost Ã¡tica
ĠCÃ¡ ceres
Ġsu ceso
Ġma tric
ĠClin ic
Ġexcep ciones
Ġvalor aciones
Ġrepresent aciones
ĠrÃŃt mica
ĠPa th
ĠP OD
Ġ% ).
mor al
ĠMa teriales
li ano
Ġampu taciÃ³n
Ġm ero
Ġal titud
Ġcal ientes
Ġfuncion e
Ġenten demos
m all
11 1
Ġcomprome tida
Mar tÃŃn
ĠfrÃ¡g il
Ġestim Ã³
ĠalÃ©r genos
ĠAcep tado
ĠSigui endo
Ġfi lo
ĠLou is
Ġcon fer
Ġcu bierto
Ġdiffer ences
Ġcompens aciÃ³n
za pina
ĠcientÃŃ ficamente
Ġnutri cionista
cÃ³ picos
Ġevent ualmente
ĠArro yo
Ġex fol
ĠAc ci
tiv eness
ĠUR G
tÃ¡l amo
Ġpro min
U A
ĠC UR
ig e
ĠMar keting
Ãºr pura
ĠStu dent
ĠH as
ĠH op
ĠEs cal
Ġor questa
ĠMa ta
Ġcor ren
ĠJu Ã¡rez
aci dez
ĠEstudi antes
Ġultrason idos
Ġincorpor an
Ġfres cos
Ġgrues a
ĠPR IN
ĠB IL
ĠDeb en
ti gma
Ġen cer
ĠS cale
ĠContac to
D oc
ĠC av
Ġadministr ados
ĠX III
Ġeleg ida
Ġran gos
t za
Ġreper fusiÃ³n
an gi
ĠP IB
ĠCam ino
Ġatrib uir
ĠÃļl timo
ĠCic lo
ĠC ity
Ġg ela
Ġnecesita ba
Ġaument aron
Ġconsolid ar
ĠE H
Ġtemp lo
Ġm y
Ġreum Ã¡tica
Ġesmal te
Ġdes mi
Ġcul to
ĠSte ph
Ġcircun ferencia
Ġed ulcor
ĠgeogrÃ¡ ficas
Ġse pan
ven tilaciÃ³n
Ġtrans aminas
Ġprefer iblemente
ĠJur ado
tas e
Ġmaes tra
Ġmedicin al
Ġre inter
Ġrepor tados
Ġsinus itis
Ġe min
Ġcan didiasis
Ġexpl ico
18 0
Ġelimin ando
ĠD im
p ur
uc k
Ġaneuris mas
Ġpantal las
ad illas
ĠSal as
Ġcono zcan
Ġrepresenta tiva
Ġconjun tiva
Ġsam ple
Ġp y
bi tis
Ġperfec ciÃ³n
ent arios
Ġfran ca
ĠreseÃ± ables
Ġcompar ando
Ġproces ar
[...]
