{
  "version": "1.0",
  "truncation": {
    "direction": "Right",
    "max_length": 512,
    "strategy": "LongestFirst",
    "stride": 0
  },
  "padding": null,
  "added_tokens": [
    {
      "id": 0,
      "content": "<s>",
      "single_word": false,
      "lstrip": false,
      "rstrip": false,
      "normalized": true,
      "special": true
    },
    {
      "id": 1,
      "content": "<pad>",
      "single_word": false,
      "lstrip": false,
      "rstrip": false,
      "normalized": true,
      "special": true
    },
    {
      "id": 2,
      "content": "</s>",
      "single_word": false,
      "lstrip": false,
      "rstrip": false,
      "normalized": true,
      "special": true
    },
    {
      "id": 3,
      "content": "<unk>",
      "single_word": false,
      "lstrip": false,
      "rstrip": false,
      "normalized": true,
      "special": true
    },
    {
      "id": 50261,
      "content": "<mask>",
      "single_word": false,
      "lstrip": true,
      "rstrip": false,
      "normalized": true,
      "special": true
    }
  ],
  "normalizer": null,
  "pre_tokenizer": {
    "type": "ByteLevel",
    "add_prefix_space": true,
    "trim_offsets": true,
    "use_regex": true
  },
  "post_processor": {
    "type": "RobertaProcessing",
    "sep": [
      "</s>",
      2
    ],
    "cls": [
      "<s>",
      0
    ],
    "trim_offsets": true,
    "add_prefix_space": true
  },
  "decoder": {
    "type": "ByteLevel",
    "add_prefix_space": true,
    "trim_offsets": true,
    "use_regex": true
  },
  "model": {
    "type": "BPE",
    "dropout": null,
    "unk_token": null,
    "continuing_subword_prefix": "",
    "end_of_word_suffix": "",
    "fuse_unk": false,
    "byte_fallback": false,
    "ignore_merges": false,
    "vocab": {
      "<s>": 0,
      "<pad>": 1,
      "</s>": 2,
      "<unk>": 3,
      "!": 4,
      "\"": 5,
      "#": 6,
      "$": 7,
      "%": 8,
      "&": 9,
      "'": 10,
      "(": 11,
      ")": 12,
      "*": 13,
      "+": 14,
      ",": 15,
      "-": 16,
      ".": 17,
      "/": 18,
      "0": 19,
      "1": 20,
      "2": 21,
      "3": 22,
      "4": 23,
      "5": 24,
      "6": 25,
      "7": 26,
      "8": 27,
      "9": 28,
      ":": 29,
      ";": 30,
      "<": 31,
      "=": 32,
      ">": 33,
      "?": 34,
      "@": 35,
      "A": 36,
      "B": 37,
      "C": 38,
      "D": 39,
      "E": 40,
      "F": 41,
      "G": 42,
      "H": 43,
      "I": 44,
      "J": 45,
      "K": 46,
      "L": 47,
      "M": 48,
      "N": 49,
      "O": 50,
      "P": 51,
      "Q": 52,
      "R": 53,
      "S": 54,
      "T": 55,
      "U": 56,
      "V": 57,
      "W": 58,
      "X": 59,
      "Y": 60,
      "Z": 61,
      "[": 62,
      "\\": 63,
      "]": 64,
      "^": 65,
      "_": 66,
      "`": 67,
      "a": 68,
      "b": 69,
      "c": 70,
      "d": 71,
      "e": 72,
      "f": 73,
      "g": 74,
      "h": 75,
      "i": 76,
      "j": 77,
      "k": 78,
      "l": 79,
      "m": 80,
      "n": 81,
      "o": 82,
      "p": 83,
      "q": 84,
      "r": 85,
      "s": 86,
      "t": 87,
      "u": 88,
      "v": 89,
      "w": 90,
      "x": 91,
      "y": 92,
      "z": 93,
      "{": 94,
      "|": 95,
      "}": 96,
      "~": 97,
      "¡": 98,
      "¢": 99,
      "£": 100,
      "¤": 101,
      "¥": 102,
      "¦": 103,
      "§": 104,
      "¨": 105,
      "©": 106,
      "ª": 107,
      "«": 108,
      "¬": 109,
      "®": 110,
      "¯": 111,
      "°": 112,
      "±": 113,
      "²": 114,
      "³": 115,
      "´": 116,
      "µ": 117,
      "¶": 118,
      "·": 119,
      "¸": 120,
      "¹": 121,
      "º": 122,
      "»": 123,
      "¼": 124,
      "½": 125,
      "¾": 126,
      "¿": 127,
      "À": 128,
      "Á": 129,
      "Â": 130,
      "Ã": 131,
      "Ä": 132,
      "Å": 133,
      "Æ": 134,
      "Ç": 135,
      "È": 136,
      "É": 137,
      "Ê": 138,
      "Ë": 139,
      "Ì": 140,
      "Í": 141,
      "Î": 142,
      "Ï": 143,
      "Ð": 144,
      "Ñ": 145,
      "Ò": 146,
      "Ó": 147,
      "Ô": 148,
      "Õ": 149,
      "Ö": 150,
      "×": 151,
      "Ø": 152,
      "Ù": 153,
      "Ú": 154,
      "Û": 155,
      "Ü": 156,
      "Ý": 157,
      "Þ": 158,
      "ß": 159,
      "à": 160,
      "á": 161,
      "â": 162,
      "ã": 163,
      "ä": 164,
      "å": 165,
      "æ": 166,
      "ç": 167,
      "è": 168,
      "é": 169,
      "ê": 170,
      "ë": 171,
      "ì": 172,
      "í": 173,
      "î": 174,
      "ï": 175,
      "ð": 176,
      "ñ": 177,
      "ò": 178,
      "ó": 179,
      "ô": 180,
      "õ": 181,
      "ö": 182,
      "÷": 183,
      "ø": 184,
      "ù": 185,
      "ú": 186,
      "û": 187,
      "ü": 188,
      "ý": 189,
      "þ": 190,
      "ÿ": 191,
      "Ā": 192,
      "ā": 193,
      "Ă": 194,
      "ă": 195,
      "Ą": 196,
      "ą": 197,
      "Ć": 198,
      "ć": 199,
      "Ĉ": 200,
      "ĉ": 201,
      "Ċ": 202,
      "ċ": 203,
      "Č": 204,
      "č": 205,
      "Ď": 206,
      "ď": 207,
      "Đ": 208,
      "đ": 209,
      "Ē": 210,
      "ē": 211,
      "Ĕ": 212,
      "ĕ": 213,
      "Ė": 214,
      "ė": 215,
      "Ę": 216,
      "ę": 217,
      "Ě": 218,
      "ě": 219,
      "Ĝ": 220,
      "ĝ": 221,
      "Ğ": 222,
      "ğ": 223,
      "Ġ": 224,
      "ġ": 225,
      "Ģ": 226,
      "ģ": 227,
      "Ĥ": 228,
      "ĥ": 229,
      "Ħ": 230,
      "ħ": 231,
      "Ĩ": 232,
      "ĩ": 233,
      "Ī": 234,
      "ī": 235,
      "Ĭ": 236,
      "ĭ": 237,
      "Į": 238,
      "į": 239,
      "İ": 240,
      "ı": 241,
      "Ĳ": 242,
      "ĳ": 243,
      "Ĵ": 244,
      "ĵ": 245,
      "Ķ": 246,
      "ķ": 247,
      "ĸ": 248,
      "Ĺ": 249,
      "ĺ": 250,
      "Ļ": 251,
      "ļ": 252,
      "Ľ": 253,
      "ľ": 254,
      "Ŀ": 255,
      "ŀ": 256,
      "Ł": 257,
      "ł": 258,
      "Ń": 259,
      "de": 260,
      "en": 261,
      "Ġde": 262,
      "es": 263,
      "os": 264,
      "Ġl": 265,
      "Ġp": 266,
      "ci": 267,
      "Ġc": 268,
      "Ġa": 269,
      "er": 270,
      "ar": 271,
      "on": 272,
      "as": 273,
      "Ġs": 274,
      "or": 275,
      "al": 276,
      "Ġe": 277,
      "an": 278,
      "Ã³": 279,
      "ad": 280,
      "ti": 281,
      "Ġm": 282,
      "Ġla": 283,
      "ent": 284,
      "ue": 285,
      "in": 286,
      "re": 287,
      "Ġen": 288,
      "un": 289,
      "Ġy": 290,
      "Ã³n": 291,
      "que": 292,
      "di": 293,
      "Ġt": 294,
      "Ġes": 295,
      "aci": 296,
      "Ġel": 297,
      "ÃŃ": 298,
      "Ġque": 299,
      "Ġcon": 300,
      "ro": 301,
      "ic": 302,
      "Ã¡": 303,
      "Ġn": 304,
      "om": 305,
      "Ġh": 306,
      "Ġun": 307,
      "ta": 308,
      "ra": 309,
      "te": 310,
      "is": 311,
      "id": 312,
      "Ġse": 313,
      "Ġf": 314,
      "Ġin": 315,
      "ol": 316,
      "Ġlos": 317,
      "ĠE": 318,
      "Ġo": 319,
      "Ã©": 320,
      "aciÃ³n": 321,
      "Ġre": 322,
      "Ġv": 323,
      "ec": 324,
      "to": 325,
      "am": 326,
      "do": 327,
      "ul": 328,
      "ĠC": 329,
      "Ġdel": 330,
      "res": 331,
      "Ġpar": 332,
      "ri": 333,
      "ĠA": 334,
      "ĠS": 335,
      "ado": 336,
      "Ġal": 337,
      "Ġcom": 338,
      "Ġsu": 339,
      "ente": 340,
      "Ġdi": 341,
      "Ġd": 342,
      "Ġlas": 343,
      "Ġpor": 344,
      "le": 345,
      "ĠL": 346,
      "tu": 347,
      "ĠP": 348,
      "ter": 349,
      "Ġg": 350,
      "Ġ(": 351,
      "bi": 352,
      "Ġpro": 353,
      "ÃŃa": 354,
      "mi": 355,
      "tr": 356,
      "Ã±": 357,
      "ac": 358,
      "Ġpara": 359,
      "ĠM": 360,
      "Ġuna": 361,
      "ciÃ³n": 362,
      "tic": 363,
      "tiv": 364,
      "Ġ1": 365,
      "ia": 366,
      "mp": 367,
      "ones": 368,
      "us": 369,
      "Ġb": 370,
      "ma": 371,
      "ento": 372,
      "Ġno": 373,
      "tos": 374,
      "iz": 375,
      "idad": 376,
      "ĠD": 377,
      "ab": 378,
      "cia": 379,
      "qu": 380,
      "Ġme": 381,
      "Ġper": 382,
      "ada": 383,
      "Ã¡s": 384,
      "io": 385,
      "lo": 386,
      "Ġcu": 387,
      "Ġdes": 388,
      "ica": 389,
      "uc": 390,
      "Ġan": 391,
      "Ġ2": 392,
      "ales": 393,
      "da": 394,
      "Ãº": 395,
      "tor": 396,
      "Ġsi": 397,
      "ur": 398,
      "il": 399,
      "Ġac": 400,
      "it": 401,
      "Ġex": 402,
      "el": 403,
      "ten": 404,
      "ĠT": 405,
      "Ġtra": 406,
      "ĠR": 407,
      "Ġi": 408,
      "mo": 409,
      "ados": 410,
      "Ġcomo": 411,
      "entes": 412,
      "fer": 413,
      "ici": 414,
      "la": 415,
      "ĠI": 416,
      "den": 417,
      "Ġest": 418,
      "go": 419,
      "Ġha": 420,
      "Ġlo": 421,
      "dad": 422,
      "ĠN": 423,
      "ir": 424,
      "tes": 425,
      "um": 426,
      "ante": 427,
      "Ġres": 428,
      "gu": 429,
      "ĠH": 430,
      "Ġti": 431,
      "era": 432,
      "tro": 433,
      "ĠEs": 434,
      "iv": 435,
      "me": 436,
      "ĠmÃ¡s": 437,
      "ĠF": 438,
      "se": 439,
      "ico": 440,
      "ÃŃn": 441,
      "00": 442,
      "des": 443,
      "Ã¡n": 444,
      "co": 445,
      "ues": 446,
      "iÃ³n": 447,
      "oci": 448,
      "po": 449,
      "miento": 450,
      "ando": 451,
      "ĠLa": 452,
      "ĠEn": 453,
      "bre": 454,
      "ida": 455,
      "mos": 456,
      "per": 457,
      "ĠEl": 458,
      "ĠB": 459,
      "Ġto": 460,
      "Ġcomp": 461,
      "Ġci": 462,
      "ĠG": 463,
      "Ġpre": 464,
      "tra": 465,
      "ce": 466,
      "ĠU": 467,
      "encia": 468,
      "ran": 469,
      "orm": 470,
      "cu": 471,
      "Ġas": 472,
      "aliz": 473,
      "Ġcons": 474,
      "Ġ\"": 475,
      "aj": 476,
      "aciones": 477,
      "bl": 478,
      "ca": 479,
      "Ġpue": 480,
      "Ġpaci": 481,
      "Ġser": 482,
      "Ġpo": 483,
      "tas": 484,
      "ido": 485,
      "cid": 486,
      "mente": 487,
      "qui": 488,
      "tar": 489,
      "ras": 490,
      "min": 491,
      "og": 492,
      "pa": 493,
      "ores": 494,
      "Ġdis": 495,
      "Ġent": 496,
      "Ġma": 497,
      "ble": 498,
      "pe": 499,
      "Ġinf": 500,
      "ch": 501,
      "Ġ-": 502,
      "Ġmedi": 503,
      "Ġap": 504,
      "Ġpres": 505,
      "ari": 506,
      "ĠĊ": 507,
      "ud": 508,
      "Ġesta": 509,
      "ig": 510,
      "Ã±os": 511,
      "Ã©n": 512,
      "onal": 513,
      "ru": 514,
      "ĠV": 515,
      "cul": 516,
      "Ġ3": 517,
      "Ġso": 518,
      "tin": 519,
      ")(": 520,
      "Ġca": 521,
      "Ġmu": 522,
      "fic": 523,
      "Ġob": 524,
      "ĠO": 525,
      "ambi": 526,
      "Ġsin": 527,
      "Ġcar": 528,
      "Ġpr": 529,
      "Ġimp": 530,
      "dos": 531,
      "ina": 532,
      "duc": 533,
      "vi": 534,
      "tudi": 535,
      "cl": 536,
      "Ġpa": 537,
      "emp": 538,
      "ene": 539,
      "adas": 540,
      "Ġsus": 541,
      "im": 542,
      "entos": 543,
      ").": 544,
      "ĠJ": 545,
      "Ġr": 546,
      "mb": 547,
      "Ã©s": 548,
      "Ġpers": 549,
      "tica": 550,
      "der": 551,
      "Ġman": 552,
      "Ġeste": 553,
      "fec": 554,
      "ĠSe": 555,
      "tivo": 556,
      "tal": 557,
      "Ġtrata": 558,
      "Ġinter": 559,
      "amente": 560,
      "Ġson": 561,
      "enci": 562,
      "ĠIn": 563,
      "mer": 564,
      "Ġsobre": 565,
      "Ġcas": 566,
      "Ġestudi": 567,
      "tico": 568,
      "Ġpos": 569,
      "gn": 570,
      "ie": 571,
      "Ġcl": 572,
      "Ġenfer": 573,
      "til": 574,
      "esti": 575,
      "ens": 576,
      "Ġor": 577,
      "Ġle": 578,
      "tan": 579,
      "Ġpacientes": 580,
      "ener": 581,
      "na": 582,
      "olog": 583,
      "ers": 584,
      "Ġj": 585,
      "Ġentre": 586,
      "gun": 587,
      "Ġsal": 588,
      "pl": 589,
      "ÃŃs": 590,
      "Ã±o": 591,
      "teri": 592,
      "con": 593,
      "bil": 594,
      "Ġdeb": 595,
      "Ãºn": 596,
      "icos": 597,
      "ora": 598,
      "Ġar": 599,
      "Ġ4": 600,
      "Ġmo": 601,
      "ario": 602,
      "uer": 603,
      "),": 604,
      "Ġpri": 605,
      "ez": 606,
      "ara": 607,
      "endo": 608,
      "ces": 609,
      "tros": 610,
      "ĠaÃ±os": 611,
      "ga": 612,
      "ona": 613,
      "Ġad": 614,
      "pos": 615,
      "aria": 616,
      "por": 617,
      "pon": 618,
      "Ġte": 619,
      "eces": 620,
      "Ġcor": 621,
      "tri": 622,
      "Ġhac": 623,
      "ciones": 624,
      "uch": 625,
      "Ã³g": 626,
      "pec": 627,
      "Ġni": 628,
      "enta": 629,
      "Ġrealiz": 630,
      "Ġpuede": 631,
      "cer": 632,
      "Ġ5": 633,
      "Ġmay": 634,
      "tiva": 635,
      "je": 636,
      "Ġbi": 637,
      "ÃŃas": 638,
      "Ġcol": 639,
      "Ġtratamiento": 640,
      "ĠCon": 641,
      "fici": 642,
      "icas": 643,
      "ĠUn": 644,
      "ana": 645,
      "ven": 646,
      "Ġ20": 647,
      "dic": 648,
      "lan": 649,
      "mas": 650,
      "Ġfor": 651,
      "Ġu": 652,
      "ambiÃ©n": 653,
      "eb": 654,
      "Ġenferme": 655,
      "pi": 656,
      "jer": 657,
      "ve": 658,
      "ologÃŃa": 659,
      "ĠLos": 660,
      "Ġinv": 661,
      "Ġmej": 662,
      "Ġev": 663,
      "almente": 664,
      "erv": 665,
      "ular": 666,
      "Ġne": 667,
      "tis": 668,
      "iste": 669,
      "los": 670,
      "ĠmÃ©": 671,
      "Ġpero": 672,
      "he": 673,
      "rol": 674,
      "tados": 675,
      "Ġab": 676,
      "Ġhe": 677,
      "ĠRe": 678,
      "ero": 679,
      "Ġdos": 680,
      "za": 681,
      "ismo": 682,
      "onas": 683,
      "no": 684,
      "uev": 685,
      "tom": 686,
      "Ġof": 687,
      "Ġsol": 688,
      "idades": 689,
      "peci": 690,
      "Ġri": 691,
      "gan": 692,
      "cip": 693,
      "Ġhi": 694,
      "baj": 695,
      "gra": 696,
      "Ġus": 697,
      "das": 698,
      "Ġrec": 699,
      "Ġqu": 700,
      "Ġli": 701,
      "aron": 702,
      "Ġau": 703,
      "ba": 704,
      "ĠÂ": 705,
      "Ġmen": 706,
      "Ġhan": 707,
      "jo": 708,
      "paÃ±": 709,
      "iones": 710,
      "Ġins": 711,
      "fes": 712,
      "Ġdur": 713,
      "ĠAl": 714,
      "ren": 715,
      "rec": 716,
      "pit": 717,
      "Ġ6": 718,
      "Ġfun": 719,
      "Ġsan": 720,
      "Ġmayor": 721,
      "car": 722,
      "Ġsalud": 723,
      "ĠtambiÃ©n": 724,
      "olÃ³g": 725,
      "Ġten": 726,
      "Ġmuy": 727,
      "estig": 728,
      "Ġposi": 729,
      "Ġtrabaj": 730,
      "alidad": 731,
      "Ã©r": 732,
      "las": 733,
      "Ġlle": 734,
      "tras": 735,
      "ĠNo": 736,
      "tado": 737,
      "arios": 738,
      "Ġmuch": 739,
      "Ġya": 740,
      "gr": 741,
      "Ġrel": 742,
      "idos": 743,
      "Ġ19": 744,
      "Ġespeci": 745,
      "Ġneces": 746,
      "par": 747,
      "quier": 748,
      "Ġda": 749,
      "lic": 750,
      "Ġcre": 751,
      "dr": 752,
      "Ġmi": 753,
      "Ġestudio": 754,
      "Ã³s": 755,
      "dades": 756,
      "tir": 757,
      "amos": 758,
      "20": 759,
      "tura": 760,
      "Ġmejor": 761,
      "Ġforma": 762,
      "arrol": 763,
      "tivos": 764,
      "gar": 765,
      "Ġtan": 766,
      "encias": 767,
      "Ġnues": 768,
      "vis": 769,
      "Ġco": 770,
      "Ġresul": 771,
      "gen": 772,
      "cion": 773,
      "Ġpaciente": 774,
      "Ġcada": 775,
      "Ġnuev": 776,
      "titu": 777,
      "Ġhab": 778,
      "cri": 779,
      "asta": 780,
      "Ġtras": 781,
      "man": 782,
      "ier": 783,
      "ech": 784,
      "gÃºn": 785,
      "Ġfue": 786,
      "pres": 787,
      "ospit": 788,
      "Ġpas": 789,
      "Ġdesde": 790,
      "Ġimpor": 791,
      "Ġemp": 792,
      "ĠMe": 793,
      "olor": 794,
      "ĠestÃ¡": 795,
      "ros": 796,
      "ador": 797,
      "Ġdurante": 798,
      "Ġdesarrol": 799,
      "ĠY": 800,
      "Ġgener": 801,
      "Ġreg": 802,
      "Ġpersonas": 803,
      "Ġ7": 804,
      "ticas": 805,
      "Ġ8": 806,
      "Ġ0": 807,
      "uy": 808,
      "zo": 809,
      "taciÃ³n": 810,
      "du": 811,
      "Ġval": 812,
      "ormaciÃ³n": 813,
      "mÃ¡s": 814,
      "âĢ": 815,
      "Ġ201": 816,
      "bilidad": 817,
      "Ġdia": 818,
      "tante": 819,
      "Ġenfermedad": 820,
      "ion": 821,
      "tores": 822,
      "antes": 823,
      "Ġ/": 824,
      "Ġpe": 825,
      "ĠclÃŃn": 826,
      "Ġincl": 827,
      "ami": 828,
      "Ġdifer": 829,
      "fica": 830,
      "Ġinvestig": 831,
      "adores": 832,
      "ares": 833,
      "ĠDe": 834,
      "ano": 835,
      "ea": 836,
      "Ġ9": 837,
      "Ġhay": 838,
      "Ġprofes": 839,
      "em": 840,
      "oc": 841,
      "Ġver": 842,
      "Ġtodo": 843,
      "gui": 844,
      "ĠCom": 845,
      "dio": 846,
      "li": 847,
      "ticos": 848,
      "arse": 849,
      "Ġade": 850,
      "gos": 851,
      "ĠAn": 852,
      "Ġutil": 853,
      "Ġ200": 854,
      "uciÃ³n": 855,
      "\",": 856,
      "acion": 857,
      "Ġpueden": 858,
      "Ġnos": 859,
      "gres": 860,
      "Ġries": 861,
      "Ġtiene": 862,
      "Ã¡l": 863,
      "ĠDE": 864,
      "Ġproduc": 865,
      "Ġfin": 866,
      "Ġgran": 867,
      "Ġsoci": 868,
      "ĠLas": 869,
      "Ġtran": 870,
      "Ġbas": 871,
      "Ġalgun": 872,
      "ĠPor": 873,
      "able": 874,
      "Ġtu": 875,
      "Ġcuando": 876,
      "Ġhasta": 877,
      "Ġmar": 878,
      "Ġefec": 879,
      "trol": 880,
      "Ãºl": 881,
      "Ġdiagn": 882,
      "Ġparte": 883,
      "Ġvida": 884,
      "acional": 885,
      "Ġcual": 886,
      "uro": 887,
      "uen": 888,
      "ivel": 889,
      "Ġmg": 890,
      "Ġpresent": 891,
      "Ġdolor": 892,
      "pues": 893,
      "ivers": 894,
      "CI": 895,
      "Ġgru": 896,
      "Ġdo": 897,
      "ĠAs": 898,
      "ias": 899,
      "ver": 900,
      "cre": 901,
      "isten": 902,
      "Ġemb": 903,
      "Ġotros": 904,
      "paci": 905,
      "EN": 906,
      "Ġcent": 907,
      "tur": 908,
      "Ġ10": 909,
      "Ġnivel": 910,
      "amil": 911,
      "Ġutiliz": 912,
      "Ã©c": 913,
      "pia": 914,
      "Ġcer": 915,
      "osa": 916,
      "Ġvis": 917,
      "cas": 918,
      "ide": 919,
      "Ġtrans": 920,
      "ay": 921,
      "Ġles": 922,
      "Ġdon": 923,
      "lam": 924,
      "ing": 925,
      "so": 926,
      "Ġpu": 927,
      "ÃŃan": 928,
      "ospital": 929,
      "Ġriesgo": 930,
      "ĠÃ¡": 931,
      "cir": 932,
      "ĠâĢ": 933,
      "Ãºlti": 934,
      "ES": 935,
      "amiento": 936,
      "Ġreci": 937,
      "ib": 938,
      "mac": 939,
      "Ġtiemp": 940,
      "Ġobs": 941,
      "\".": 942,
      "Ġactu": 943,
      "Ġactiv": 944,
      "ER": 945,
      "tenciÃ³n": 946,
      "les": 947,
      "Ġcr": 948,
      "000": 949,
      "Ġprin": 950,
      "ĠSan": 951,
      "ĠPro": 952,
      "ĠsÃŃn": 953,
      "Ġestos": 954,
      "Ġay": 955,
      "mientos": 956,
      "ĠSal": 957,
      "isis": 958,
      "Ġproble": 959,
      "Ġtodos": 960,
      "ĠasÃŃ": 961,
      "Ã³lo": 962,
      "Ġden": 963,
      "bles": 964,
      "enen": 965,
      "Ġcan": 966,
      "pu": 967,
      "Ġprimer": 968,
      "Ġmes": 969,
      "tion": 970,
      "vo": 971,
      "Ġsuper": 972,
      "Ġbien": 973,
      "Ġtipo": 974,
      "xi": 975,
      "nos": 976,
      "pen": 977,
      "Ġcontrol": 978,
      "tec": 979,
      "Ġtiempo": 980,
      "Ã©l": 981,
      "Ġsiste": 982,
      "ON": 983,
      "oma": 984,
      "Ġw": 985,
      "Ġobje": 986,
      "Ġaum": 987,
      "OS": 988,
      "Ġcaso": 989,
      "argo": 990,
      "Ġsign": 991,
      "Ġand": 992,
      "Ġcambi": 993,
      "AR": 994,
      "Ġcasos": 995,
      "Ġafec": 996,
      "Ġmujer": 997,
      "ĠSi": 998,
      "Ġcaus": 999,
      "cep": 1000,
      "Ġagu": 1001,
      "Ġfamil": 1002,
      "ĠdÃŃa": 1003,
      "Ġfuer": 1004,
      "Ġhacer": 1005,
      "tre": 1006,
      "toria": 1007,
      "dico": 1008,
      "tivas": 1009,
      "Ġfac": 1010,
      "gÃŃa": 1011,
      "Ġanti": 1012,
      "Ġthe": 1013,
      "Ġpes": 1014,
      "Ġhace": 1015,
      "ios": 1016,
      "Ġmis": 1017,
      "ita": 1018,
      "Ġexper": 1019,
      "can": 1020,
      "recu": 1021,
      "icio": 1022,
      "ÃŃcul": 1023,
      "Ġcal": 1024,
      "th": 1025,
      "Ġcomun": 1026,
      "ĠaÃ±o": 1027,
      "Ġtanto": 1028,
      "dencia": 1029,
      "Ġprincip": 1030,
      "lar": 1031,
      "Ġdebe": 1032,
      "uel": 1033,
      "ceso": 1034,
      "ist": 1035,
      "Ġlu": 1036,
      "Ġparti": 1037,
      "ja": 1038,
      "cha": 1039,
      "Ġvez": 1040,
      "Ġcomple": 1041,
      "Ġref": 1042,
      "Ġter": 1043,
      "Ġgr": 1044,
      "Ġra": 1045,
      "AS": 1046,
      "ber": 1047,
      "Ġprim": 1048,
      "Ġdonde": 1049,
      "unque": 1050,
      "Ġbaj": 1051,
      "Ġasoci": 1052,
      "Ġexpl": 1053,
      "tens": 1054,
      "Ġpi": 1055,
      "rea": 1056,
      "ne": 1057,
      "ino": 1058,
      "cio": 1059,
      "Ã³stico": 1060,
      "Ġconf": 1061,
      "ĠMar": 1062,
      "Ġcam": 1063,
      "eno": 1064,
      "unto": 1065,
      "Ġ%": 1066,
      "Ġbuen": 1067,
      "ĠK": 1068,
      "Ġtrabajo": 1069,
      "Ġesc": 1070,
      "IC": 1071,
      "ĠEspaÃ±": 1072,
      "cho": 1073,
      "eg": 1074,
      "cis": 1075,
      "ula": 1076,
      "Ġinfec": 1077,
      "Ġ[": 1078,
      "fil": 1079,
      "eron": 1080,
      "av": 1081,
      "acia": 1082,
      "Ġpermi": 1083,
      "truc": 1084,
      "Ġfrecu": 1085,
      "dia": 1086,
      "vers": 1087,
      "Ġmenos": 1088,
      "Ġserv": 1089,
      "alu": 1090,
      "Ã¡c": 1091,
      "Ġpol": 1092,
      "minis": 1093,
      "Ġro": 1094,
      "Ġcontra": 1095,
      "ĠQ": 1096,
      "lu": 1097,
      "ĠÂ¿": 1098,
      "ista": 1099,
      "und": 1100,
      "tera": 1101,
      "Ġgen": 1102,
      "Ġnorm": 1103,
      "Ġsec": 1104,
      "ola": 1105,
      "arias": 1106,
      "ĠUnivers": 1107,
      "Ġhor": 1108,
      "ĠCar": 1109,
      "Ã³r": 1110,
      "Ġdatos": 1111,
      "ment": 1112,
      "ĠÃ": 1113,
      "ĠÃºlti": 1114,
      "mia": 1115,
      "ed": 1116,
      "ĠCu": 1117,
      "Ã¡ncer": 1118,
      "Ġtener": 1119,
      "Ġqui": 1120,
      "Ġalter": 1121,
      "Ġresultados": 1122,
      "Ġotras": 1123,
      "Ġfu": 1124,
      "ĠestÃ¡n": 1125,
      "Ã©cn": 1126,
      "Ġuno": 1127,
      "ĠW": 1128,
      "van": 1129,
      "ĠdÃŃas": 1130,
      "ord": 1131,
      "Ġdirec": 1132,
      "acter": 1133,
      "Ġcab": 1134,
      "Ġmun": 1135,
      "Ġcos": 1136,
      "puÃ©s": 1137,
      "yec": 1138,
      "cular": 1139,
      "omin": 1140,
      "ha": 1141,
      "Ġalim": 1142,
      "anos": 1143,
      "Ġporque": 1144,
      "ĠSalud": 1145,
      "izaciÃ³n": 1146,
      "arÃ¡": 1147,
      "Ġpodr": 1148,
      "eta": 1149,
      "oraciÃ³n": 1150,
      "Ġam": 1151,
      "ĠinformaciÃ³n": 1152,
      "tific": 1153,
      "Ġgrupo": 1154,
      "cina": 1155,
      "Ãºbl": 1156,
      "gur": 1157,
      "Ġx": 1158,
      "ĠniÃ±os": 1159,
      "Ġconoci": 1160,
      "ual": 1161,
      "Ã¡r": 1162,
      "Ġgra": 1163,
      "aba": 1164,
      "Ġmas": 1165,
      "Ġedad": 1166,
      "OR": 1167,
      "Ġdef": 1168,
      "Ġtienen": 1169,
      "10": 1170,
      "Ġmal": 1171,
      "Ġhum": 1172,
      "Ġrecom": 1173,
      "Ġmedic": 1174,
      "AL": 1175,
      "idas": 1176,
      "Ġmismo": 1177,
      "pro": 1178,
      "eo": 1179,
      "ĠPara": 1180,
      "):": 1181,
      "Ġher": 1182,
      "Ġimportante": 1183,
      "Ã³m": 1184,
      "Ġorgan": 1185,
      "oy": 1186,
      "Ġps": 1187,
      "Ġpobl": 1188,
      "torio": 1189,
      "Ġmom": 1190,
      "ior": 1191,
      "Ġtom": 1192,
      "Ġprogra": 1193,
      "Ġsistema": 1194,
      "aje": 1195,
      "dica": 1196,
      "Ġuso": 1197,
      "gre": 1198,
      "Ġplan": 1199,
      "ece": 1200,
      "va": 1201,
      "rg": 1202,
      "ulas": 1203,
      "terior": 1204,
      "ĠDes": 1205,
      "iciÃ³n": 1206,
      "ĠpaÃŃs": 1207,
      "Ġdoc": 1208,
      "ĠcÃ¡ncer": 1209,
      "Ġpl": 1210,
      "Ġdere": 1211,
      "Ġestudios": 1212,
      "ific": 1213,
      "cias": 1214,
      "Ġsitu": 1215,
      "Ġtera": 1216,
      "Ġform": 1217,
      "oso": 1218,
      "ien": 1219,
      "itar": 1220,
      "ĠtÃ©cn": 1221,
      "ĠNe": 1222,
      "ps": 1223,
      "tido": 1224,
      "termin": 1225,
      "Ġgeneral": 1226,
      "Ġsab": 1227,
      "Ġobserv": 1228,
      "teg": 1229,
      "Ġ12": 1230,
      "ĠLe": 1231,
      "Ġsido": 1232,
      "Ã¡lisis": 1233,
      "Ġencon": 1234,
      "emos": 1235,
      "Ġ15": 1236,
      "Ġer": 1237,
      "ĠatenciÃ³n": 1238,
      "Ġsub": 1239,
      "Ġmujeres": 1240,
      "ĠdiagnÃ³stico": 1241,
      "cional": 1242,
      "ĠsegÃºn": 1243,
      "oles": 1244,
      "Ġej": 1245,
      "12": 1246,
      "ron": 1247,
      "jos": 1248,
      "Ġop": 1249,
      "dente": 1250,
      "Ġdesarrollo": 1251,
      "cuent": 1252,
      "Ġmil": 1253,
      "Ã±a": 1254,
      "Ġz": 1255,
      "Ġna": 1256,
      "venciÃ³n": 1257,
      "Ġhom": 1258,
      "Ġpubl": 1259,
      "Ġfal": 1260,
      "Ġet": 1261,
      "Ġmues": 1262,
      "edad": 1263,
      "zar": 1264,
      "ĠinvestigaciÃ³n": 1265,
      "Ġenfermedades": 1266,
      "ĠmÃ©dico": 1267,
      "tomas": 1268,
      "ril": 1269,
      "ĠdespuÃ©s": 1270,
      "Ġdl": 1271,
      "Ġaplic": 1272,
      "ental": 1273,
      "Ġequi": 1274,
      "echo": 1275,
      "at": 1276,
      "Ġparticip": 1277,
      "Ġestas": 1278,
      "Ġmor": 1279,
      "cur": 1280,
      "Ġce": 1281,
      "AD": 1282,
      "ionales": 1283,
      "usiÃ³n": 1284,
      "Ġencuent": 1285,
      "Ġsanit": 1286,
      "end": 1287,
      "Ġhoras": 1288,
      "Ã©u": 1289,
      "bier": 1290,
      "Ã³l": 1291,
      "Ġtrav": 1292,
      "Ġantes": 1293,
      "ional": 1294,
      "Ġsegu": 1295,
      "mon": 1296,
      "mero": 1297,
      "ĠHe": 1298,
      "Ġcaracter": 1299,
      "ag": 1300,
      "Ġpla": 1301,
      "ton": 1302,
      "br": 1303,
      "Ġestado": 1304,
      "trib": 1305,
      "Ġsen": 1306,
      "Î¼": 1307,
      "Ġdiferentes": 1308,
      "Ġmanera": 1309,
      "ĠMÃ©": 1310,
      "Ġdetermin": 1311,
      "ĠtravÃ©s": 1312,
      "Ġlugar": 1313,
      "Ġante": 1314,
      "ase": 1315,
      "tamente": 1316,
      "Ġpues": 1317,
      "Ġotro": 1318,
      "Ġaunque": 1319,
      "AN": 1320,
      "cido": 1321,
      "ĠSin": 1322,
      "Ġaf": 1323,
      "tancia": 1324,
      "Ġtres": 1325,
      "Ġnuestro": 1326,
      "ĠSu": 1327,
      "Ġmin": 1328,
      "Ġvol": 1329,
      "Ġcontin": 1330,
      "Ġevalu": 1331,
      "Ġfar": 1332,
      "entÃŃ": 1333,
      "Ġmomento": 1334,
      "empre": 1335,
      "Ġur": 1336,
      "ena": 1337,
      "Ġmeses": 1338,
      "Ãºs": 1339,
      "ifica": 1340,
      "Ġespecial": 1341,
      "Ġsolo": 1342,
      "Ġcalidad": 1343,
      "Ġadminis": 1344,
      "arc": 1345,
      "Ġrad": 1346,
      "uso": 1347,
      "19": 1348,
      "ocitos": 1349,
      "Ġmediante": 1350,
      "tac": 1351,
      "Ġrevis": 1352,
      "Ġcuenta": 1353,
      "Ġamb": 1354,
      "ĠrelaciÃ³n": 1355,
      "icios": 1356,
      "ulta": 1357,
      "Ġcompar": 1358,
      "Ġhiper": 1359,
      "tina": 1360,
      "ĠnÃº": 1361,
      "ancia": 1362,
      "ĠsÃŃntomas": 1363,
      "ama": 1364,
      "com": 1365,
      "ĠAde": 1366,
      "Ġsigui": 1367,
      "ĠEste": 1368,
      "Ġpal": 1369,
      "ĠclÃŃnica": 1370,
      "ID": 1371,
      "osis": 1372,
      "Ġ18": 1373,
      "oluciÃ³n": 1374,
      "Ġprev": 1375,
      "pecto": 1376,
      "ĠcÃ©l": 1377,
      "dro": 1378,
      "Ġesto": 1379,
      "mun": 1380,
      "vas": 1381,
      "Ġpul": 1382,
      "pacidad": 1383,
      "ĠpoblaciÃ³n": 1384,
      "Ġ13": 1385,
      "ĠAr": 1386,
      "Î¼l": 1387,
      "Ġsens": 1388,
      "mÃ¡": 1389,
      "Ġprimera": 1390,
      "Ġrelacion": 1391,
      "tÃ³": 1392,
      "ĠademÃ¡s": 1393,
      "cal": 1394,
      "Ġmedicam": 1395,
      "mis": 1396,
      "Ġproblemas": 1397,
      "Ġesti": 1398,
      "Ġpat": 1399,
      "Ġconsi": 1400,
      "ducir": 1401,
      "Ġindi": 1402,
      "quel": 1403,
      "Ġrespon": 1404,
      "Ġprofesionales": 1405,
      "ible": 1406,
      "Ã³mo": 1407,
      "Ġapar": 1408,
      "Ġembargo": 1409,
      "ĠfÃŃs": 1410,
      "ĠEspaÃ±a": 1411,
      "mento": 1412,
      "et": 1413,
      "Ġlab": 1414,
      "tener": 1415,
      "ĠHospital": 1416,
      "Ġvalor": 1417,
      "Ġ14": 1418,
      "Ġposible": 1419,
      "Ġch": 1420,
      "ĠCh": 1421,
      "inf": 1422,
      "Ġencontr": 1423,
      "ulo": 1424,
      "ĠAdemÃ¡s": 1425,
      "Ġir": 1426,
      "ĠEx": 1427,
      "Ġpon": 1428,
      "Ġsiempre": 1429,
      "Ġfueron": 1430,
      "Ġapro": 1431,
      "uda": 1432,
      "cial": 1433,
      "ĠRes": 1434,
      "Ġah": 1435,
      "Ġprop": 1436,
      "Ġsignifica": 1437,
      "Ġsea": 1438,
      "icaciÃ³n": 1439,
      "Ġviv": 1440,
      "Ġtotal": 1441,
      "Ġmucho": 1442,
      "Ġindic": 1443,
      "ĠEsta": 1444,
      "tad": 1445,
      "Ġcur": 1446,
      "istencia": 1447,
      "cimiento": 1448,
      "Ġven": 1449,
      "Ġsex": 1450,
      "dida": 1451,
      "ĠUniversidad": 1452,
      "entr": 1453,
      "tÃŃcul": 1454,
      "Ġalgunos": 1455,
      "Ġprue": 1456,
      "ine": 1457,
      "dicos": 1458,
      "1000": 1459,
      "Ġren": 1460,
      "Ġllev": 1461,
      "tantes": 1462,
      "IN": 1463,
      "gue": 1464,
      "Ġpoco": 1465,
      "ĠâĢĵ": 1466,
      "Ġtemp": 1467,
      "iere": 1468,
      "Ġciru": 1469,
      "if": 1470,
      "ĠCl": 1471,
      "Ġestar": 1472,
      "terial": 1473,
      "inas": 1474,
      "utri": 1475,
      "vid": 1476,
      "puesta": 1477,
      "ev": 1478,
      "iar": 1479,
      "Ġfr": 1480,
      "Ġsue": 1481,
      "TA": 1482,
      "ĠpÃºbl": 1483,
      "Ġotra": 1484,
      "entar": 1485,
      "Ġfactores": 1486,
      "Ġtr": 1487,
      "Ġllam": 1488,
      "Ġiden": 1489,
      "Ġrealizar": 1490,
      "ĠcientÃŃ": 1491,
      "Ġvac": 1492,
      "ĠcÃ©lulas": 1493,
      "Ã©tica": 1494,
      "Ġproce": 1495,
      "Ġveces": 1496,
      "vil": 1497,
      "ges": 1498,
      "tÃ¡n": 1499,
      "Ġproceso": 1500,
      "ĠAc": 1501,
      "Ġactividad": 1502,
      "Ġcereb": 1503,
      "Ġello": 1504,
      "umo": 1505,
      "Ġinte": 1506,
      "ĠSoci": 1507,
      "Ġayud": 1508,
      "ĠprÃ¡c": 1509,
      "Ġhabi": 1510,
      "ĠMedi": 1511,
      "Ġcuer": 1512,
      "Ġtodas": 1513,
      "Ġincluy": 1514,
      "yo": 1515,
      "Ġespec": 1516,
      "Ġ30": 1517,
      "ecer": 1518,
      "Ġsegun": 1519,
      "Ġpersona": 1520,
      "Ġve": 1521,
      "bo": 1522,
      "pat": 1523,
      "II": 1524,
      "Ġdismin": 1525,
      "olÃ³gico": 1526,
      "ÃŃo": 1527,
      "rac": 1528,
      "Ġpeque": 1529,
      "tada": 1530,
      "Ġcri": 1531,
      "fÃŃa": 1532,
      "Ġobjetivo": 1533,
      "Ġpiel": 1534,
      "ĠIns": 1535,
      "Ġalta": 1536,
      "Ġcul": 1537,
      "ĠseÃ±": 1538,
      "Ġju": 1539,
      "acias": 1540,
      "ĠTo": 1541,
      "Ġdosis": 1542,
      "Ġhecho": 1543,
      "Ġadecu": 1544,
      "bres": 1545,
      "Ġproyec": 1546,
      "rig": 1547,
      "Ġejemp": 1548,
      "Ġmon": 1549,
      "ĠsÃ³lo": 1550,
      "Ġelec": 1551,
      "ĠnÃºmero": 1552,
      "ĠCol": 1553,
      "Ġdistin": 1554,
      "Ġinici": 1555,
      "ducciÃ³n": 1556,
      "Ġtar": 1557,
      "teÃŃn": 1558,
      "mor": 1559,
      "istas": 1560,
      ".,": 1561,
      "be": 1562,
      "Ġquien": 1563,
      "Ġmundo": 1564,
      "Ġnuevo": 1565,
      "ĠPar": 1566,
      "Ġcualquier": 1567,
      "IS": 1568,
      "Ġvi": 1569,
      "dentes": 1570,
      "ts": 1571,
      "Ġiz": 1572,
      "Ġera": 1573,
      "Ġacu": 1574,
      "ulaciÃ³n": 1575,
      "uir": 1576,
      "Ġrecon": 1577,
      "Ġaquel": 1578,
      "Ġconse": 1579,
      "Ġtoda": 1580,
      "gas": 1581,
      "Ġtal": 1582,
      "ical": 1583,
      "Ġmedio": 1584,
      "Ġdescri": 1585,
      "Ġejer": 1586,
      "greso": 1587,
      "tural": 1588,
      "Ġcontinu": 1589,
      "ecu": 1590,
      "Ġos": 1591,
      "cil": 1592,
      "ables": 1593,
      "fun": 1594,
      "Ġpun": 1595,
      "Ġdetec": 1596,
      "cos": 1597,
      "adr": 1598,
      "dido": 1599,
      "udad": 1600,
      "ome": 1601,
      "ted": 1602,
      "mica": 1603,
      "11": 1604,
      "Ġellos": 1605,
      "ito": 1606,
      "Ġhis": 1607,
      "lec": 1608,
      "Ġestable": 1609,
      "Ġcono": 1610,
      "Ġevi": 1611,
      "ĠInter": 1612,
      "ĠquÃ©": 1613,
      "Ġhospital": 1614,
      "Ġefectos": 1615,
      "Ġmie": 1616,
      "don": 1617,
      "terapia": 1618,
      "Ġapo": 1619,
      "Ġextra": 1620,
      "iva": 1621,
      "Ġnuestra": 1622,
      "Ġcondi": 1623,
      "cin": 1624,
      "Ġpublic": 1625,
      "rim": 1626,
      "Ġtum": 1627,
      "Ġgu": 1628,
      "OM": 1629,
      "alizaciÃ³n": 1630,
      "Ġ199": 1631,
      "Ġadministr": 1632,
      "Ġon": 1633,
      "Ġequipo": 1634,
      "Ġpersonal": 1635,
      "eros": 1636,
      "Ġorig": 1637,
      "Ġcier": 1638,
      "bas": 1639,
      "ĠUna": 1640,
      "Ġrecu": 1641,
      "lob": 1642,
      "ĠcrÃ³n": 1643,
      "ĠVal": 1644,
      "diente": 1645,
      "ral": 1646,
      "Ġvir": 1647,
      "Ġ11": 1648,
      "fa": 1649,
      "Ġdiab": 1650,
      "Ġmuer": 1651,
      "Ġmic": 1652,
      "Ġmad": 1653,
      "ple": 1654,
      "Ġizquier": 1655,
      "fico": 1656,
      "ĠCa": 1657,
      "sos": 1658,
      "Ġmuchos": 1659,
      "Ġnormal": 1660,
      "Ġese": 1661,
      "EC": 1662,
      "Ġunos": 1663,
      "pira": 1664,
      "Ġag": 1665,
      "ĠRo": 1666,
      "Ġtrastor": 1667,
      "ala": 1668,
      "Ġsocial": 1669,
      "Ġcuerpo": 1670,
      "EM": 1671,
      "dis": 1672,
      "ĠMa": 1673,
      "Ġbene": 1674,
      "ĠâĢ¢": 1675,
      "tidad": 1676,
      "Ġamp": 1677,
      "Ġconsider": 1678,
      "pas": 1679,
      "Ġsuf": 1680,
      "ĠanÃ¡lisis": 1681,
      "ĠÃ³": 1682,
      "ĠÃ©": 1683,
      "entaciÃ³n": 1684,
      "sa": 1685,
      "Ġ]": 1686,
      "drome": 1687,
      "Ġinform": 1688,
      "Ġpoder": 1689,
      "Ġsino": 1690,
      "Ġciento": 1691,
      "Ġaumento": 1692,
      "Ġanal": 1693,
      "Ġdecir": 1694,
      "entras": 1695,
      "dÃŃa": 1696,
      "luc": 1697,
      "Ġfund": 1698,
      "Ġrecomend": 1699,
      "Ġva": 1700,
      "Ġeso": 1701,
      "oral": 1702,
      "ĠlÃŃ": 1703,
      "Ġdif": 1704,
      "ep": 1705,
      "Ġ25": 1706,
      "embre": 1707,
      "Ġrepres": 1708,
      "Ġdej": 1709,
      "ĠÂ«": 1710,
      "Ġis": 1711,
      "ĠNacional": 1712,
      "Ġrecur": 1713,
      "Ġ16": 1714,
      "icamente": 1715,
      "ÃŃtica": 1716,
      "Ġprograma": 1717,
      "olÃ³gica": 1718,
      "Ġep": 1719,
      "ĠcÃ³mo": 1720,
      "Ġcuan": 1721,
      "ex": 1722,
      "ĠEnfer": 1723,
      "cen": 1724,
      "gado": 1725,
      "15": 1726,
      "Ġfarmac": 1727,
      "ĠDi": 1728,
      "Ġvas": 1729,
      "Ã¡rmac": 1730,
      "Ġejemplo": 1731,
      "Ġdar": 1732,
      "ĠfunciÃ³n": 1733,
      "Ġ24": 1734,
      "orma": 1735,
      "ĠX": 1736,
      "laz": 1737,
      "eas": 1738,
      "Ġalgo": 1739,
      "mana": 1740,
      "Ġservicios": 1741,
      "AC": 1742,
      "tab": 1743,
      "Ġbenefici": 1744,
      "op": 1745,
      "cor": 1746,
      "Ġgas": 1747,
      "Ġavan": 1748,
      "Ġbajo": 1749,
      "Ġsa": 1750,
      "ĠÃºn": 1751,
      "Ġdeber": 1752,
      "Ġproblema": 1753,
      "ge": 1754,
      "filos": 1755,
      "ĠMan": 1756,
      "Ġrefer": 1757,
      "ves": 1758,
      "gual": 1759,
      "Ġnin": 1760,
      "mina": 1761,
      "taciones": 1762,
      "ĠIN": 1763,
      "Ġmode": 1764,
      "ĠartÃŃcul": 1765,
      "Ġeduc": 1766,
      "Ġmedicamentos": 1767,
      "Ġ'": 1768,
      "uego": 1769,
      "mat": 1770,
      "ĠmayorÃŃa": 1771,
      "Ġesp": 1772,
      "posiciÃ³n": 1773,
      "Ġidentific": 1774,
      "Ġpresenta": 1775,
      "turas": 1776,
      "Ġmos": 1777,
      "ĠDis": 1778,
      "dir": 1779,
      "Ġcentro": 1780,
      "ies": 1781,
      "dose": 1782,
      "Ġocas": 1783,
      "Ġelev": 1784,
      "bir": 1785,
      "Ġdentro": 1786,
      "Ġsiendo": 1787,
      "Ġtor": 1788,
      "trÃ³": 1789,
      "ĠmÃ©dicos": 1790,
      "Ġembara": 1791,
      "Ġdispon": 1792,
      "tual": 1793,
      "OL": 1794,
      "ÃŃsticas": 1795,
      "ENT": 1796,
      "Ã¡g": 1797,
      "Ġvacun": 1798,
      "ecn": 1799,
      "ĠcirugÃŃa": 1800,
      "ĠsÃŃ": 1801,
      "Ġdefin": 1802,
      "ĠsituaciÃ³n": 1803,
      "ĠfÃ¡rmac": 1804,
      "Â»": 1805,
      "iendo": 1806,
      "ĠTambiÃ©n": 1807,
      "ĠLA": 1808,
      "ĠmÃ©to": 1809,
      "Ġniveles": 1810,
      "Ġexperi": 1811,
      "Ġfaci": 1812,
      "Ġpeso": 1813,
      "Ġejerci": 1814,
      "zÃ³n": 1815,
      "Ġcambios": 1816,
      "estiÃ³n": 1817,
      "guridad": 1818,
      "ĠZ": 1819,
      "Ġcomplic": 1820,
      "Ġhoy": 1821,
      "ĠPa": 1822,
      "ĠformaciÃ³n": 1823,
      "dan": 1824,
      "Ġinmun": 1825,
      "Ġhacia": 1826,
      "Ġcolab": 1827,
      "ĠEN": 1828,
      "Ġsangre": 1829,
      "quil": 1830,
      "Ġcausa": 1831,
      "anza": 1832,
      "adrid": 1833,
      "ura": 1834,
      "Ġagua": 1835,
      "rir": 1836,
      "domin": 1837,
      "ĠPre": 1838,
      "Ġlargo": 1839,
      "Ġcardio": 1840,
      "Ġ50": 1841,
      "avor": 1842,
      "tivamente": 1843,
      "Ġdepen": 1844,
      "ern": 1845,
      "Ġdise": 1846,
      "Ġprofesional": 1847,
      "Ġmisma": 1848,
      "Ġmuchas": 1849,
      "ĠCi": 1850,
      "ĠMon": 1851,
      "Ġdeben": 1852,
      "Ġindivid": 1853,
      "Ġmus": 1854,
      "Ãºrg": 1855,
      "olÃ³gicos": 1856,
      "ĠespecÃŃ": 1857,
      "echa": 1858,
      "Ġmejorar": 1859,
      "RA": 1860,
      "Ġinci": 1861,
      "Ġesper": 1862,
      "Ġpresencia": 1863,
      "gia": 1864,
      "orme": 1865,
      "merÃŃa": 1866,
      "Ġrespuesta": 1867,
      "Ġemple": 1868,
      "ĠespaÃ±": 1869,
      "eza": 1870,
      "Ã¡tica": 1871,
      "Ġ17": 1872,
      "Ġide": 1873,
      "Ġpad": 1874,
      "mil": 1875,
      "Ġhal": 1876,
      "ivo": 1877,
      "ĠOr": 1878,
      "tamiento": 1879,
      "Ġciudad": 1880,
      "ĠCons": 1881,
      "Ġmul": 1882,
      "itis": 1883,
      "Ãĵ": 1884,
      "Ġincre": 1885,
      "ĠOb": 1886,
      "Ġmuestra": 1887,
      "ĠEuro": 1888,
      "Ġmientras": 1889,
      "14": 1890,
      "irm": 1891,
      "aban": 1892,
      "Ġgrupos": 1893,
      "TI": 1894,
      "Ġrela": 1895,
      "Ġpel": 1896,
      "Ġcir": 1897,
      "ficiencia": 1898,
      "Ġanaliz": 1899,
      "tran": 1900,
      "ĠMedicina": 1901,
      "ĠevoluciÃ³n": 1902,
      "ial": 1903,
      "ĠLo": 1904,
      "presiÃ³n": 1905,
      "tud": 1906,
      "ĠinfecciÃ³n": 1907,
      "Ġcompa": 1908,
      "Ġbeb": 1909,
      "ĠCent": 1910,
      "Ġhipo": 1911,
      "ĠCas": 1912,
      "13": 1913,
      "Ġdivers": 1914,
      "Ġbus": 1915,
      "Ġfamilia": 1916,
      "Ġpartir": 1917,
      "ficos": 1918,
      "men": 1919,
      "Ġrespecto": 1920,
      "Ã¡p": 1921,
      "Ġconsumo": 1922,
      "Ġquir": 1923,
      "ya": 1924,
      "Ġperio": 1925,
      "Ġefecto": 1926,
      "icar": 1927,
      "Ġ100": 1928,
      "Ġcardi": 1929,
      "dez": 1930,
      "Ġautor": 1931,
      "Ġconside": 1932,
      "tividad": 1933,
      "tiene": 1934,
      "Ġapor": 1935,
      "ĠMadrid": 1936,
      "ĠInstitu": 1937,
      "olu": 1938,
      "ĠPo": 1939,
      "quÃŃ": 1940,
      "Ġsegui": 1941,
      "Ġk": 1942,
      "iso": 1943,
      "Ġalteraciones": 1944,
      "Ġofre": 1945,
      "Ġpens": 1946,
      "Ġbase": 1947,
      "Ġcump": 1948,
      "Ġmol": 1949,
      "Ġevitar": 1950,
      "Ġ*": 1951,
      "ibilidad": 1952,
      "Ġincluso": 1953,
      "Ġmenor": 1954,
      "ĠServ": 1955,
      "Ġfrente": 1956,
      "ban": 1957,
      "Ġfavor": 1958,
      "Ġrespira": 1959,
      "ĠpodrÃŃa": 1960,
      "Ġactividades": 1961,
      "respon": 1962,
      "Ġacuer": 1963,
      "Ġnutri": 1964,
      "Ġmill": 1965,
      "Ġnom": 1966,
      "cios": 1967,
      "ĠDr": 1968,
      "olo": 1969,
      "Ġempres": 1970,
      "ĠCo": 1971,
      "ĠPero": 1972,
      "xim": 1973,
      "aran": 1974,
      "Ġdemos": 1975,
      "etes": 1976,
      "dial": 1977,
      "Ġvaria": 1978,
      "Ġnecesario": 1979,
      "aca": 1980,
      "Ġecon": 1981,
      "Ġfundam": 1982,
      "AM": 1983,
      "Ã¡tico": 1984,
      "cel": 1985,
      "Ġnueva": 1986,
      "Ġnega": 1987,
      "tia": 1988,
      "ĠpaÃŃses": 1989,
      "Ġtratamientos": 1990,
      "jas": 1991,
      ":.": 1992,
      "ĠGu": 1993,
      "Ġloc": 1994,
      "pÃ©u": 1995,
      "Ġalgunas": 1996,
      "Ġderecho": 1997,
      "Ġcompro": 1998,
      "Ġpsic": 1999,
      "Ġestra": 2000,
      "Ġmm": 2001,
      "Ġadul": 2002,
      "Ġgan": 2003,
      "dar": 2004,
      "Ġase": 2005,
      "Ġprincipal": 2006,
      "--": 2007,
      "biÃ³": 2008,
      "Ġseman": 2009,
      "Ġconten": 2010,
      "tensiÃ³n": 2011,
      "dice": 2012,
      "gi": 2013,
      "Ġselec": 2014,
      "Ġconv": 2015,
      "Ġesa": 2016,
      "Ġahora": 2017,
      "hi": 2018,
      "adamente": 2019,
      "ĠTra": 2020,
      "Ġpap": 2021,
      "Ġproductos": 2022,
      "Ġintegr": 2023,
      "Ġsemana": 2024,
      "Ġreac": 2025,
      "Ġmayores": 2026,
      "ĠPR": 2027,
      "emia": 2028,
      "Ġalcan": 2029,
      "Ġconduc": 2030,
      "demos": 2031,
      "Ġurg": 2032,
      "Ġdebido": 2033,
      "idente": 2034,
      "atro": 2035,
      "ulares": 2036,
      "Ġhaber": 2037,
      "Ġinteres": 2038,
      "fi": 2039,
      "Ġayuda": 2040,
      "fo": 2041,
      "Ġprob": 2042,
      "che": 2043,
      "rin": 2044,
      "Ġcomer": 2045,
      "trado": 2046,
      "ĠSo": 2047,
      "18": 2048,
      "Ġzona": 2049,
      "Ġdesarroll": 2050,
      "ut": 2051,
      "ED": 2052,
      "Ġdiabetes": 2053,
      "IA": 2054,
      "Ġedi": 2055,
      "Ġlesiones": 2056,
      "Ġpropor": 2057,
      "Ġ40": 2058,
      "Ġtecn": 2059,
      "CM": 2060,
      "17": 2061,
      "Ġcorrec": 2062,
      "oro": 2063,
      "Ġestr": 2064,
      "Ġdirig": 2065,
      "Eq": 2066,
      "Ġvari": 2067,
      "ho": 2068,
      "Ġpermite": 2069,
      "Ġauto": 2070,
      "ĠES": 2071,
      "Ġmec": 2072,
      "ĠComo": 2073,
      "pir": 2074,
      "Ġcap": 2075,
      "Ġetc": 2076,
      "Ġorganiz": 2077,
      "Ġseguimiento": 2078,
      "pre": 2079,
      "zas": 2080,
      "est": 2081,
      "ĠmEq": 2082,
      "imo": 2083,
      "Ġmiemb": 2084,
      "Ġalimentos": 2085,
      "50": 2086,
      "ĠÃ©s": 2087,
      "Ġestruc": 2088,
      "Ġconsecu": 2089,
      "Ġfi": 2090,
      "16": 2091,
      "Ġrenal": 2092,
      "Ġcapacidad": 2093,
      "porte": 2094,
      "Ġcin": 2095,
      "mg": 2096,
      "Ġpunto": 2097,
      "Ġyo": 2098,
      "dimiento": 2099,
      "Ġpoten": 2100,
      "ĠÃģ": 2101,
      "ĠprÃ³": 2102,
      "Ġinfer": 2103,
      "clus": 2104,
      "Ġbo": 2105,
      "Ġfrecuencia": 2106,
      "Ġintern": 2107,
      "Ġsiguientes": 2108,
      "Ġtratar": 2109,
      "ĠUN": 2110,
      "Ġpregun": 2111,
      "Ġcontac": 2112,
      "trÃŃa": 2113,
      "Ġcorrespon": 2114,
      "Ġescri": 2115,
      "Ġfib": 2116,
      "Ġfuncion": 2117,
      "bin": 2118,
      "mbi": 2119,
      "Ġconj": 2120,
      "tel": 2121,
      "Ġint": 2122,
      "ÃŃt": 2123,
      "Ġclar": 2124,
      "ĠquirÃºrg": 2125,
      "Ġbuena": 2126,
      "Ġsecund": 2127,
      "Ġabs": 2128,
      "fe": 2129,
      "Ġsos": 2130,
      "Ġmedia": 2131,
      "adora": 2132,
      "Ġpulmon": 2133,
      "terio": 2134,
      "entan": 2135,
      "ĠPe": 2136,
      "Ġacuerdo": 2137,
      "ides": 2138,
      "Ġtej": 2139,
      "Ġepi": 2140,
      "Ġfl": 2141,
      "ĠcaracterÃŃsticas": 2142,
      "Ġinde": 2143,
      "Ġconsul": 2144,
      "dor": 2145,
      "val": 2146,
      "Ġfrecuente": 2147,
      "obier": 2148,
      "Ġ+": 2149,
      "Ġintra": 2150,
      "Ġproces": 2151,
      "Ġocur": 2152,
      "tora": 2153,
      "Ġgrave": 2154,
      "Ġconstitu": 2155,
      "vier": 2156,
      "ĠhabÃŃa": 2157,
      "Ġlimi": 2158,
      "Ġcuidad": 2159,
      "icia": 2160,
      "Ġmer": 2161,
      "Ġgracias": 2162,
      "Ġneuro": 2163,
      "Ġservicio": 2164,
      "Ġestim": 2165,
      "Ġmicro": 2166,
      "port": 2167,
      "xico": 2168,
      "tus": 2169,
      "Ġapren": 2170,
      "uela": 2171,
      "Ġhid": 2172,
      "tales": 2173,
      "Ġcabo": 2174,
      "ĠpÃ©r": 2175,
      "itos": 2176,
      "Ġprecis": 2177,
      "Ġseguridad": 2178,
      "ĠprÃ¡ctica": 2179,
      "ĠtÃ©cnica": 2180,
      "Ã±as": 2181,
      "ĠJu": 2182,
      "ĠterapÃ©u": 2183,
      "Ġregis": 2184,
      "ĠJos": 2185,
      "itario": 2186,
      "tero": 2187,
      "Ġgras": 2188,
      "Ġtri": 2189,
      "Ġconte": 2190,
      "CION": 2191,
      "Ġfo": 2192,
      "Ġprevi": 2193,
      "ww": 2194,
      "Ġestad": 2195,
      "Es": 2196,
      "Ġalto": 2197,
      "vascular": 2198,
      "Ġblo": 2199,
      "tino": 2200,
      "Ġigual": 2201,
      "Ġtro": 2202,
      "Ġhistoria": 2203,
      "Ġpare": 2204,
      "ĠmÃ¡": 2205,
      "talidad": 2206,
      "aco": 2207,
      "AP": 2208,
      "2020": 2209,
      "Ġnatural": 2210,
      "Ġsolici": 2211,
      "Ġvarios": 2212,
      "ĠGener": 2213,
      "CR": 2214,
      "Ġnuevos": 2215,
      "Ġcambio": 2216,
      "iÃ³": 2217,
      "Ġinvestigadores": 2218,
      "Ġexperiencia": 2219,
      "ĠmÃºs": 2220,
      "Ġdeci": 2221,
      "Ġresultado": 2222,
      "Ġrealiza": 2223,
      "Ġgrado": 2224,
      "bilidades": 2225,
      "ĠPres": 2226,
      "ulos": 2227,
      "Ġpreven": 2228,
      "Ġprincipales": 2229,
      "ĠsÃŃndrome": 2230,
      "ecen": 2231,
      "Ġconc": 2232,
      "Ġlado": 2233,
      "son": 2234,
      "Ġsemanas": 2235,
      "uales": 2236,
      "Ġori": 2237,
      "Ġdiagnos": 2238,
      "ell": 2239,
      "Ġprov": 2240,
      "Ġdific": 2241,
      "diendo": 2242,
      "UE": 2243,
      "Ġencuentra": 2244,
      "fr": 2245,
      "ï¿": 2246,
      "ï¿½": 2247,
      "ologÃŃas": 2248,
      "olesc": 2249,
      "Ġtomar": 2250,
      "ĠrÃ¡p": 2251,
      "quiere": 2252,
      "Ġanim": 2253,
      "Ġayudar": 2254,
      "ĠInv": 2255,
      "mico": 2256,
      "Ġgus": 2257,
      "Ġimportancia": 2258,
      "Ġmillones": 2259,
      "Ġconocer": 2260,
      "ys": 2261,
      "patÃŃa": 2262,
      "ĠAd": 2263,
      "Ġderi": 2264,
      "culares": 2265,
      "dios": 2266,
      "xto": 2267,
      "inal": 2268,
      "ria": 2269,
      "Ġfalta": 2270,
      "ĠCON": 2271,
      "Ġactual": 2272,
      "Ġmater": 2273,
      "grafÃŃa": 2274,
      "TR": 2275,
      "Ġgrandes": 2276,
      "ĠCan": 2277,
      "Ġima": 2278,
      "Ġnecesidad": 2279,
      "Ġinflam": 2280,
      "ĠInf": 2281,
      "ni": 2282,
      "Ġeli": 2283,
      "fac": 2284,
      "Ġlogr": 2285,
      "Ġproyecto": 2286,
      "Ġsuperior": 2287,
      "ĠCor": 2288,
      "Ġcasi": 2289,
      "pciÃ³n": 2290,
      "torios": 2291,
      "Ġmuerte": 2292,
      "Ġcuanto": 2293,
      "plas": 2294,
      "Ġol": 2295,
      "ĠAL": 2296,
      "ima": 2297,
      "ĠAsÃŃ": 2298,
      "Ġpruebas": 2299,
      "Ġfinal": 2300,
      "ĠCuando": 2301,
      "Ġespaci": 2302,
      "dific": 2303,
      "Ġpasado": 2304,
      "tadas": 2305,
      "Ġreco": 2306,
      "ĠvÃŃa": 2307,
      "ĠproteÃŃn": 2308,
      "rar": 2309,
      "cup": 2310,
      "ill": 2311,
      "Ġexiste": 2312,
      "tando": 2313,
      "entado": 2314,
      "ĠPer": 2315,
      "ger": 2316,
      "Ġdieta": 2317,
      "tt": 2318,
      "ificaciÃ³n": 2319,
      "asa": 2320,
      "ordin": 2321,
      "tomÃŃa": 2322,
      "bar": 2323,
      "uma": 2324,
      "Ġprodu": 2325,
      "Ãį": 2326,
      "umen": 2327,
      "uye": 2328,
      "Ġvirus": 2329,
      "Ġcentros": 2330,
      "ĠCentro": 2331,
      "zos": 2332,
      "30": 2333,
      "Ġpresente": 2334,
      "iebre": 2335,
      "iares": 2336,
      "Ġemo": 2337,
      "Ġprepar": 2338,
      "ela": 2339,
      "Ġens": 2340,
      "Ġambi": 2341,
      "ĠtÃ©cnicas": 2342,
      "var": 2343,
      "her": 2344,
      "Ġcantidad": 2345,
      "Ã©tico": 2346,
      "ĠprevenciÃ³n": 2347,
      "Ġacom": 2348,
      "Ġba": 2349,
      "ĠEsto": 2350,
      "Ġmoder": 2351,
      "Ġcorre": 2352,
      "ficiente": 2353,
      "Ġbio": 2354,
      "Ġpesar": 2355,
      "ĠseÃ±al": 2356,
      "ĠartÃŃculo": 2357,
      "pti": 2358,
      "%)": 2359,
      "Ġta": 2360,
      "ĠintervenciÃ³n": 2361,
      "ÃĵN": 2362,
      "ficas": 2363,
      "ĠÃºltimos": 2364,
      "Ġmedidas": 2365,
      "Ġfis": 2366,
      "ĠEL": 2367,
      "obierno": 2368,
      "Ġprogres": 2369,
      "27": 2370,
      "teral": 2371,
      "Ġcuatro": 2372,
      "Ġunivers": 2373,
      "mio": 2374,
      "Ġru": 2375,
      "ĠserÃ¡": 2376,
      "Ġnada": 2377,
      "ono": 2378,
      "Ġjunto": 2379,
      "ĠlÃŃn": 2380,
      "Ġmantener": 2381,
      "Ġcuid": 2382,
      "Ġanterior": 2383,
      "reas": 2384,
      "ĠeconÃ³m": 2385,
      "Ã©rica": 2386,
      "Ġrealizado": 2387,
      "ĠInstituto": 2388,
      "Ġsimp": 2389,
      "Ġcel": 2390,
      "Ġsentido": 2391,
      "Ġconsulta": 2392,
      "ogra": 2393,
      "ĠtÃ³": 2394,
      "Ġpan": 2395,
      "orn": 2396,
      "Ġnuevas": 2397,
      "AT": 2398,
      "Ġnaci": 2399,
      "Ġinstitu": 2400,
      "Ġambos": 2401,
      "ĠÃºltimo": 2402,
      "Ġhospit": 2403,
      "ĠInvestig": 2404,
      "ĠclÃŃnico": 2405,
      "Ġintens": 2406,
      "guir": 2407,
      "Ġmanten": 2408,
      "ĠfÃ¡rmacos": 2409,
      "Ġesf": 2410,
      "coh": 2411,
      "tÃ¡": 2412,
      "trÃ³n": 2413,
      "ĠniÃ±o": 2414,
      "ity": 2415,
      "Ġadolesc": 2416,
      "tÃŃn": 2417,
      "Ġcondiciones": 2418,
      "Ġlec": 2419,
      "acionales": 2420,
      "Ġcla": 2421,
      "ticular": 2422,
      "Ġclas": 2423,
      "dap": 2424,
      "Ġhora": 2425,
      "!!": 2426,
      "Ġespecialmente": 2427,
      "Ġhombres": 2428,
      "Ġejercicio": 2429,
      "Ġdesta": 2430,
      "Ġmani": 2431,
      "dera": 2432,
      "ith": 2433,
      "ĠpÃ©rdida": 2434,
      "Ġpron": 2435,
      "bia": 2436,
      "Ġradio": 2437,
      "Ġcele": 2438,
      "gada": 2439,
      "Ġtab": 2440,
      "ace": 2441,
      "peraciÃ³n": 2442,
      "rio": 2443,
      "ĠÃ©l": 2444,
      "si": 2445,
      "Ġinsu": 2446,
      "Ġmane": 2447,
      "Ġseguir": 2448,
      "acto": 2449,
      "Ġnuestros": 2450,
      "IL": 2451,
      "Ġ22": 2452,
      "ĠLu": 2453,
      "Ġpapel": 2454,
      "omas": 2455,
      "fal": 2456,
      "puesto": 2457,
      "iedad": 2458,
      "ĠpresiÃ³n": 2459,
      "Ġhemo": 2460,
      "Ġconocimiento": 2461,
      "Ġsaber": 2462,
      "rez": 2463,
      "alizado": 2464,
      "ariciÃ³n": 2465,
      "ĠfÃŃsica": 2466,
      "Ġmadre": 2467,
      "Ġcontrib": 2468,
      "ĠTras": 2469,
      "Ġlib": 2470,
      "table": 2471,
      "Ġenc": 2472,
      "diÃ³": 2473,
      "cado": 2474,
      "acteri": 2475,
      "Ġexplic": 2476,
      "Ġdecis": 2477,
      "ĠPaci": 2478,
      "Ġobten": 2479,
      "ibles": 2480,
      "Ġcombin": 2481,
      "olÃ³gicas": 2482,
      "ĠEspaÃ±ola": 2483,
      "Ġsociales": 2484,
      "gura": 2485,
      "Ġminu": 2486,
      "Ġcompren": 2487,
      "ĠClÃŃn": 2488,
      "Ġterapia": 2489,
      "ismos": 2490,
      "Ġdesa": 2491,
      "cidos": 2492,
      "ital": 2493,
      "Ġflu": 2494,
      "ĠMin": 2495,
      "nas": 2496,
      "pios": 2497,
      "ĠThe": 2498,
      "Ġder": 2499,
      "200": 2500,
      "Ġpadres": 2501,
      "Ġapoyo": 2502,
      "trica": 2503,
      "Ġcuad": 2504,
      "Ġrefiere": 2505,
      "od": 2506,
      "Ġserie": 2507,
      "ĠcompaÃ±": 2508,
      "culo": 2509,
      "ĠVI": 2510,
      "Ġpromo": 2511,
      "ĠaÃºn": 2512,
      "ite": 2513,
      "ph": 2514,
      "ultad": 2515,
      "ĠÃ¡rea": 2516,
      "Ġperson": 2517,
      "gl": 2518,
      "ensa": 2519,
      "Ġhemos": 2520,
      "Ġpie": 2521,
      "Ġobes": 2522,
      "torias": 2523,
      "Ġvar": 2524,
      "Ġhu": 2525,
      "ĠacompaÃ±": 2526,
      "Ġconserv": 2527,
      "Ġalguna": 2528,
      "ximo": 2529,
      "icular": 2530,
      "mir": 2531,
      "Ġconsidera": 2532,
      "Ġmodelo": 2533,
      "tesis": 2534,
      "iden": 2535,
      "Ġextre": 2536,
      "Ġefic": 2537,
      "Ġunas": 2538,
      "24": 2539,
      "Ġorigen": 2540,
      "Ġdescu": 2541,
      "ĠMun": 2542,
      "terios": 2543,
      "UL": 2544,
      "entales": 2545,
      "all": 2546,
      "Ġfiebre": 2547,
      "Ġmedida": 2548,
      "Ġproduce": 2549,
      "Ġfactor": 2550,
      "Ġlig": 2551,
      "ormente": 2552,
      "Ġadap": 2553,
      "Ġmodo": 2554,
      "ĠcrÃ³nica": 2555,
      "ĠEstudi": 2556,
      "Ġcosas": 2557,
      ".-": 2558,
      "ĠGeneral": 2559,
      "Ġ%:": 2560,
      "Ġreducir": 2561,
      "Ġsignos": 2562,
      "Ġembarazo": 2563,
      "Ġarterial": 2564,
      "posi": 2565,
      "Ġella": 2566,
      "ĠcomÃºn": 2567,
      "Ġexperim": 2568,
      "titis": 2569,
      "pectos": 2570,
      "Ġparece": 2571,
      "Ġepiso": 2572,
      "Ġtrastornos": 2573,
      "Ġblan": 2574,
      "Ġdocum": 2575,
      "Ġrev": 2576,
      "ĠJo": 2577,
      "uls": 2578,
      "Ġcerebro": 2579,
      "Ġelem": 2580,
      "Ġ28": 2581,
      "Ġprueba": 2582,
      "trucciÃ³n": 2583,
      "tÃŃ": 2584,
      "Ġmortalidad": 2585,
      "Ġsig": 2586,
      "Ġmovi": 2587,
      "ĠDur": 2588,
      "ĠComun": 2589,
      "ĠalgÃºn": 2590,
      "La": 2591,
      "Ġcomplicaciones": 2592,
      "Ġexisten": 2593,
      "Ġ60": 2594,
      "ĠevaluaciÃ³n": 2595,
      "alizada": 2596,
      "Ġelimin": 2597,
      "Ġtrad": 2598,
      "mar": 2599,
      "Ġoc": 2600,
      "Ġreal": 2601,
      "ĠaplicaciÃ³n": 2602,
      "ĠFran": 2603,
      "ĠÃ³r": 2604,
      "Ġestabl": 2605,
      "ĠclÃŃnicos": 2606,
      "Ġpreval": 2607,
      "Ġestrateg": 2608,
      "Ġdicho": 2609,
      "ĠDesde": 2610,
      "Ġindividu": 2611,
      "Ġpade": 2612,
      "ciente": 2613,
      "Ġalcoh": 2614,
      "Ġllegar": 2615,
      "ĠÃ¡mbi": 2616,
      "Ġmedicina": 2617,
      "vir": 2618,
      "Ã©ticos": 2619,
      "ĠSegÃºn": 2620,
      "Ġ23": 2621,
      "Ġcuales": 2622,
      "ĠEntre": 2623,
      "Ġimportantes": 2624,
      "ĠJosÃ©": 2625,
      "Ã±ana": 2626,
      "tiz": 2627,
      "Ġacer": 2628,
      "capacidad": 2629,
      "ĠQu": 2630,
      "EP": 2631,
      "Ġrefle": 2632,
      "Ġpulmonar": 2633,
      "gio": 2634,
      "Ġami": 2635,
      "Ġaten": 2636,
      "Ġconta": 2637,
      "Ġ26": 2638,
      "teriormente": 2639,
      "ĠrealizÃ³": 2640,
      "Ġdom": 2641,
      "olar": 2642,
      "Ġcomen": 2643,
      "Ġaquellos": 2644,
      "tÃ³n": 2645,
      "Ġvan": 2646,
      "ĠFund": 2647,
      "Ã³logo": 2648,
      "uros": 2649,
      "Ġquer": 2650,
      "Ġbaja": 2651,
      "Ãĥ": 2652,
      "Ġinicio": 2653,
      "isl": 2654,
      "ĠÃº": 2655,
      "Ã¡ndose": 2656,
      "Ġbar": 2657,
      "Ġsupon": 2658,
      "entas": 2659,
      "nea": 2660,
      "Ġrecursos": 2661,
      "Ġtema": 2662,
      "ĠConse": 2663,
      "Ġperman": 2664,
      "Ġconcentr": 2665,
      "Ġsegundo": 2666,
      "ticamente": 2667,
      "enemos": 2668,
      "Ġsociedad": 2669,
      "Ġrespons": 2670,
      "antil": 2671,
      "ĠadministraciÃ³n": 2672,
      "ĠAsoci": 2673,
      "ach": 2674,
      "ĠMo": 2675,
      "Ġwith": 2676,
      "OC": 2677,
      "izo": 2678,
      "Ġusu": 2679,
      "Ġdiagnostic": 2680,
      "ensiÃ³n": 2681,
      "ĠRec": 2682,
      "Ġneu": 2683,
      "Ġpodemos": 2684,
      "Ġind": 2685,
      "ich": 2686,
      "Ġtama": 2687,
      "ĠÃŃn": 2688,
      "Ġ=": 2689,
      "Ġvia": 2690,
      "Ġprofun": 2691,
      "Ġmetab": 2692,
      "Ġtipos": 2693,
      "ĠMÃ©xico": 2694,
      "Ġaz": 2695,
      "Ġcasa": 2696,
      "Ġderecha": 2697,
      "__": 2698,
      "Ġresto": 2699,
      "ĠfarmacÃ©u": 2700,
      "Ġpresentan": 2701,
      "ĠServicio": 2702,
      "Ġreconoci": 2703,
      "ĠSanidad": 2704,
      "Ġ21": 2705,
      "Ġadultos": 2706,
      "Ġacceso": 2707,
      "Ġllevar": 2708,
      "Ġacep": 2709,
      "ĠAunque": 2710,
      "ivos": 2711,
      "Ġestre": 2712,
      "Ġaspectos": 2713,
      "Ġ27": 2714,
      "Ġensay": 2715,
      "ĠpolÃŃ": 2716,
      "Ġdiferencias": 2717,
      "orte": 2718,
      "Ġoral": 2719,
      "Ġdesarrollar": 2720,
      "ĠSociedad": 2721,
      "ĠmÃ©dica": 2722,
      "inar": 2723,
      "cedentes": 2724,
      "ĠapariciÃ³n": 2725,
      "Ġinfecciones": 2726,
      "Ġcrecimiento": 2727,
      "Ġprobable": 2728,
      "rami": 2729,
      "ĠEstados": 2730,
      "Ġingres": 2731,
      "Ġinicia": 2732,
      "ĠregiÃ³n": 2733,
      "rag": 2734,
      "viv": 2735,
      "ÃŃstica": 2736,
      "ĠAC": 2737,
      "Ġcontacto": 2738,
      "ice": 2739,
      "parta": 2740,
      "alth": 2741,
      "ĠmÃºlti": 2742,
      "dientes": 2743,
      "ĠMi": 2744,
      "Ġdem": 2745,
      "itaria": 2746,
      "Ġmejora": 2747,
      "Ġabdomin": 2748,
      "Ġhallaz": 2749,
      "Ġleg": 2750,
      "turo": 2751,
      "IO": 2752,
      "rada": 2753,
      "illa": 2754,
      "dal": 2755,
      "Ġnombre": 2756,
      "ciÃ³": 2757,
      "dom": 2758,
      "Ġprotec": 2759,
      "ĠCal": 2760,
      "ĠfÃ¡": 2761,
      "tÃ©": 2762,
      "ĠUnidos": 2763,
      "Ġindepen": 2764,
      "Ġfacil": 2765,
      "Ġinclu": 2766,
      "one": 2767,
      "Ġfuera": 2768,
      "portun": 2769,
      "Ġizquierda": 2770,
      "oler": 2771,
      "Ġvalores": 2772,
      "tancias": 2773,
      "Ġrecib": 2774,
      "Ġener": 2775,
      "Ġconcep": 2776,
      "Ġellas": 2777,
      "IM": 2778,
      "Ġcampo": 2779,
      "nes": 2780,
      "25": 2781,
      "ciales": 2782,
      "Ġmecan": 2783,
      "Ġesfuer": 2784,
      "iza": 2785,
      "ervi": 2786,
      "eras": 2787,
      "onces": 2788,
      "Ġfe": 2789,
      "ustri": 2790,
      "ĠbÃ¡s": 2791,
      "Ġmulti": 2792,
      "Ġvarias": 2793,
      "quetas": 2794,
      "Ġderiv": 2795,
      "ĠcomunicaciÃ³n": 2796,
      "Ġjun": 2797,
      "lio": 2798,
      "Ġincor": 2799,
      "ĠacciÃ³n": 2800,
      "lla": 2801,
      "infocitos": 2802,
      "Ġplante": 2803,
      "pias": 2804,
      "chos": 2805,
      "ĠdifÃŃ": 2806,
      "Ġdoctor": 2807,
      "media": 2808,
      "Ġingreso": 2809,
      "din": 2810,
      "tric": 2811,
      "Ġmodific": 2812,
      "rÃ¡": 2813,
      "pan": 2814,
      "ĠmaÃ±ana": 2815,
      "uras": 2816,
      "ĠtamaÃ±o": 2817,
      "ĠinterÃ©s": 2818,
      "Ġfamiliares": 2819,
      "Ġprimeros": 2820,
      "ICA": 2821,
      "Ġrecomien": 2822,
      "Ġplazo": 2823,
      "Ġcolor": 2824,
      "cent": 2825,
      "ĠDirec": 2826,
      "gÃ©n": 2827,
      "ĠDurante": 2828,
      "mol": 2829,
      "rera": 2830,
      "udo": 2831,
      "Ġcinco": 2832,
      "jus": 2833,
      "Ġluego": 2834,
      "venes": 2835,
      "ĠEstos": 2836,
      "ke": 2837,
      "tio": 2838,
      "Ġpaso": 2839,
      "ĠJuan": 2840,
      "unca": 2841,
      "//": 2842,
      "Ġses": 2843,
      "bra": 2844,
      "Ġintes": 2845,
      "Ġsuje": 2846,
      "Ġconcl": 2847,
      "ĠAS": 2848,
      "Ġfamiliar": 2849,
      "Ġelab": 2850,
      "arcÃŃa": 2851,
      "alizar": 2852,
      "Ġobl": 2853,
      "Ġfase": 2854,
      "orÃŃa": 2855,
      "Ġdistrib": 2856,
      "%,": 2857,
      "Ġpost": 2858,
      "Ġrealidad": 2859,
      "ĠCir": 2860,
      "itas": 2861,
      "Ã¡bi": 2862,
      "Ġaus": 2863,
      "Ġtoma": 2864,
      "anas": 2865,
      "Ġcog": 2866,
      "Ġat": 2867,
      "Ġevidencia": 2868,
      "ĠtÃ©r": 2869,
      "toc": 2870,
      "Ġfil": 2871,
      "Ġexpres": 2872,
      "ĠpatologÃŃa": 2873,
      "ĠmÃ©todo": 2874,
      "Ġlar": 2875,
      "Ġoportun": 2876,
      "Ġherrami": 2877,
      "ire": 2878,
      "isti": 2879,
      "ĠSE": 2880,
      "Ġencontrar": 2881,
      "trar": 2882,
      "Ġizquierdo": 2883,
      "anci": 2884,
      "Ġ198": 2885,
      "Ġlen": 2886,
      "Ġponer": 2887,
      "Ã³venes": 2888,
      "demi": 2889,
      "Ġminutos": 2890,
      "Ġgluc": 2891,
      "Ġtermin": 2892,
      "Ġorden": 2893,
      "ilar": 2894,
      "Ġpod": 2895,
      "Ġpen": 2896,
      "72": 2897,
      "Ġsuperfici": 2898,
      "IT": 2899,
      "Ġtenemos": 2900,
      "Ġnecesidades": 2901,
      "osas": 2902,
      "CIÃĵN": 2903,
      "Ġvita": 2904,
      "ĠCO": 2905,
      "Ġaproxim": 2906,
      "ĠMu": 2907,
      "ĠsueÃ±o": 2908,
      "turales": 2909,
      "zada": 2910,
      "Ġconci": 2911,
      "genes": 2912,
      "tismo": 2913,
      "Ġincidencia": 2914,
      "ĠpÃºblica": 2915,
      "://": 2916,
      "up": 2917,
      "ques": 2918,
      "Ġsegunda": 2919,
      "Ġocasiones": 2920,
      "Ã³filos": 2921,
      "ĠAm": 2922,
      "Ġconcre": 2923,
      "ĠningÃºn": 2924,
      "Ġvariables": 2925,
      "Ġutilizar": 2926,
      "ĠlÃŃqu": 2927,
      "Ġans": 2928,
      "Ġdese": 2929,
      "cida": 2930,
      "Ġentonces": 2931,
      "ĠmÃŃn": 2932,
      "Ġcompon": 2933,
      "CO": 2934,
      "form": 2935,
      "Ġantic": 2936,
      "Ġhacen": 2937,
      "Ġhumano": 2938,
      "ju": 2939,
      "Ġnervi": 2940,
      "Ã¡nd": 2941,
      "El": 2942,
      "ĠÃ³rgan": 2943,
      "tidos": 2944,
      "%.": 2945,
      "ĠHa": 2946,
      "zado": 2947,
      "pes": 2948,
      "arcel": 2949,
      "Ġdado": 2950,
      "zol": 2951,
      "Ġcompor": 2952,
      "mato": 2953,
      "Ġtendr": 2954,
      "Ġasegur": 2955,
      "Ãºblica": 2956,
      "Ġcriterios": 2957,
      "ĠFac": 2958,
      "Ġdescon": 2959,
      "Ġtien": 2960,
      "Ġimagen": 2961,
      "Ġcausas": 2962,
      "Ġgl": 2963,
      "Ġpresentar": 2964,
      "Ġmejores": 2965,
      "Ġabdominal": 2966,
      "Ġvig": 2967,
      "Ġinsuficiencia": 2968,
      "Ġ80": 2969,
      "ĠjÃ³venes": 2970,
      "iente": 2971,
      "Ġprocesos": 2972,
      "Ġurgencias": 2973,
      "Ġalcohol": 2974,
      "ĠGarcÃŃa": 2975,
      "pm": 2976,
      "Ġsiguiente": 2977,
      "ĠNeu": 2978,
      "Ġdescar": 2979,
      "ciendo": 2980,
      "Ġestu": 2981,
      "ĠMinis": 2982,
      "Ġpueda": 2983,
      "Ġliber": 2984,
      "Ãºa": 2985,
      "unta": 2986,
      "ernÃ¡n": 2987,
      "estion": 2988,
      "Ġlac": 2989,
      "Ġposterior": 2990,
      "Ġ)": 2991,
      "izar": 2992,
      "enso": 2993,
      "Ġaguda": 2994,
      "ÃŃtulo": 2995,
      "ĠNa": 2996,
      "Ġdedic": 2997,
      "Ġinferior": 2998,
      "Ġglob": 2999,
      "Ġningun": 3000,
      "cionar": 3001,
      "Ġpresidente": 3002,
      "Ġgaran": 3003,
      "Ġnacional": 3004,
      "68": 3005,
      "Ġpuesto": 3006,
      "Ġ29": 3007,
      "Ġposibilidad": 3008,
      "ĠFundaciÃ³n": 3009,
      "Ġhtt": 3010,
      "Ġcuadro": 3011,
      "ĠII": 3012,
      "ox": 3013,
      "ĠproducciÃ³n": 3014,
      "ĠpÃ¡g": 3015,
      "TE": 3016,
      "Ġsanitario": 3017,
      "ĠAtenciÃ³n": 3018,
      "Ġreciente": 3019,
      "Ġlabora": 3020,
      "jar": 3021,
      "Ġeficacia": 3022,
      "venci": 3023,
      "Ġaler": 3024,
      "Ġautores": 3025,
      "bu": 3026,
      "tualmente": 3027,
      "culos": 3028,
      "ĠgestiÃ³n": 3029,
      "IR": 3030,
      "Ã±ad": 3031,
      "Ġeta": 3032,
      "orar": 3033,
      "Ġradi": 3034,
      "aces": 3035,
      "ĠPla": 3036,
      "Ġcelebr": 3037,
      "arcelona": 3038,
      "vista": 3039,
      "ĠBar": 3040,
      "ĠNav": 3041,
      "Ġbacteri": 3042,
      "Ġinh": 3043,
      "Ġmanifes": 3044,
      "Ġox": 3045,
      "ĠÃ¡mbito": 3046,
      "ĠTA": 3047,
      "bado": 3048,
      "Ġacude": 3049,
      "Ġoblig": 3050,
      "Ġtrastorno": 3051,
      "Ġimplan": 3052,
      "Ġpalab": 3053,
      "ĠeducaciÃ³n": 3054,
      "ecciÃ³n": 3055,
      "toma": 3056,
      "ĠCam": 3057,
      "Ġsanitarios": 3058,
      "dedor": 3059,
      "Ġhijos": 3060,
      "Ġprogramas": 3061,
      "ĠAsociaciÃ³n": 3062,
      "gel": 3063,
      "ĠvaloraciÃ³n": 3064,
      "Ġrele": 3065,
      "misiÃ³n": 3066,
      "ĠcolaboraciÃ³n": 3067,
      "Ġexplica": 3068,
      "Ġobesidad": 3069,
      "Ġcuidados": 3070,
      "diz": 3071,
      "icidad": 3072,
      "Ġall": 3073,
      "33": 3074,
      "orazÃ³n": 3075,
      "Ġconseguir": 3076,
      "rad": 3077,
      "mino": 3078,
      "ĠHay": 3079,
      "Ġestaba": 3080,
      "ĠlesiÃ³n": 3081,
      "ernÃ¡ndez": 3082,
      "Ġvuel": 3083,
      "Ġleve": 3084,
      "trico": 3085,
      "Ġencuentran": 3086,
      "Ġdestac": 3087,
      "ĠTe": 3088,
      "teriores": 3089,
      "Ġsecre": 3090,
      "Ġ35": 3091,
      "ĠrevisiÃ³n": 3092,
      "imiento": 3093,
      ");": 3094,
      "puestas": 3095,
      "quis": 3096,
      "bilit": 3097,
      "Ġtumor": 3098,
      "ĠreducciÃ³n": 3099,
      "Ġeco": 3100,
      "ĠhÃ¡bi": 3101,
      "Ġcompe": 3102,
      "Ġbeneficios": 3103,
      "ciona": 3104,
      "Ġreferencia": 3105,
      "tral": 3106,
      "ĠGran": 3107,
      "ĠMor": 3108,
      "visiÃ³n": 3109,
      "Ġcurso": 3110,
      "grÃ¡": 3111,
      "ĠAD": 3112,
      "Ġperiodo": 3113,
      "ile": 3114,
      "ĠPs": 3115,
      "70": 3116,
      "Ġmens": 3117,
      "Ġhaya": 3118,
      "ign": 3119,
      "ĠPue": 3120,
      "Ġprovo": 3121,
      "Â¿": 3122,
      "Ġintro": 3123,
      "Ġprimaria": 3124,
      "ting": 3125,
      "Ġimplic": 3126,
      "Ġsimi": 3127,
      "ĠEurope": 3128,
      "ĠAP": 3129,
      "ard": 3130,
      "Ġsatis": 3131,
      "ural": 3132,
      "micos": 3133,
      "Ġgente": 3134,
      "psia": 3135,
      "Ġcabeza": 3136,
      "Ġpuntos": 3137,
      "Ġjus": 3138,
      "04": 3139,
      "Ġvista": 3140,
      "Ġdepor": 3141,
      "Ġhumanos": 3142,
      "Ġhijo": 3143,
      "Ġmiembros": 3144,
      "Ġfrecuentes": 3145,
      "inos": 3146,
      "Ġampli": 3147,
      "rax": 3148,
      "ĠdiagnÃ³s": 3149,
      "ĠPal": 3150,
      "Ġeran": 3151,
      "iores": 3152,
      "ĠFecha": 3153,
      "Ġrecep": 3154,
      "xima": 3155,
      "Ġcomien": 3156,
      "Ġdomici": 3157,
      "Ġadi": 3158,
      "Ġfeb": 3159,
      "arra": 3160,
      "mentos": 3161,
      "ĠestrÃ©s": 3162,
      "Ġconstituy": 3163,
      "Ġcuidado": 3164,
      "Ġmedios": 3165,
      "ples": 3166,
      "Ġfru": 3167,
      "ĠdisminuciÃ³n": 3168,
      "Ġporcent": 3169,
      "enos": 3170,
      "Ġvo": 3171,
      "ĠFar": 3172,
      "Ġquienes": 3173,
      "ĠfÃ¡cil": 3174,
      "Ġweb": 3175,
      "Ġsistemas": 3176,
      "Ġexter": 3177,
      "Ġmental": 3178,
      "Ġpreo": 3179,
      "Ġmio": 3180,
      "Ġnunca": 3181,
      "ĠMartÃŃn": 3182,
      "lica": 3183,
      "ĠCiru": 3184,
      "22": 3185,
      "Ġfrac": 3186,
      "Ġth": 3187,
      "partamento": 3188,
      "Ġmanejo": 3189,
      "tive": 3190,
      "ĠBarcelona": 3191,
      "ĠlÃŃnea": 3192,
      "ĠEnfermerÃŃa": 3193,
      "Ġespacio": 3194,
      "Ġprevalencia": 3195,
      "ĠmÃ©todos": 3196,
      "clo": 3197,
      "encial": 3198,
      "ĠJa": 3199,
      "ĠÃ¡reas": 3200,
      "Ġsome": 3201,
      "Ġdin": 3202,
      "Ġfinanci": 3203,
      "ĠEnferme": 3204,
      "Ġplac": 3205,
      "Ġofici": 3206,
      "38": 3207,
      "Ġenti": 3208,
      "Ġtengo": 3209,
      "Ġcontenido": 3210,
      "Ġorganismo": 3211,
      "tarse": 3212,
      "ĠAu": 3213,
      "ĠAb": 3214,
      "Ġcorpor": 3215,
      "ole": 3216,
      "Ġhabitual": 3217,
      "traciÃ³n": 3218,
      "ris": 3219,
      ".)": 3220,
      "istente": 3221,
      "ĠMarÃŃa": 3222,
      "Ġreun": 3223,
      "Ġdejar": 3224,
      "Ġ36": 3225,
      "imismo": 3226,
      "Ġvers": 3227,
      "Ġobjetivos": 3228,
      "ĠÃ©xi": 3229,
      "Ġpier": 3230,
      "Ġhorm": 3231,
      "Ġacon": 3232,
      "Ġhep": 3233,
      "Ġentor": 3234,
      "Ġtele": 3235,
      "ĠSer": 3236,
      "Ġsean": 3237,
      "ĠÃį": 3238,
      "Ġpriv": 3239,
      "ajes": 3240,
      "lante": 3241,
      "ĠvÃŃ": 3242,
      "Ġcoordin": 3243,
      "Ġprevenir": 3244,
      "ĠdÃ©": 3245,
      "rupo": 3246,
      "Ġcontr": 3247,
      "ĠLi": 3248,
      "ĠBo": 3249,
      "TO": 3250,
      "UR": 3251,
      "Ġtejido": 3252,
      "ĠRef": 3253,
      "Ġobtener": 3254,
      "ĠReg": 3255,
      "ĠFe": 3256,
      "ĠPAR": 3257,
      "ajo": 3258,
      "Ġrelacionados": 3259,
      "trum": 3260,
      "Ġlibre": 3261,
      "Ġimpres": 3262,
      "Ġfuturo": 3263,
      "Ġimpacto": 3264,
      "Ġ70": 3265,
      "Ġ90": 3266,
      "Ġnoso": 3267,
      "ĠexposiciÃ³n": 3268,
      "ler": 3269,
      "Ġescuch": 3270,
      "Ġansiedad": 3271,
      "Ġtos": 3272,
      "ĠdifÃŃcil": 3273,
      "US": 3274,
      "Ġdirector": 3275,
      "Ġexam": 3276,
      "Ġtus": 3277,
      "Ġcoment": 3278,
      "Ġley": 3279,
      "Ġban": 3280,
      "una": 3281,
      "ĠasociaciÃ³n": 3282,
      "Ġmismos": 3283,
      "tario": 3284,
      "irma": 3285,
      "Ġcontexto": 3286,
      "Ġdistintos": 3287,
      "Ġred": 3288,
      "Ġcerebral": 3289,
      "Ġparticular": 3290,
      "Ġgri": 3291,
      "Ġcentral": 3292,
      "36": 3293,
      "Ġnum": 3294,
      "ĠTi": 3295,
      "taron": 3296,
      "Ġlengu": 3297,
      "ucocitos": 3298,
      "cÃ³": 3299,
      "Ġsom": 3300,
      "Ġbasal": 3301,
      "ents": 3302,
      "ĠPrim": 3303,
      "ĠalimentaciÃ³n": 3304,
      "Ġendo": 3305,
      "iciones": 3306,
      "ĠCuba": 3307,
      "Ġcumpl": 3308,
      "ĠQUE": 3309,
      "Ã©mica": 3310,
      "rededor": 3311,
      "Ġul": 3312,
      "Ġsup": 3313,
      "EL": 3314,
      "Ġpau": 3315,
      "ĠEC": 3316,
      "isiÃ³n": 3317,
      "ĠÃ³se": 3318,
      "glob": 3319,
      "tions": 3320,
      "ĠFC": 3321,
      "Ġlabor": 3322,
      "Ġproducir": 3323,
      "izado": 3324,
      "ĠenfermerÃŃa": 3325,
      "Ġadvers": 3326,
      "Ġdiferencia": 3327,
      "ĠrealizaciÃ³n": 3328,
      "guez": 3329,
      "DA": 3330,
      "ĠDia": 3331,
      "ĠparticipaciÃ³n": 3332,
      "Ġluz": 3333,
      "Ġsuele": 3334,
      "ĠclÃŃnicas": 3335,
      "40": 3336,
      "bol": 3337,
      "Ġenten": 3338,
      "trÃ³filos": 3339,
      "clar": 3340,
      "Ġdisposi": 3341,
      "Ġaisl": 3342,
      "Ġpropio": 3343,
      "ĠperÃŃo": 3344,
      "Ġformas": 3345,
      "nov": 3346,
      "Ġproducto": 3347,
      "ĠPaciente": 3348,
      "Ã³logos": 3349,
      "Ġempez": 3350,
      "Ġsanitaria": 3351,
      "Ġsimple": 3352,
      "guÃŃn": 3353,
      "Ġoper": 3354,
      "Ġantecedentes": 3355,
      "Ġbila": 3356,
      "iado": 3357,
      "ulio": 3358,
      "onz": 3359,
      "dicas": 3360,
      "Ġcub": 3361,
      "teo": 3362,
      "cipl": 3363,
      "ĠGr": 3364,
      "Ġprocedimiento": 3365,
      "Ġmagn": 3366,
      "Ġcomunidad": 3367,
      "ĠdepresiÃ³n": 3368,
      "cionales": 3369,
      "Ġdice": 3370,
      "Ġsexo": 3371,
      "geno": 3372,
      "rero": 3373,
      "taria": 3374,
      "ĠÃºltima": 3375,
      "clusiones": 3376,
      "Ġpuedan": 3377,
      "grama": 3378,
      "ĠSa": 3379,
      "ly": 3380,
      "Ġcoron": 3381,
      "Ġmano": 3382,
      "Ġafecta": 3383,
      "net": 3384,
      "omÃŃa": 3385,
      "Ġsector": 3386,
      "imos": 3387,
      "Ġmenores": 3388,
      "Ġtarde": 3389,
      "Ġsexual": 3390,
      "ferencia": 3391,
      "Ġpropia": 3392,
      "Ġviol": 3393,
      "medio": 3394,
      "ĠBi": 3395,
      "ĠÃįn": 3396,
      "Ġsituaciones": 3397,
      "Ġajus": 3398,
      "ĠCarlos": 3399,
      "03": 3400,
      "Ġabor": 3401,
      "Ġtraspl": 3402,
      "grado": 3403,
      "ieron": 3404,
      "Ġopin": 3405,
      "Ġ<": 3406,
      "ĠSon": 3407,
      "Ġfum": 3408,
      "vÃŃa": 3409,
      "Ġdesp": 3410,
      "Ġalterna": 3411,
      "Ġexpertos": 3412,
      "ĠPol": 3413,
      "ĠcorazÃ³n": 3414,
      "Ġincorpor": 3415,
      "ĠpÃºblico": 3416,
      "Ġsimilar": 3417,
      "ĠGobierno": 3418,
      "Ġcara": 3419,
      "Ġposibles": 3420,
      "Ġnosotros": 3421,
      "Ġrelaciones": 3422,
      "eos": 3423,
      "Ġqued": 3424,
      "ĠduraciÃ³n": 3425,
      "Ġcapa": 3426,
      "Ġcompues": 3427,
      "ĠEv": 3428,
      "Ġtumores": 3429,
      "ulina": 3430,
      "Ġactualidad": 3431,
      "ĠVIH": 3432,
      "ĠgÃ©n": 3433,
      "Ġtenido": 3434,
      "ĠaquÃŃ": 3435,
      "ila": 3436,
      "Ġfundamental": 3437,
      "ĠPos": 3438,
      "ĠHi": 3439,
      "Ġdemostrado": 3440,
      "ĠInvestigaciÃ³n": 3441,
      "ĠaÃ±ad": 3442,
      "ĠÃºnico": 3443,
      "Ġrecomienda": 3444,
      "Ġinforme": 3445,
      "ĠDÃŃa": 3446,
      "ÂŃ": 3447,
      "Ġnoche": 3448,
      "metros": 3449,
      "xic": 3450,
      "ĠcardÃŃa": 3451,
      "cula": 3452,
      "Ġsac": 3453,
      "Ġperfil": 3454,
      "seÃ±": 3455,
      "ĠfÃŃsico": 3456,
      "ĠMundial": 3457,
      "Ġmama": 3458,
      "ĠÃįndice": 3459,
      "Ġacci": 3460,
      "terol": 3461,
      "05": 3462,
      "Ġalum": 3463,
      "Ġartic": 3464,
      "Ġhallazgos": 3465,
      "ĠDeb": 3466,
      "top": 3467,
      "Ġinfantil": 3468,
      "Ġinmedia": 3469,
      "Ġanimales": 3470,
      "Ã¼": 3471,
      "Ġace": 3472,
      "Ã§": 3473,
      "arto": 3474,
      "ĠMinisterio": 3475,
      "lez": 3476,
      "',": 3477,
      "Ġnecesita": 3478,
      "Ġpros": 3479,
      "Ġcardiovascular": 3480,
      "ĠEuropa": 3481,
      "ĠantibiÃ³": 3482,
      "tubre": 3483,
      "21": 3484,
      "Ġdisf": 3485,
      "ĠPlan": 3486,
      "Ġconjunto": 3487,
      "gon": 3488,
      "Ġsustitu": 3489,
      "Ġinflu": 3490,
      "??": 3491,
      "Ġlinf": 3492,
      "ĠLinfocitos": 3493,
      "mÃ¡tica": 3494,
      "ĠsensaciÃ³n": 3495,
      "Ġconver": 3496,
      "Ġadolescentes": 3497,
      "ĠIC": 3498,
      "ĠÃ©xito": 3499,
      "ear": 3500,
      "Ġfuncional": 3501,
      "Ġmotivo": 3502,
      "vieron": 3503,
      "ÃŃcula": 3504,
      "ĠserÃŃa": 3505,
      "Ġhaci": 3506,
      "ĠÃºtil": 3507,
      "Ġcolon": 3508,
      "Ġinternacional": 3509,
      "Ġindustri": 3510,
      "Ġmedicamento": 3511,
      "Ġespecialista": 3512,
      "76": 3513,
      "Ġzonas": 3514,
      "Ġpreco": 3515,
      "Ġadecuada": 3516,
      "rolÃ³g": 3517,
      "ĠÃ¡cido": 3518,
      "Ġconfirm": 3519,
      "ĠNO": 3520,
      "Ġinterac": 3521,
      "lon": 3522,
      "Ġmaterial": 3523,
      "ĠCirugÃŃa": 3524,
      "chas": 3525,
      "Ġclaro": 3526,
      "Ġsuel": 3527,
      "âĢĵ": 3528,
      "Ġcogni": 3529,
      "riÃ³": 3530,
      "ĠBuen": 3531,
      "Ġesos": 3532,
      "ĠResul": 3533,
      "Ġrespec": 3534,
      "cidad": 3535,
      "Ġcateg": 3536,
      "23": 3537,
      "ĠespaÃ±ol": 3538,
      "istentes": 3539,
      "ĠCOM": 3540,
      "UN": 3541,
      "ĠpodrÃŃan": 3542,
      "Ġges": 3543,
      "Ġsospec": 3544,
      "Ġbron": 3545,
      "Ġdetal": 3546,
      "Ġdicha": 3547,
      "Ġlaboral": 3548,
      "Ġmarcha": 3549,
      "Ġevaluar": 3550,
      "Ġdor": 3551,
      "ĠPCR": 3552,
      "Ġhombre": 3553,
      "Ġhablar": 3554,
      "Ġdomin": 3555,
      "Ġpublicado": 3556,
      "Ġlocal": 3557,
      "Ġerr": 3558,
      "ĠUnidad": 3559,
      "Ġdijo": 3560,
      "Ġ33": 3561,
      "Ġprimero": 3562,
      "Ġtes": 3563,
      "para": 3564,
      "Ġreduc": 3565,
      "enti": 3566,
      "del": 3567,
      "ĠOrgan": 3568,
      "Ġ#": 3569,
      "ĠcientÃŃfica": 3570,
      "Ġactualmente": 3571,
      "ĠproteÃŃnas": 3572,
      "Ġabier": 3573,
      "ĠvisiÃ³n": 3574,
      "illo": 3575,
      "icip": 3576,
      "Ġestudiantes": 3577,
      "Ġdiscapacidad": 3578,
      "26": 3579,
      "Ġclave": 3580,
      "Ġcrisis": 3581,
      "Ġsuficiente": 3582,
      "ĠClÃŃnica": 3583,
      "of": 3584,
      "istema": 3585,
      "Ġmam": 3586,
      "ĠRa": 3587,
      "Ġasisten": 3588,
      "Ġseis": 3589,
      "Ġalrededor": 3590,
      "Ġmanos": 3591,
      "Ġinstrum": 3592,
      "quilib": 3593,
      "Ġgraves": 3594,
      "VID": 3595,
      "ĠUrg": 3596,
      "tinal": 3597,
      "encion": 3598,
      "ĠAlgun": 3599,
      "imer": 3600,
      "Ġinfl": 3601,
      "Ġgo": 3602,
      "cepciÃ³n": 3603,
      "tional": 3604,
      "Ġofrece": 3605,
      "Ġrepro": 3606,
      "..": 3607,
      "Ġaspecto": 3608,
      "MA": 3609,
      "ĠNeutrÃ³filos": 3610,
      "Ġtempera": 3611,
      "Ġadecuado": 3612,
      "Ġsolu": 3613,
      "ence": 3614,
      "Ġ31": 3615,
      "tienen": 3616,
      "ĠtenÃŃa": 3617,
      "dL": 3618,
      "Ġll": 3619,
      "itan": 3620,
      "Ġ2010": 3621,
      "dencias": 3622,
      "Ġdistintas": 3623,
      "ĠIntern": 3624,
      "quer": 3625,
      "Ġatra": 3626,
      "ĠBas": 3627,
      "arÃ¡n": 3628,
      "Ġrevista": 3629,
      "logÃŃa": 3630,
      "hid": 3631,
      "ĠAle": 3632,
      "ĠhipertensiÃ³n": 3633,
      "Ġestamos": 3634,
      "kin": 3635,
      "pez": 3636,
      "ĠProteÃŃn": 3637,
      "Ġsur": 3638,
      "ĠmÃºltiples": 3639,
      "OT": 3640,
      "ĠGonz": 3641,
      "AU": 3642,
      "ĠAN": 3643,
      "Ġaumentar": 3644,
      "ĠObs": 3645,
      "Ġlleva": 3646,
      "tiÃ³": 3647,
      "Ġ95": 3648,
      "28": 3649,
      "itro": 3650,
      "Ġprevio": 3651,
      "Ġcolec": 3652,
      "macia": 3653,
      "Ġsiglo": 3654,
      "Ġfa": 3655,
      "tinina": 3656,
      "Ġata": 3657,
      "Ġtromb": 3658,
      "meric": 3659,
      "Ġterri": 3660,
      "Ġincluye": 3661,
      "Ġexcel": 3662,
      "Ġsatisfac": 3663,
      "mes": 3664,
      "Ġlibro": 3665,
      "Ã³lica": 3666,
      "Ġvolun": 3667,
      "tilla": 3668,
      "Ġsintom": 3669,
      "Ġho": 3670,
      "Ġentorno": 3671,
      "Ġcierto": 3672,
      "75": 3673,
      "Ġfen": 3674,
      "Ġsigue": 3675,
      "Ġeuro": 3676,
      "ĠMonocitos": 3677,
      "arlo": 3678,
      "venciones": 3679,
      "PS": 3680,
      "ĠsanguÃŃn": 3681,
      "Qu": 3682,
      "Ġescas": 3683,
      "Ġ2012": 3684,
      "IV": 3685,
      "Ġdeterminar": 3686,
      "rido": 3687,
      "quia": 3688,
      "Ġasistencia": 3689,
      "Ġluch": 3690,
      "orÃŃas": 3691,
      "Ġ>": 3692,
      "drÃŃ": 3693,
      "Ġrespiratoria": 3694,
      "amer": 3695,
      "ĠcientÃŃficos": 3696,
      "ĠdemÃ¡s": 3697,
      "Ġventr": 3698,
      "ĠConsejo": 3699,
      "Ġporcentaje": 3700,
      "Ġil": 3701,
      "titud": 3702,
      "Ġdenomin": 3703,
      "Ġdiversos": 3704,
      "Ġusted": 3705,
      "Ġ34": 3706,
      "ĠsoluciÃ³n": 3707,
      "Ġredu": 3708,
      "Ġprac": 3709,
      "Ġtemas": 3710,
      "Ġhospitales": 3711,
      "Ġsug": 3712,
      "Ġtasa": 3713,
      "itor": 3714,
      "Ã¡ci": 3715,
      "Ġcompleta": 3716,
      "gesta": 3717,
      "tÃ¡nea": 3718,
      "Ġsenci": 3719,
      "reg": 3720,
      "ET": 3721,
      "ĠHab": 3722,
      "Ã£": 3723,
      "Ġcomunic": 3724,
      "Ġeduca": 3725,
      "IB": 3726,
      "ĠenergÃŃa": 3727,
      "Ġeti": 3728,
      "Ġcomprim": 3729,
      "torial": 3730,
      "uido": 3731,
      "Ġtuvo": 3732,
      "cripciÃ³n": 3733,
      "ĠdÃ©c": 3734,
      "ĠAsimismo": 3735,
      "Ġhemor": 3736,
      "Ġrecomendaciones": 3737,
      "Ġobstante": 3738,
      "Ġelementos": 3739,
      "ĠLey": 3740,
      "Ġbloque": 3741,
      "Ã¨": 3742,
      "Ġsist": 3743,
      "Ã³geno": 3744,
      "Ġproteg": 3745,
      "ĠprotecciÃ³n": 3746,
      "ĠÂ¡": 3747,
      "Ġparticipantes": 3748,
      "ĠIs": 3749,
      "Ġacciones": 3750,
      "Ġempresa": 3751,
      "ĠUniversitario": 3752,
      "Ġorina": 3753,
      "Ġespecialistas": 3754,
      "Ġriesgos": 3755,
      "umon": 3756,
      "Ġ38": 3757,
      "au": 3758,
      "Ġeuros": 3759,
      "Ġtoler": 3760,
      "Ã©mico": 3761,
      "En": 3762,
      "bio": 3763,
      "tida": 3764,
      "Ġjug": 3765,
      "Ġhist": 3766,
      "Ġgrasa": 3767,
      "amientos": 3768,
      "Ġinstal": 3769,
      "guen": 3770,
      "Ġran": 3771,
      "ĠEstudio": 3772,
      "Ġacerca": 3773,
      "ĠdaÃ±o": 3774,
      "Ġmit": 3775,
      "Ġfer": 3776,
      "Ġaproximadamente": 3777,
      "Ġrepe": 3778,
      "Ġperten": 3779,
      "oC": 3780,
      "Ġml": 3781,
      "Ġentren": 3782,
      "ĠNuev": 3783,
      "Ġconsecuencia": 3784,
      "uyen": 3785,
      "Ġprevia": 3786,
      "ĠNeuro": 3787,
      "Ġalar": 3788,
      "Ġdeman": 3789,
      "Ġpasar": 3790,
      "tasio": 3791,
      "Ġdescub": 3792,
      "ientes": 3793,
      "Ã£o": 3794,
      "Ġprovoc": 3795,
      "Ġprincipalmente": 3796,
      "Ġglobal": 3797,
      "Ġhizo": 3798,
      "Ġrecuer": 3799,
      "Ġtrasl": 3800,
      "ĠUrgencias": 3801,
      "Ġplas": 3802,
      "pica": 3803,
      "ĠLuis": 3804,
      "quieren": 3805,
      "Ġtit": 3806,
      "Ġestructura": 3807,
      "adoras": 3808,
      "Ġindica": 3809,
      "ĠperÃŃodo": 3810,
      "Ġases": 3811,
      "Ġlleg": 3812,
      "Ġrecibir": 3813,
      "ĠTa": 3814,
      "ĠorganizaciÃ³n": 3815,
      "zan": 3816,
      "ieren": 3817,
      "ĠSocial": 3818,
      "Ġaire": 3819,
      "Ġcorporal": 3820,
      "Ã¡ticos": 3821,
      "Ġcif": 3822,
      "Ġvalorar": 3823,
      "Ġempe": 3824,
      "ĠpequeÃ±os": 3825,
      "Ġprecoz": 3826,
      "Ġ37": 3827,
      "tuales": 3828,
      "ub": 3829,
      "ĠpatologÃŃas": 3830,
      "MS": 3831,
      "ĠColom": 3832,
      "ampo": 3833,
      "zÃ³": 3834,
      "Ġapoy": 3835,
      "Ã¡cter": 3836,
      "uestra": 3837,
      "ĠIII": 3838,
      "Ġ2011": 3839,
      "Ġrepresent": 3840,
      "ĠYo": 3841,
      "rana": 3842,
      "ks": 3843,
      "Ġhepa": 3844,
      "ĠEstado": 3845,
      "Ġfamilias": 3846,
      "globina": 3847,
      "Ġresulta": 3848,
      "Ġempresas": 3849,
      "ecre": 3850,
      "Ġhabl": 3851,
      "ĠestÃ©": 3852,
      "Ġidentificar": 3853,
      "dimientos": 3854,
      "Ġencar": 3855,
      "crito": 3856,
      "Ã³lico": 3857,
      "Ġ2009": 3858,
      "Ġlimp": 3859,
      "Ġtrabajar": 3860,
      "mÃ¡genes": 3861,
      "ĠImp": 3862,
      "mite": 3863,
      "Ã¡m": 3864,
      "ĠHemo": 3865,
      "Ġ2013": 3866,
      "ĠmejorÃŃa": 3867,
      "Ġrecord": 3868,
      "Ġcerca": 3869,
      "Ġnormales": 3870,
      "Ġninguna": 3871,
      "Ġproyectos": 3872,
      "80": 3873,
      "ografÃŃa": 3874,
      "Ġbra": 3875,
      "Ġmarc": 3876,
      "ĠLD": 3877,
      "Ġresponsable": 3878,
      "Ġcardiaca": 3879,
      "ĠAg": 3880,
      "Ġbor": 3881,
      "Ġrequiere": 3882,
      "Ġdig": 3883,
      "estes": 3884,
      "Ġhig": 3885,
      "Ġdro": 3886,
      "ate": 3887,
      "merg": 3888,
      "Ġaumenta": 3889,
      "ĠdetecciÃ³n": 3890,
      "Ġ2015": 3891,
      "Ġpuedes": 3892,
      "Ġprincipio": 3893,
      "Ġestablecer": 3894,
      "Ġpartes": 3895,
      "EG": 3896,
      "ficaz": 3897,
      "Ã¡lez": 3898,
      "Ġfunciones": 3899,
      "bina": 3900,
      "29": 3901,
      "Ġfuerza": 3902,
      "olid": 3903,
      "Ġcirc": 3904,
      "Ġq": 3905,
      "Ġpop": 3906,
      "Ġlaboratorio": 3907,
      "ĠenseÃ±": 3908,
      "Ã³mi": 3909,
      "Ġ45": 3910,
      "Ġrit": 3911,
      "Ġsim": 3912,
      "ĠDer": 3913,
      "Ġincremento": 3914,
      "Ġmayo": 3915,
      "Ġeurope": 3916,
      "ĠtenÃŃan": 3917,
      "ale": 3918,
      "Ġmovimiento": 3919,
      "Ġdici": 3920,
      "ĠcarÃ¡cter": 3921,
      "ICO": 3922,
      "Ġpasa": 3923,
      "Ġausencia": 3924,
      "ĠpequeÃ±o": 3925,
      "jan": 3926,
      "Ġprolon": 3927,
      "ĠdiseÃ±": 3928,
      "Ġelectro": 3929,
      "Ġinterpre": 3930,
      "ĠVer": 3931,
      "pens": 3932,
      "Hg": 3933,
      "Ã©rg": 3934,
      "Ġpermitir": 3935,
      "Ġprotoc": 3936,
      "drÃŃguez": 3937,
      "rado": 3938,
      "Ġconocimientos": 3939,
      "79": 3940,
      "americ": 3941,
      "Ġsuperviv": 3942,
      "aja": 3943,
      "ĠtecnologÃŃa": 3944,
      "idores": 3945,
      "Ġenero": 3946,
      "Ġperfec": 3947,
      "Ġusar": 3948,
      "ĠOn": 3949,
      "Ġneur": 3950,
      "Ġ2008": 3951,
      "Ġ2014": 3952,
      "Ġasociado": 3953,
      "cera": 3954,
      "Ã©is": 3955,
      "unci": 3956,
      "Ġub": 3957,
      "cciÃ³n": 3958,
      "ĠCH": 3959,
      "ĠelectrÃ³n": 3960,
      "ĠAnton": 3961,
      "Ġestoy": 3962,
      "ĠPrimaria": 3963,
      "viembre": 3964,
      "ĠMuch": 3965,
      "habilit": 3966,
      "Ġrepresenta": 3967,
      "Ġprovin": 3968,
      "Ã³pez": 3969,
      "Ġasociada": 3970,
      "cler": 3971,
      "matologÃŃa": 3972,
      "ric": 3973,
      "Ġjue": 3974,
      "Ġidea": 3975,
      "ebril": 3976,
      "ĠQue": 3977,
      "blo": 3978,
      "ĠutilizaciÃ³n": 3979,
      "Ġverdad": 3980,
      "Ġpositivo": 3981,
      "nal": 3982,
      "ĠEsc": 3983,
      "metro": 3984,
      "ĠSistema": 3985,
      "ĠEstas": 3986,
      "Ġinicial": 3987,
      "ENTE": 3988,
      "meros": 3989,
      "Ġepidemi": 3990,
      "rÃ³": 3991,
      "86": 3992,
      "Ġpropie": 3993,
      "Ġpareja": 3994,
      "ĠcampaÃ±": 3995,
      "Ġfem": 3996,
      "OG": 3997,
      "ifies": 3998,
      "Ġproba": 3999,
      "Ġconven": 4000,
      "ultades": 4001,
      "Ġâ": 4002,
      "ĠhabÃŃan": 4003,
      "ĠÃºnica": 4004,
      "VI": 4005,
      "alizados": 4006,
      "Ġinyec": 4007,
      "Ġesfuerzo": 4008,
      "Ġvacuna": 4009,
      "Ġpin": 4010,
      "ĠimÃ¡genes": 4011,
      "ĠHer": 4012,
      "82": 4013,
      "ure": 4014,
      "Ġagra": 4015,
      "tricos": 4016,
      "rosis": 4017,
      "ĠposiciÃ³n": 4018,
      "quiera": 4019,
      "ĠGrupo": 4020,
      "Ġasociados": 4021,
      "Ġunidad": 4022,
      "Ġtercer": 4023,
      "Ġsuelen": 4024,
      "CA": 4025,
      "uesta": 4026,
      "Ġbienes": 4027,
      "ĠPÃºblica": 4028,
      "Ġmiembro": 4029,
      "Ġojos": 4030,
      "Ġfon": 4031,
      "ÃŃdo": 4032,
      "60": 4033,
      "Ġpreocup": 4034,
      "Ġdiversas": 4035,
      "Ġvolumen": 4036,
      "Ġeficaz": 4037,
      "ĠCongreso": 4038,
      "cardi": 4039,
      "In": 4040,
      "paciÃ³n": 4041,
      "85": 4042,
      "Ġdiciembre": 4043,
      "ĠquÃŃ": 4044,
      "aceta": 4045,
      "ptiembre": 4046,
      "Ġasi": 4047,
      "ĠEduc": 4048,
      "Ġapre": 4049,
      "dieron": 4050,
      "tod": 4051,
      "ĠinflamaciÃ³n": 4052,
      "enas": 4053,
      "ĠexploraciÃ³n": 4054,
      "Ġresistencia": 4055,
      "Ġcolabor": 4056,
      "ĠRefiere": 4057,
      "milares": 4058,
      "Ġinvas": 4059,
      "Ġale": 4060,
      "Ġjunio": 4061,
      "vera": 4062,
      "ĠDEL": 4063,
      "ĠvÃ³mi": 4064,
      "diÃ¡": 4065,
      "Ġdeterior": 4066,
      "ĠediciÃ³n": 4067,
      "ĠMÃ¡s": 4068,
      "domen": 4069,
      "ance": 4070,
      "Ġvent": 4071,
      "Ġambas": 4072,
      "ĠInternacional": 4073,
      "ello": 4074,
      "miso": 4075,
      "rane": 4076,
      "Ġinterior": 4077,
      "ĠDa": 4078,
      "Ġdeclar": 4079,
      "ĠGonzÃ¡lez": 4080,
      "TER": 4081,
      "Ġsupone": 4082,
      "ĠpresentaciÃ³n": 4083,
      "blio": 4084,
      "Ġutiliza": 4085,
      "uerra": 4086,
      "ins": 4087,
      "Ġhaciendo": 4088,
      "Ġingesta": 4089,
      "Ġrespe": 4090,
      "OD": 4091,
      "ĠRodrÃŃguez": 4092,
      "Ġdiar": 4093,
      "Ġvitamina": 4094,
      "Ġpelig": 4095,
      "Ġ2016": 4096,
      "Ġfecha": 4097,
      "Ġconsiste": 4098,
      "Ġinnov": 4099,
      "ĠhÃ¡bitos": 4100,
      "Ġenfermos": 4101,
      "Ġtales": 4102,
      "osin": 4103,
      "Ġlograr": 4104,
      "ĠartÃŃculos": 4105,
      "Ġmarzo": 4106,
      "Ġbol": 4107,
      "Ġmanifies": 4108,
      "Ġeleg": 4109,
      "ese": 4110,
      "ĠAnte": 4111,
      "Ġdefini": 4112,
      "dl": 4113,
      "Ġindependiente": 4114,
      "Ġpose": 4115,
      "Ġobra": 4116,
      "Ġseleccion": 4117,
      "Ġlum": 4118,
      "Ġraz": 4119,
      "Ġcrea": 4120,
      "esta": 4121,
      "Ġaliment": 4122,
      "Ġobjeto": 4123,
      "Ġdud": 4124,
      "demia": 4125,
      "Ġ2007": 4126,
      "dizaje": 4127,
      "ianza": 4128,
      "ĠcomparaciÃ³n": 4129,
      "Ġbal": 4130,
      "tible": 4131,
      "ÃŃtico": 4132,
      "Ġjo": 4133,
      "Ġpulm": 4134,
      "Ġcerv": 4135,
      "Ġtur": 4136,
      "Ġrece": 4137,
      "Ġmemor": 4138,
      "ty": 4139,
      "ende": 4140,
      "ĠResultados": 4141,
      "Ġrelev": 4142,
      "Ġnuestras": 4143,
      "AB": 4144,
      "Ġnas": 4145,
      "ĠDoc": 4146,
      "Ġje": 4147,
      "Ġede": 4148,
      "triz": 4149,
      "ĠhÃŃ": 4150,
      "Ġconsum": 4151,
      "Ġsir": 4152,
      "Ġpreten": 4153,
      "Ġprofesor": 4154,
      "Ġmitad": 4155,
      "cr": 4156,
      "Ġleche": 4157,
      "UM": 4158,
      "Ġfel": 4159,
      "ĠÃ³rganos": 4160,
      "ĠLÃ³pez": 4161,
      "Ġoctubre": 4162,
      "gaciÃ³n": 4163,
      "PA": 4164,
      "Ġcontiene": 4165,
      "ork": 4166,
      "Ġadministra": 4167,
      "ĠÃŃndice": 4168,
      "Ġevolu": 4169,
      "PR": 4170,
      "Ġ2006": 4171,
      "35": 4172,
      "Ġequ": 4173,
      "acer": 4174,
      "Ġderechos": 4175,
      "Ġmuestras": 4176,
      "Ġcoleg": 4177,
      "Ġaument": 4178,
      "tritis": 4179,
      "Ġsignificativa": 4180,
      "Ġsuperficie": 4181,
      "Ġpati": 4182,
      "Ġduda": 4183,
      "poso": 4184,
      "ĠdistribuciÃ³n": 4185,
      "Ġhttp": 4186,
      "Ġrecono": 4187,
      "Ġ75": 4188,
      "ĠfÃ¡rmaco": 4189,
      "Ġpredomin": 4190,
      "ĠEspeci": 4191,
      "Ġfoto": 4192,
      "Ġambiente": 4193,
      "izada": 4194,
      "Ġ48": 4195,
      "Ġsensibilidad": 4196,
      "Ġcreo": 4197,
      "and": 4198,
      "tagon": 4199,
      "Ġequipos": 4200,
      "Ġrepor": 4201,
      "Ġrelacionadas": 4202,
      "Ġmuscular": 4203,
      "Ġpalabras": 4204,
      "gin": 4205,
      "Ġsustancias": 4206,
      "ap": 4207,
      "tÃ¡s": 4208,
      "vasculares": 4209,
      "copia": 4210,
      "ĠtodavÃŃa": 4211,
      "ĠrazÃ³n": 4212,
      "Ġresponsa": 4213,
      "ĠDel": 4214,
      "Ġregular": 4215,
      "ĠAcu": 4216,
      "Ġestrategias": 4217,
      "ology": 4218,
      "Ġquiere": 4219,
      "Ġcomportamiento": 4220,
      "ĠTor": 4221,
      "Ġincluyen": 4222,
      "Ġcm": 4223,
      "Ġtrabajos": 4224,
      "Ġproducen": 4225,
      "Ġmasa": 4226,
      "Ġdificultad": 4227,
      "Ġetapa": 4228,
      "ĠpolÃŃtica": 4229,
      "%),": 4230,
      "Ġbastante": 4231,
      "Ġcompleto": 4232,
      "Ġdesemp": 4233,
      "Ġfuncionamiento": 4234,
      "Ġprocedimientos": 4235,
      "Ġincrement": 4236,
      "Ġhues": 4237,
      "Ġhumana": 4238,
      "Ġsabe": 4239,
      "Ġabril": 4240,
      "Ġcontar": 4241,
      "Ġtel": 4242,
      "tamos": 4243,
      "Ġlon": 4244,
      "Ġagres": 4245,
      "Ġdisfru": 4246,
      "NA": 4247,
      "ÃŃstico": 4248,
      "Ġenfr": 4249,
      "Ġtejidos": 4250,
      "Ġsurg": 4251,
      "Ġintervenciones": 4252,
      "ĠmedicaciÃ³n": 4253,
      "Ġacum": 4254,
      "Ġinsulina": 4255,
      "ĠObje": 4256,
      "Ġexig": 4257,
      "Ġepisodios": 4258,
      "81": 4259,
      "Ġconocido": 4260,
      "Ġjorn": 4261,
      "cus": 4262,
      "Ġsentir": 4263,
      "ĠÃ©po": 4264,
      "Ġmencion": 4265,
      "Ġconoce": 4266,
      "Ġmateri": 4267,
      "etas": 4268,
      "Ġado": 4269,
      "Ġexistencia": 4270,
      "Ġarri": 4271,
      "Ġmercado": 4272,
      "ĠAR": 4273,
      "ĠAh": 4274,
      "ĠAdminis": 4275,
      "Ġtenga": 4276,
      "ĠColombia": 4277,
      "].": 4278,
      "Ġmovil": 4279,
      "zadas": 4280,
      "Ġmateria": 4281,
      "Ġemocional": 4282,
      "Ġusuarios": 4283,
      "Ã©rez": 4284,
      "minaciÃ³n": 4285,
      "Ġmucha": 4286,
      "Ġequilib": 4287,
      "Ġresi": 4288,
      "Ġvolver": 4289,
      "via": 4290,
      "ĠalteraciÃ³n": 4291,
      "ampoco": 4292,
      "ĠmÃ¡ximo": 4293,
      "Ġsupervivencia": 4294,
      "ĠTC": 4295,
      "Ġtest": 4296,
      "ĠbebÃ©": 4297,
      "ĠneurolÃ³g": 4298,
      "Ġsimilares": 4299,
      "cle": 4300,
      "ĠVP": 4301,
      "ĠTer": 4302,
      "Ġmetabol": 4303,
      "Ġnumeros": 4304,
      "Ġmuc": 4305,
      "Ġcoles": 4306,
      "for": 4307,
      "ucle": 4308,
      "sal": 4309,
      "ĠPh": 4310,
      "----": 4311,
      "Ġocurre": 4312,
      "glÃ©s": 4313,
      "Ġcelular": 4314,
      "Ġmundial": 4315,
      "Ġciclo": 4316,
      "Ġexp": 4317,
      "Ġespera": 4318,
      "Ġescala": 4319,
      "ĠFin": 4320,
      "Ġmuestran": 4321,
      "Ġ32": 4322,
      "Ġdirectamente": 4323,
      "iga": 4324,
      "heimer": 4325,
      "fia": 4326,
      "Ã¡nica": 4327,
      "daje": 4328,
      "Ġenci": 4329,
      "Ġbe": 4330,
      "ĠCrea": 4331,
      "Ġcru": 4332,
      "Ġsor": 4333,
      "Ġdisnea": 4334,
      "ĠcientÃŃfico": 4335,
      "Ġtratados": 4336,
      "Ġgenes": 4337,
      "Ãģ": 4338,
      "ok": 4339,
      "Ġensayos": 4340,
      "Ġespecies": 4341,
      "ĠRu": 4342,
      "quir": 4343,
      "Ġincon": 4344,
      "ĠÃ¡n": 4345,
      "tarÃŃa": 4346,
      "Ġbueno": 4347,
      "Ġple": 4348,
      "Ġpsi": 4349,
      "PT": 4350,
      "ĠOs": 4351,
      "ori": 4352,
      "acetamol": 4353,
      "Ġrepar": 4354,
      "ĠSus": 4355,
      "Ġdecisiones": 4356,
      "71": 4357,
      "Ġactiva": 4358,
      "Ġhidra": 4359,
      "Ġinhib": 4360,
      "Ãł": 4361,
      "Ġcontrolar": 4362,
      "Ġvin": 4363,
      "tim": 4364,
      "are": 4365,
      "ĠproteÃŃna": 4366,
      "itÃ©": 4367,
      "uello": 4368,
      "Ġdol": 4369,
      "menes": 4370,
      "aliza": 4371,
      "omÃ©": 4372,
      "Ġencontra": 4373,
      "Ġcuestion": 4374,
      "ĠComunidad": 4375,
      "ĠRad": 4376,
      "Ġ65": 4377,
      "omo": 4378,
      "Ġdomicilio": 4379,
      "Ġ2017": 4380,
      "Ġmac": 4381,
      "Ġsuce": 4382,
      "Ġcuyo": 4383,
      "Ġves": 4384,
      "Ġben": 4385,
      "ĠAntonio": 4386,
      "Ġdan": 4387,
      "ticia": 4388,
      "34": 4389,
      "zheimer": 4390,
      "Ġdemas": 4391,
      "Ġsepar": 4392,
      "ner": 4393,
      "inec": 4394,
      "ĠPA": 4395,
      "Ġnoviembre": 4396,
      "Ġcompeten": 4397,
      "Ġestilo": 4398,
      "ĠMujer": 4399,
      "Ġseguro": 4400,
      "ĠCiencias": 4401,
      "tista": 4402,
      "ĠGal": 4403,
      "Ġvisita": 4404,
      "Ġseptiembre": 4405,
      "Ġ2005": 4406,
      "ĠMartÃŃnez": 4407,
      "Ġdetectar": 4408,
      "aciÃ³": 4409,
      "ĠColeg": 4410,
      "ĠNavarra": 4411,
      "Ġtabaco": 4412,
      "Ġciencia": 4413,
      "Ġobserva": 4414,
      "ĠPOR": 4415,
      "Ġtempor": 4416,
      "chez": 4417,
      "Ġregres": 4418,
      "Ġfuerte": 4419,
      "Ġinflama": 4420,
      "guien": 4421,
      "col": 4422,
      "osinÃ³filos": 4423,
      "Ġunidades": 4424,
      "Ġamor": 4425,
      "oramiento": 4426,
      "Ġvascular": 4427,
      "Ġcompos": 4428,
      "ĠLeucocitos": 4429,
      "ADO": 4430,
      "ÃįA": 4431,
      "Ã³mica": 4432,
      "Ġenvi": 4433,
      "cipios": 4434,
      "TIV": 4435,
      "ms": 4436,
      "SA": 4437,
      "Ġfle": 4438,
      "Ġmunicip": 4439,
      "ebo": 4440,
      "Ġrecuper": 4441,
      "ĠIV": 4442,
      "Ġespon": 4443,
      "ĠSol": 4444,
      "Ġcefal": 4445,
      "ÃŃamos": 4446,
      "Ġdiferente": 4447,
      "Ġdepres": 4448,
      "ĠCr": 4449,
      "Ġhip": 4450,
      "alo": 4451,
      "95": 4452,
      "Ġinforma": 4453,
      "Ġfab": 4454,
      "Ġpresentado": 4455,
      "puestos": 4456,
      "ĠgÃ©nero": 4457,
      "Ġpuer": 4458,
      "Ġcircun": 4459,
      "Ġtendencia": 4460,
      "Ġcomba": 4461,
      "Ġcomunes": 4462,
      "atologÃŃa": 4463,
      "ĠCOVID": 4464,
      "Ġtemperatura": 4465,
      "Ãºsque": 4466,
      "ĠFamil": 4467,
      "Ġcapit": 4468,
      "Ġbilateral": 4469,
      "ĠtÃ³rax": 4470,
      "01": 4471,
      "Ã©p": 4472,
      "Ġojo": 4473,
      "Ġacab": 4474,
      "Ġofrecer": 4475,
      "utriciÃ³n": 4476,
      "Ġsecundarios": 4477,
      "ĠDespuÃ©s": 4478,
      "ĠpronÃ³stico": 4479,
      "ml": 4480,
      "Ġprimeras": 4481,
      "ĠCardi": 4482,
      "Ġaquellas": 4483,
      "ll": 4484,
      "Ġcrear": 4485,
      "Ġocup": 4486,
      "Ġcomplement": 4487,
      "cidas": 4488,
      "IP": 4489,
      "TP": 4490,
      "Ġtrabajadores": 4491,
      "Ġirri": 4492,
      "Ġincluyendo": 4493,
      "Ġesas": 4494,
      "Ġepisodio": 4495,
      "ĠPers": 4496,
      "jecimiento": 4497,
      "Ġretir": 4498,
      "Ġveg": 4499,
      "ĠquirÃºrgica": 4500,
      "ix": 4501,
      "ĠdiseÃ±o": 4502,
      "icro": 4503,
      "Ġparto": 4504,
      "Ãºcar": 4505,
      "Ġcontrario": 4506,
      "ĠdirecciÃ³n": 4507,
      "habilitaciÃ³n": 4508,
      "Ġclase": 4509,
      "Ġdefec": 4510,
      "ĠTh": 4511,
      "Ġsocio": 4512,
      "ĠcombinaciÃ³n": 4513,
      "Ġrecog": 4514,
      "Ġmecanismos": 4515,
      "Ġhin": 4516,
      "Ġfas": 4517,
      "Ġaparece": 4518,
      "Ġaprendizaje": 4519,
      "Ġmarco": 4520,
      "ĠGracias": 4521,
      "Ġperif": 4522,
      "ideo": 4523,
      "Ġdebemos": 4524,
      "Ã©ndose": 4525,
      "didas": 4526,
      "Ġpropiedades": 4527,
      "90": 4528,
      "ĠvÃŃas": 4529,
      "Ġconsecuencias": 4530,
      "Ġenfo": 4531,
      "ĠPÃ©rez": 4532,
      "Ġfisio": 4533,
      "Ġabsor": 4534,
      "Ġestrategia": 4535,
      "como": 4536,
      "istir": 4537,
      "ĠPrograma": 4538,
      "Ġpadre": 4539,
      "DO": 4540,
      "ĠDepartamento": 4541,
      "ĠBa": 4542,
      "Ġfro": 4543,
      "Ġic": 4544,
      "Ġpractic": 4545,
      "Ġdeterioro": 4546,
      "ka": 4547,
      "Ġaudi": 4548,
      "Ġnego": 4549,
      "Ġcapaci": 4550,
      "TU": 4551,
      "Ġmantiene": 4552,
      "Ġacudir": 4553,
      "LE": 4554,
      "gias": 4555,
      "ĠtorÃ¡ci": 4556,
      "Ġpotenci": 4557,
      "Ġanteriores": 4558,
      "osfa": 4559,
      "bal": 4560,
      "Ġpreguntas": 4561,
      "Ġjulio": 4562,
      "osos": 4563,
      "Ġsujetos": 4564,
      "Ġconstr": 4565,
      "Ġanalizar": 4566,
      "Ġmodelos": 4567,
      "mad": 4568,
      "Ġdisminuir": 4569,
      "teria": 4570,
      "tologÃŃa": 4571,
      "Ġurin": 4572,
      "Ġfran": 4573,
      "QuÃ©": 4574,
      "clerosis": 4575,
      "Ġeventos": 4576,
      "didos": 4577,
      "Ġdiges": 4578,
      "Ġindividuos": 4579,
      "amma": 4580,
      "ĠinglÃ©s": 4581,
      "Ã©ticas": 4582,
      "www": 4583,
      "tizar": 4584,
      "Ġcro": 4585,
      "Ġritmo": 4586,
      "cusiÃ³n": 4587,
      "ĠFeder": 4588,
      "Ġdestin": 4589,
      "Ġcuya": 4590,
      "Ġseg": 4591,
      "ĠReal": 4592,
      "Ġlan": 4593,
      "Ġdesen": 4594,
      "Ġdestaca": 4595,
      "ĠCD": 4596,
      "ĠcontinuaciÃ³n": 4597,
      "baciÃ³n": 4598,
      "45": 4599,
      "Ġtox": 4600,
      "QU": 4601,
      "ĠconcentraciÃ³n": 4602,
      "Ġentrada": 4603,
      "Ġbil": 4604,
      "gua": 4605,
      "ĠBil": 4606,
      "Ġcolesterol": 4607,
      "Ġcomida": 4608,
      "umir": 4609,
      "inci": 4610,
      "Ġcapaz": 4611,
      "Ġentender": 4612,
      "matos": 4613,
      "ivas": 4614,
      "ĠOrganizaciÃ³n": 4615,
      "Ġsignificativas": 4616,
      "Ġrequer": 4617,
      "ilo": 4618,
      "37": 4619,
      "Ã¡ticas": 4620,
      "Ġdoble": 4621,
      "ĠControl": 4622,
      "Ġactivo": 4623,
      "clusiÃ³n": 4624,
      "ive": 4625,
      "Ġpreviamente": 4626,
      "Ġrecor": 4627,
      "ĠEosinÃ³filos": 4628,
      "ĠlÃŃquido": 4629,
      "ĠbÃºsque": 4630,
      "ĠCre": 4631,
      "ĠHoy": 4632,
      "ĠrecuperaciÃ³n": 4633,
      "Ġcuello": 4634,
      "Ġplanta": 4635,
      "ĠvÃ³mitos": 4636,
      "imi": 4637,
      "olver": 4638,
      "ĠopciÃ³n": 4639,
      "Ġaban": 4640,
      "ip": 4641,
      "Ġanticuer": 4642,
      "Ġblog": 4643,
      "ÃŃda": 4644,
      "Ġagudo": 4645,
      "Ġmeta": 4646,
      "ĠmÃºsica": 4647,
      "tima": 4648,
      "ĠTodos": 4649,
      "No": 4650,
      "ĠMedic": 4651,
      "Ġov": 4652,
      "ĠexpresiÃ³n": 4653,
      "ĠPARA": 4654,
      "ĠAp": 4655,
      "ĠDolor": 4656,
      "ÃŃr": 4657,
      "cla": 4658,
      "piraciÃ³n": 4659,
      "GT": 4660,
      "ĠHum": 4661,
      "iega": 4662,
      "Ġ39": 4663,
      "Ġtradici": 4664,
      "Ġcarrera": 4665,
      "Ġmemoria": 4666,
      "Ġutilizado": 4667,
      "ĠGluc": 4668,
      "Ġaplicar": 4669,
      "Ġinvestigaciones": 4670,
      "EA": 4671,
      "Ġtrasplante": 4672,
      "Ġpropon": 4673,
      "Ġteniendo": 4674,
      "Ġqueda": 4675,
      "ĠRx": 4676,
      "Ġlitera": 4677,
      "Ãī": 4678,
      "Ġaden": 4679,
      "Ġsecu": 4680,
      "Ġcorte": 4681,
      "Ġ2018": 4682,
      "micas": 4683,
      "Ġlpm": 4684,
      "ĠCatal": 4685,
      "ĠAlzheimer": 4686,
      "Ġ2000": 4687,
      "Ġpsico": 4688,
      "Ġnegativo": 4689,
      "Ġpermiten": 4690,
      "tarios": 4691,
      "Ġpredic": 4692,
      "ĠazÃºcar": 4693,
      "Ġtrauma": 4694,
      "Ġinstituciones": 4695,
      "lia": 4696,
      "Ġhon": 4697,
      "ÃŃos": 4698,
      "vel": 4699,
      "ÃŃes": 4700,
      "Ġdiferenci": 4701,
      "ĠdeberÃŃa": 4702,
      "ĠespaÃ±ola": 4703,
      "Ã¡nchez": 4704,
      "dena": 4705,
      "ĠrÃ¡pida": 4706,
      "fon": 4707,
      "Ġflujo": 4708,
      "ĠIM": 4709,
      "itarios": 4710,
      "Ġdificultades": 4711,
      "ĠÃ©ste": 4712,
      "Con": 4713,
      "ĠProfes": 4714,
      "olos": 4715,
      "Â¡": 4716,
      "Ġvag": 4717,
      "Ġagr": 4718,
      "ĠEuropea": 4719,
      "Ġvisto": 4720,
      "Ġalguien": 4721,
      "Ġherramienta": 4722,
      "ĠBio": 4723,
      "Ġpocos": 4724,
      "Ġcompr": 4725,
      "yos": 4726,
      "Ġcarb": 4727,
      "Ġcoloc": 4728,
      "Ġmir": 4729,
      "Ġdiaria": 4730,
      "Ġposteriormente": 4731,
      "ĠLDH": 4732,
      "UC": 4733,
      "LA": 4734,
      "ĠTen": 4735,
      "Ġcompromiso": 4736,
      "mens": 4737,
      "taur": 4738,
      "ĠLin": 4739,
      "Ã³sito": 4740,
      "Ġcambiar": 4741,
      "Ġnad": 4742,
      "Ġmismas": 4743,
      "ĠafectaciÃ³n": 4744,
      "Ġpresentes": 4745,
      "Ġfebrero": 4746,
      "Ġbro": 4747,
      "ogrÃ¡": 4748,
      "Ġrealmente": 4749,
      "Ġbuscar": 4750,
      "Ġprincipios": 4751,
      "Ġnecesaria": 4752,
      "Ġpensar": 4753,
      "Ġcorrecta": 4754,
      "Ġafectados": 4755,
      "uno": 4756,
      "ĠMig": 4757,
      "ĠEnfermedades": 4758,
      "ĠObserv": 4759,
      "Ġhidro": 4760,
      "ang": 4761,
      "ĠAna": 4762,
      "Ġboca": 4763,
      "Ġafirm": 4764,
      "Ġabord": 4765,
      "ĠmÃ³": 4766,
      "ĠanalÃŃtica": 4767,
      "Ġacces": 4768,
      "ĠcreaciÃ³n": 4769,
      "Ġempleo": 4770,
      "ĠSÃŃn": 4771,
      "uelas": 4772,
      "tasa": 4773,
      "irru": 4774,
      "Ġdisfun": 4775,
      "Ġdesarrollado": 4776,
      "ĠYa": 4777,
      "Ġmez": 4778,
      "Ġdep": 4779,
      "ĠcuÃ¡l": 4780,
      "Ġexamen": 4781,
      "ĠClin": 4782,
      "onales": 4783,
      "ĠCreatinina": 4784,
      "Ġconsultas": 4785,
      "Ġintestinal": 4786,
      "ÃŃna": 4787,
      "Ġdesempe": 4788,
      "ĠahÃŃ": 4789,
      "02": 4790,
      "Ġger": 4791,
      "Ġ2004": 4792,
      "ĠEP": 4793,
      "Ġfra": 4794,
      "32": 4795,
      "echos": 4796,
      "Ġtienes": 4797,
      "lig": 4798,
      "ĠpodrÃ¡": 4799,
      "ĠdecisiÃ³n": 4800,
      "ĠÃ©poca": 4801,
      "Ġbacterias": 4802,
      "Ġmenudo": 4803,
      "yn": 4804,
      "Ġsenti": 4805,
      "tuvo": 4806,
      "ocia": 4807,
      "Ġ).": 4808,
      "%).": 4809,
      "Ġinvers": 4810,
      "ĠopiniÃ³n": 4811,
      "mera": 4812,
      "ĠGo": 4813,
      "Ġmolec": 4814,
      "Ġenz": 4815,
      "ĠAlb": 4816,
      "Ġrar": 4817,
      "ĠMay": 4818,
      "Ġpedia": 4819,
      "Ġgrande": 4820,
      "Ġgeneralmente": 4821,
      "ĠprÃ¡cticas": 4822,
      "Ġinfil": 4823,
      "Ġafebril": 4824,
      "Ġprevios": 4825,
      "Ġretras": 4826,
      "Ã¯": 4827,
      "tox": 4828,
      "31": 4829,
      "Ġredes": 4830,
      "ĠPu": 4831,
      "Ġcarga": 4832,
      "Ġcolo": 4833,
      "tata": 4834,
      "Ġsaludable": 4835,
      "Ġsitio": 4836,
      "Â».": 4837,
      "Ġalcanzar": 4838,
      "IG": 4839,
      "Ġrealizan": 4840,
      "Ġllamado": 4841,
      "ĠNi": 4842,
      "ieza": 4843,
      "Ġnorma": 4844,
      "ĠHealth": 4845,
      "Ġmiedo": 4846,
      "Ġguar": 4847,
      "erra": 4848,
      "Ġcargo": 4849,
      "ira": 4850,
      "ĠFernÃ¡ndez": 4851,
      "ĠmmHg": 4852,
      "ses": 4853,
      "ĠpequeÃ±a": 4854,
      "ĠHD": 4855,
      "Ġapara": 4856,
      "dero": 4857,
      "ĠfenÃ³m": 4858,
      "pal": 4859,
      "Ġreacciones": 4860,
      "ģĦ": 4861,
      "Ġpotencial": 4862,
      "ĠAy": 4863,
      "Ġutilizando": 4864,
      "Ġsecundaria": 4865,
      "traron": 4866,
      "Ġmonitor": 4867,
      "Ġllegada": 4868,
      "87": 4869,
      "Ġeliminar": 4870,
      "ÃŃculo": 4871,
      "idez": 4872,
      "âģĦ": 4873,
      "Ġmetod": 4874,
      "ĠActualmente": 4875,
      "Ġreper": 4876,
      "ĠNeg": 4877,
      "Ġinvol": 4878,
      "rales": 4879,
      "Ġimple": 4880,
      "Ġby": 4881,
      "Ġaceite": 4882,
      "idamente": 4883,
      "ĠparÃ¡": 4884,
      "asas": 4885,
      "Ġ--": 4886,
      "ĠCada": 4887,
      "Ġenve": 4888,
      "Ġadversos": 4889,
      "Ġaconse": 4890,
      "Ġelabor": 4891,
      "ĠreciÃ©n": 4892,
      "Ġiniciativa": 4893,
      "94": 4894,
      "Ġexces": 4895,
      "Ġconstante": 4896,
      "Ġaltas": 4897,
      "Ġgobierno": 4898,
      "Ġcumpli": 4899,
      "ĠbÃºsqueda": 4900,
      "ĠcondiciÃ³n": 4901,
      "activa": 4902,
      "trop": 4903,
      "vent": 4904,
      "curso": 4905,
      "ĠFrancis": 4906,
      "gosto": 4907,
      "tiendo": 4908,
      "ete": 4909,
      "Ġperf": 4910,
      "Ġquimio": 4911,
      "hn": 4912,
      "Ġvivir": 4913,
      "Ġcomunidades": 4914,
      "ĠMÃ©dico": 4915,
      "Ġpuntu": 4916,
      "Ġconducta": 4917,
      "Ġdesapar": 4918,
      "ĠServicios": 4919,
      "Ġaur": 4920,
      "Ġplata": 4921,
      "Ġorigin": 4922,
      "ĠVar": 4923,
      "ĠPas": 4924,
      "Ã¡us": 4925,
      "Ġconocida": 4926,
      "Ġextrem": 4927,
      "ht": 4928,
      "Ġrespectivamente": 4929,
      "tilidad": 4930,
      "ĠtransmisiÃ³n": 4931,
      "ĠEE": 4932,
      "ĠManuel": 4933,
      "Ġoportunidad": 4934,
      "ĠpolÃŃticas": 4935,
      "Ġagre": 4936,
      "ĠCab": 4937,
      "ĠpH": 4938,
      "ilancia": 4939,
      "irrubina": 4940,
      "Ġverda": 4941,
      "uria": 4942,
      "ĠcampaÃ±a": 4943,
      "Ã²": 4944,
      "ĠSÃ¡nchez": 4945,
      "ĠprÃ³ximo": 4946,
      "Ġdias": 4947,
      "Ġtiro": 4948,
      "Ġagentes": 4949,
      "ĠSur": 4950,
      "09": 4951,
      "cardio": 4952,
      "ĠserÃ¡n": 4953,
      "Ġasistencial": 4954,
      "Ġconfianza": 4955,
      "ki": 4956,
      "Ġnaturales": 4957,
      "eca": 4958,
      "Ġmotiv": 4959,
      "Ġpudi": 4960,
      "ĠPr": 4961,
      "Ġjuego": 4962,
      "usia": 4963,
      "Ġdec": 4964,
      "cinoma": 4965,
      "Ġclin": 4966,
      "ĠPotasio": 4967,
      "hat": 4968,
      "Ġsufrir": 4969,
      "Ġelevada": 4970,
      "Ġhacerlo": 4971,
      "Ġexclus": 4972,
      "ug": 4973,
      "jero": 4974,
      "quilo": 4975,
      "Ġmomentos": 4976,
      "ĠpequeÃ±as": 4977,
      "Ġnaturaleza": 4978,
      "Ġgastro": 4979,
      "Ġprote": 4980,
      "Ġherman": 4981,
      "ĠAB": 4982,
      "Ġherramientas": 4983,
      "Ġonc": 4984,
      "ĠEvalu": 4985,
      "ariamente": 4986,
      "Ġcontras": 4987,
      "Ġintensidad": 4988,
      "rique": 4989,
      "Ġexten": 4990,
      "07": 4991,
      "eral": 4992,
      "Ġfuente": 4993,
      "ĠEmp": 4994,
      "ĠÃī": 4995,
      "ĠFacultad": 4996,
      "Ġras": 4997,
      "ĠÃ³sea": 4998,
      "ĠRev": 4999,
      "ĠEducaciÃ³n": 5000,
      "Ġosteo": 5001,
      "Ġconcepto": 5002,
      "amb": 5003,
      "ĠPri": 5004,
      "100": 5005,
      "fas": 5006,
      "pico": 5007,
      "mentaciÃ³n": 5008,
      "Ġcita": 5009,
      "Ġemerg": 5010,
      "____": 5011,
      "Ġmig": 5012,
      "ĠHis": 5013,
      "ĠSU": 5014,
      "Ġrodi": 5015,
      "ĠRE": 5016,
      "ĠgenÃ©tica": 5017,
      "ĠConclusiones": 5018,
      "Ġprior": 5019,
      "Ġinterna": 5020,
      "Ġcoste": 5021,
      "ĠRD": 5022,
      "ĠIg": 5023,
      "tificaciÃ³n": 5024,
      "Ġfalle": 5025,
      "Ġcomprende": 5026,
      "Ġrecibido": 5027,
      "rÃŃa": 5028,
      "Ġdila": 5029,
      "plic": 5030,
      "ĠSodio": 5031,
      "ĠselecciÃ³n": 5032,
      "remos": 5033,
      "Ġauton": 5034,
      "iene": 5035,
      "Ġpatients": 5036,
      "ĠMed": 5037,
      "ĠterapÃ©utica": 5038,
      "trÃ¡s": 5039,
      "Ġorg": 5040,
      "Ġ&": 5041,
      "Ġplantas": 5042,
      "Ġexpec": 5043,
      "ĠespaÃ±oles": 5044,
      "ax": 5045,
      "Ġbienestar": 5046,
      "Ġ2003": 5047,
      "ĠpÃ¡ginas": 5048,
      "forma": 5049,
      "39": 5050,
      "ĠECG": 5051,
      "Cu": 5052,
      "Ġasma": 5053,
      "ack": 5054,
      "ĠChile": 5055,
      "ĠhÃŃgado": 5056,
      "ĠPuede": 5057,
      "Ġsospecha": 5058,
      "Ġ500": 5059,
      "Ġliteratura": 5060,
      "Ġcamino": 5061,
      "ĠAM": 5062,
      "Ġrecibi": 5063,
      "esa": 5064,
      "Ġaliv": 5065,
      "ĠquirÃºrgico": 5066,
      "Se": 5067,
      "Ġintegral": 5068,
      "Ġprefer": 5069,
      "discipl": 5070,
      "hidra": 5071,
      "Ġviolencia": 5072,
      "ĠTrabaj": 5073,
      "feno": 5074,
      "tÃºa": 5075,
      "lle": 5076,
      "88": 5077,
      "Ġsignific": 5078,
      "ĠDios": 5079,
      "Ġhier": 5080,
      "ĠTran": 5081,
      "Ġayer": 5082,
      "ian": 5083,
      "Ġcomponentes": 5084,
      "ĠversiÃ³n": 5085,
      "Ġjoven": 5086,
      "Ġincluir": 5087,
      "edades": 5088,
      "Ġperspec": 5089,
      "mm": 5090,
      "ĠRam": 5091,
      "Ġdiario": 5092,
      "ĠJes": 5093,
      "matÃŃes": 5094,
      "Ġmaterna": 5095,
      "Ġhabla": 5096,
      "ĠHola": 5097,
      "ENTO": 5098,
      "ben": 5099,
      "Ġpositiva": 5100,
      "Ã³nica": 5101,
      "ivamente": 5102,
      "ĠAhora": 5103,
      "ueve": 5104,
      "tudy": 5105,
      "Ġisqu": 5106,
      "Ġacce": 5107,
      "Ġvul": 5108,
      "ĠGlucosa": 5109,
      "Ġgal": 5110,
      "Ġcorrel": 5111,
      "Ġnorte": 5112,
      "Ġentidades": 5113,
      "ĠantibiÃ³ticos": 5114,
      "Ġentidad": 5115,
      "RC": 5116,
      "ĠSanta": 5117,
      "ĠPen": 5118,
      "44": 5119,
      "pra": 5120,
      "tiro": 5121,
      "ficit": 5122,
      "tipo": 5123,
      "Ġadop": 5124,
      "deo": 5125,
      "ĠUNA": 5126,
      "ĠFue": 5127,
      "tistas": 5128,
      "Ġconec": 5129,
      "Ġrealizada": 5130,
      "gal": 5131,
      "Ġprecisa": 5132,
      "Ġavances": 5133,
      "eso": 5134,
      "Ġnor": 5135,
      "Ġneo": 5136,
      "Ġsil": 5137,
      "ĠcompaÃ±ÃŃa": 5138,
      "minos": 5139,
      "Ġdirecta": 5140,
      "ĠtÃ©rmino": 5141,
      "ĠautÃ³n": 5142,
      "Ġlenguaje": 5143,
      "ĠreacciÃ³n": 5144,
      "IZ": 5145,
      "ĠAlcal": 5146,
      "tiago": 5147,
      "ere": 5148,
      "Ġge": 5149,
      "ant": 5150,
      "Ġang": 5151,
      "Ġdesc": 5152,
      "ĠÌ": 5153,
      "06": 5154,
      "imas": 5155,
      "Ġmolesti": 5156,
      "fis": 5157,
      "igue": 5158,
      "Ġdiarrea": 5159,
      "Ġabandon": 5160,
      "Ġpregunta": 5161,
      "Ġhuman": 5162,
      "Ġclara": 5163,
      "tromb": 5164,
      "ĠMiguel": 5165,
      "Ġencima": 5166,
      "Ġcultura": 5167,
      "ines": 5168,
      "Ġbases": 5169,
      "Ġinten": 5170,
      "Ã³lisis": 5171,
      "ĠRES": 5172,
      "Ġposibilidades": 5173,
      "Ġdecide": 5174,
      "Ġpersonales": 5175,
      "ĠAmeric": 5176,
      "Ġmarca": 5177,
      "bercul": 5178,
      "Ġllamada": 5179,
      "RE": 5180,
      "Ã³rm": 5181,
      "Ġpuedo": 5182,
      "OP": 5183,
      "ĠallÃ¡": 5184,
      "ĠCloro": 5185,
      "peu": 5186,
      "Ġespecie": 5187,
      "ĠDie": 5188,
      "Ġsoy": 5189,
      "Ġresponsabilidad": 5190,
      "Ġend": 5191,
      "Ġinvestigador": 5192,
      "xil": 5193,
      "Ġvacunas": 5194,
      "Ġdrogas": 5195,
      "ĠHemoglobina": 5196,
      "tones": 5197,
      "Ġexpon": 5198,
      "ĠDra": 5199,
      "ĠAlgunos": 5200,
      "ĠVir": 5201,
      "Ġconcreto": 5202,
      "Ġlongi": 5203,
      "Ġdio": 5204,
      "Ġvelo": 5205,
      "Ġbeneficio": 5206,
      "ĠÃ©sta": 5207,
      "Ġpromedio": 5208,
      "meras": 5209,
      "ĠInfec": 5210,
      "Ġtampoco": 5211,
      "DE": 5212,
      "Ġcalcio": 5213,
      "Ġpeor": 5214,
      "Ġfemen": 5215,
      "ĠconstrucciÃ³n": 5216,
      "Ġ),": 5217,
      "Ġrecl": 5218,
      "ĠLOS": 5219,
      "Ġdescrip": 5220,
      "Ġclasific": 5221,
      "Ġamigos": 5222,
      "idor": 5223,
      "ĠtÃŃ": 5224,
      "Ġencuentro": 5225,
      "ĠpediÃ¡": 5226,
      "Ġcoci": 5227,
      "riendo": 5228,
      "Ġexplicar": 5229,
      "Ġabund": 5230,
      "ĠDM": 5231,
      "erÃŃa": 5232,
      "arÃŃa": 5233,
      "ĠPedia": 5234,
      "Ġsencil": 5235,
      "Ġensayo": 5236,
      "Ġdu": 5237,
      "Ġdiez": 5238,
      "Ġhemodin": 5239,
      "Ġmecanismo": 5240,
      "Ġdispositivo": 5241,
      "Ġcosa": 5242,
      "ĠTratamiento": 5243,
      "ĠOR": 5244,
      "ĠCiudad": 5245,
      "Ġ2019": 5246,
      "ĠIncl": 5247,
      "Ġconjun": 5248,
      "Ġtransmi": 5249,
      "Ġanci": 5250,
      "ĠpÃ¡gina": 5251,
      "Ġobtenidos": 5252,
      "cimientos": 5253,
      "Ġterapias": 5254,
      "Ġprobablemente": 5255,
      "Ġwas": 5256,
      "Ġcoinci": 5257,
      "Ġubic": 5258,
      "Ġgol": 5259,
      "Ġideas": 5260,
      "ella": 5261,
      "Ġpropios": 5262,
      "Ġregistro": 5263,
      "san": 5264,
      "Ġglucosa": 5265,
      "INA": 5266,
      "ĠEti": 5267,
      "ĠFA": 5268,
      "Ġtotalmente": 5269,
      "quen": 5270,
      "Ġgravedad": 5271,
      "Ġcircuns": 5272,
      "Ġestan": 5273,
      "Ġconstituye": 5274,
      "Ġviene": 5275,
      "Ãºan": 5276,
      "lor": 5277,
      "estesia": 5278,
      "Ġprovocar": 5279,
      "Ġnervioso": 5280,
      "ĠLab": 5281,
      "mez": 5282,
      "ĠcÃ¡l": 5283,
      "Ġllega": 5284,
      "Ġcomprimido": 5285,
      "Ġtengan": 5286,
      "Ġpg": 5287,
      "Ġcardiovasculares": 5288,
      "posiciones": 5289,
      "Ġinterven": 5290,
      "Ġacto": 5291,
      "ĠFrancisco": 5292,
      "cast": 5293,
      "ulaciones": 5294,
      "Ġalumnos": 5295,
      "Ġmemb": 5296,
      "Ġutilidad": 5297,
      "Ġejercicios": 5298,
      "ĠExisten": 5299,
      "ajas": 5300,
      "ulado": 5301,
      "Ġestaban": 5302,
      "ĠCur": 5303,
      "65": 5304,
      "tricas": 5305,
      "opera": 5306,
      "ĠtÃŃtulo": 5307,
      "ticiÃ³n": 5308,
      "Â»,": 5309,
      "Ġexceso": 5310,
      "Ġpone": 5311,
      "Ġasociadas": 5312,
      "amentos": 5313,
      "matocrito": 5314,
      "Ġaprov": 5315,
      "Ġmovimientos": 5316,
      "ĠADN": 5317,
      "Ġevento": 5318,
      "ws": 5319,
      "Ġmala": 5320,
      "ĠXX": 5321,
      "emi": 5322,
      "Ġconsiderar": 5323,
      "tador": 5324,
      "ĠEM": 5325,
      "ĠSantiago": 5326,
      "Ġafectar": 5327,
      "Ġperder": 5328,
      "Ġinfarto": 5329,
      "ĠpresentÃ³": 5330,
      "Ġvamos": 5331,
      "ĠComisiÃ³n": 5332,
      "Ġgripe": 5333,
      "ĠtendrÃ¡": 5334,
      "Ġmateriales": 5335,
      "Ġmoderada": 5336,
      "Ġapun": 5337,
      "ĠEscuela": 5338,
      "ĠtÃ©rminos": 5339,
      "Ġacad": 5340,
      "Ġfron": 5341,
      "cop": 5342,
      "ĠPan": 5343,
      "Ġprovincia": 5344,
      "Ġnadie": 5345,
      "Ġabsolu": 5346,
      "izados": 5347,
      "Ġdescan": 5348,
      "Ã³rico": 5349,
      "Ġutilizan": 5350,
      "itales": 5351,
      "mill": 5352,
      "ĠFer": 5353,
      "48": 5354,
      "08": 5355,
      "su": 5356,
      "Ġterritorio": 5357,
      "Ġcircul": 5358,
      "este": 5359,
      "edi": 5360,
      "ĠpalpaciÃ³n": 5361,
      "icales": 5362,
      "HA": 5363,
      "ey": 5364,
      "ĠeconÃ³mica": 5365,
      "Ġnar": 5366,
      "Ġfoc": 5367,
      "Ã¡mica": 5368,
      "Ġcorto": 5369,
      "Ġrelacionado": 5370,
      "umonÃŃa": 5371,
      "ĠmÃŃnimo": 5372,
      "Ġindustria": 5373,
      "ĠsecciÃ³n": 5374,
      "Ġimpuls": 5375,
      "tosis": 5376,
      "Ġasocia": 5377,
      "dÃ³n": 5378,
      "Ã³b": 5379,
      "Ġdisponible": 5380,
      "ĠPlaquetas": 5381,
      "ĠAmÃ©rica": 5382,
      "Ġsuple": 5383,
      "Ġatrib": 5384,
      "Ġfarmacia": 5385,
      "ĠrÃ¡pido": 5386,
      "omal": 5387,
      "Ġvariable": 5388,
      "Ġhas": 5389,
      "line": 5390,
      "Ġfortal": 5391,
      "ĠelÃ©c": 5392,
      "Ġdepende": 5393,
      "Ġprecio": 5394,
      "Ġ2002": 5395,
      "Ġdeja": 5396,
      "Ġleer": 5397,
      "acio": 5398,
      "Ġparticipar": 5399,
      "Ġimpos": 5400,
      "Ġana": 5401,
      "Ġdinero": 5402,
      "Ġaparecen": 5403,
      "ĠTodo": 5404,
      "Ġdisponibles": 5405,
      "tol": 5406,
      "resis": 5407,
      "rios": 5408,
      "gados": 5409,
      "virus": 5410,
      "Ġlongitud": 5411,
      "Ġinfancia": 5412,
      "ĠSuper": 5413,
      "rimiento": 5414,
      "Ġreconocimiento": 5415,
      "ĠpromociÃ³n": 5416,
      "Ġespecialidad": 5417,
      "ĠresoluciÃ³n": 5418,
      "vie": 5419,
      "ĠFis": 5420,
      "Ġquin": 5421,
      "ĠespecÃŃficos": 5422,
      "ĠMas": 5423,
      "CIA": 5424,
      "Ġsangrado": 5425,
      "Ġexcep": 5426,
      "Ġbre": 5427,
      "Ġgrad": 5428,
      "Ġelevado": 5429,
      "56": 5430,
      "Ġllama": 5431,
      "Ġcapital": 5432,
      "ĠdeberÃ¡": 5433,
      "Ġdivi": 5434,
      "Ġenv": 5435,
      "RS": 5436,
      "Ġbiblio": 5437,
      "ogÃ©n": 5438,
      "ĠAnal": 5439,
      "Ġcausar": 5440,
      "Ġlista": 5441,
      "we": 5442,
      "Ġexperiencias": 5443,
      "Ġmantenimiento": 5444,
      "Ġdudas": 5445,
      "ĠactuaciÃ³n": 5446,
      "ĠriÃ±": 5447,
      "ff": 5448,
      "Ġsosten": 5449,
      "Ġconvier": 5450,
      "ĠelecciÃ³n": 5451,
      "plastia": 5452,
      "gro": 5453,
      "mÃ¡ticas": 5454,
      "rÃ¡n": 5455,
      "Ġrecha": 5456,
      "ĠSat": 5457,
      "Ġgenerales": 5458,
      "Ġnecesitan": 5459,
      "Ġhabilidades": 5460,
      "Ġvincul": 5461,
      "ĠvÃ¡l": 5462,
      "tente": 5463,
      "ong": 5464,
      "Ġexcelente": 5465,
      "Ġangio": 5466,
      "ĠdiÃ¡": 5467,
      "99": 5468,
      "ragia": 5469,
      "Ġvisual": 5470,
      "TC": 5471,
      "Ġconflic": 5472,
      "org": 5473,
      "ĠpulmÃ³n": 5474,
      "ĠcÃ¡": 5475,
      "Ġpic": 5476,
      "Ġestudiar": 5477,
      "ĠmolÃ©": 5478,
      "ĠseÃ±ala": 5479,
      "terales": 5480,
      "ficial": 5481,
      "Ġreserv": 5482,
      "Ġdeporte": 5483,
      "hor": 5484,
      "Ġreduce": 5485,
      "ĠPsic": 5486,
      "Ġagosto": 5487,
      "anto": 5488,
      "organ": 5489,
      "Ġaprender": 5490,
      "plasia": 5491,
      "Ġdemasiado": 5492,
      "Ġanticuerpos": 5493,
      "Ġrespuestas": 5494,
      "Ġfisi": 5495,
      "arrollo": 5496,
      "Ġinternacionales": 5497,
      "Ġciruj": 5498,
      "Ġfacilitar": 5499,
      "Ġhici": 5500,
      "Ġproporcion": 5501,
      "Ġrecurr": 5502,
      "far": 5503,
      "cto": 5504,
      "Ġbusca": 5505,
      "ĠclÃ¡s": 5506,
      "ĠHo": 5507,
      "Ġgusta": 5508,
      "Ġfom": 5509,
      "Ġvaso": 5510,
      "Ġtasas": 5511,
      "bral": 5512,
      "Ġamplia": 5513,
      "Ġreflex": 5514,
      "Ã³nico": 5515,
      "gentina": 5516,
      "Ġpresu": 5517,
      "ĠHabana": 5518,
      "ÃŃgeno": 5519,
      "Ġnecesarios": 5520,
      "74": 5521,
      "Ġjornada": 5522,
      "Ġcolum": 5523,
      "Ġinfluencia": 5524,
      "entada": 5525,
      "tori": 5526,
      "Ġfigura": 5527,
      "Ġquier": 5528,
      "Ġopciones": 5529,
      "ĠparÃ¡metros": 5530,
      "ĠMÃ©to": 5531,
      "Ġesencial": 5532,
      "Ġprogram": 5533,
      "Ã§Ã£o": 5534,
      "ĠâĢĶ": 5535,
      "ĠpelÃŃcula": 5536,
      "Ġcifras": 5537,
      "ĠpatrÃ³n": 5538,
      "uelo": 5539,
      "uestro": 5540,
      "ticoag": 5541,
      "Ġinmuno": 5542,
      "Ġsupuesto": 5543,
      "ĠhepÃ¡tica": 5544,
      "Ġindividual": 5545,
      "Ġperci": 5546,
      "ĠÃºltimas": 5547,
      "Ġotor": 5548,
      "Ġprovoca": 5549,
      "tbol": 5550,
      "Ġgasto": 5551,
      "ĠDirecciÃ³n": 5552,
      "cons": 5553,
      "Ġagrade": 5554,
      "ĠcrÃ³nico": 5555,
      "Ġsuperiores": 5556,
      "ĠBilirrubina": 5557,
      "arla": 5558,
      "ĠBer": 5559,
      "ĠInterna": 5560,
      "Ġpartido": 5561,
      "Ġhog": 5562,
      "Ġsalir": 5563,
      "Ġhepatitis": 5564,
      "ĠcardÃŃaca": 5565,
      "minas": 5566,
      "Ġalarma": 5567,
      "patÃŃas": 5568,
      "Ġdocumento": 5569,
      "ĠRos": 5570,
      "Ġlactancia": 5571,
      "ĠguÃŃa": 5572,
      "Â®": 5573,
      "Ġcandida": 5574,
      "ĠmÃºsculos": 5575,
      "Ġobras": 5576,
      "Ġresponsables": 5577,
      "trados": 5578,
      "MI": 5579,
      "ĠVCM": 5580,
      "ĠdisfunciÃ³n": 5581,
      "ruz": 5582,
      "ĠValencia": 5583,
      "Ġafectan": 5584,
      "Ġdientes": 5585,
      "Ġciudadanos": 5586,
      "Ġinteresante": 5587,
      "dental": 5588,
      "ĠMer": 5589,
      "ĠcongÃ©n": 5590,
      "jes": 5591,
      "ĠnutriciÃ³n": 5592,
      "ĠIntro": 5593,
      "socia": 5594,
      "Ġsensi": 5595,
      "Ġcontro": 5596,
      "73": 5597,
      "Ġbuenos": 5598,
      "lando": 5599,
      "ADA": 5600,
      "ĠTri": 5601,
      "Ġfol": 5602,
      "Ġcompartir": 5603,
      "pus": 5604,
      "dra": 5605,
      "121": 5606,
      ".:": 5607,
      "Ġactuales": 5608,
      "Ġreca": 5609,
      "Ġsomos": 5610,
      "Ġalea": 5611,
      "ĠtecnologÃŃas": 5612,
      "talm": 5613,
      "Ġcomplejo": 5614,
      "Ãºmina": 5615,
      "ĠterapÃ©utico": 5616,
      "ĠHematÃŃes": 5617,
      "Ġtorno": 5618,
      "Ġcumplir": 5619,
      "IDA": 5620,
      "ans": 5621,
      "46": 5622,
      "igna": 5623,
      ".]": 5624,
      "ĠHematocrito": 5625,
      "pto": 5626,
      "Ġdemanda": 5627,
      "Ġadher": 5628,
      "IF": 5629,
      "ild": 5630,
      "ĠlÃŃneas": 5631,
      "tical": 5632,
      "Ġmel": 5633,
      "ĠDo": 5634,
      "Ġconvertir": 5635,
      "Ġtiempos": 5636,
      "Ġnutricional": 5637,
      "Ġï": 5638,
      "Ġsoporte": 5639,
      "ĠHTA": 5640,
      "Ġfuentes": 5641,
      "Ġiniciar": 5642,
      "ĠpublicaciÃ³n": 5643,
      "42": 5644,
      "Ġtransf": 5645,
      "Ġcomerci": 5646,
      "ĠÂ±": 5647,
      "Ġcontemp": 5648,
      "ĠdÃ©cada": 5649,
      "ĠColegio": 5650,
      "iel": 5651,
      "Ġ2001": 5652,
      "ĠvacunaciÃ³n": 5653,
      "ICI": 5654,
      "Ġconsolid": 5655,
      "Ġ55": 5656,
      "ĠLeÃ³n": 5657,
      "Ġcapaces": 5658,
      "ft": 5659,
      "pren": 5660,
      "ĠALT": 5661,
      "Ġsesiones": 5662,
      "tasis": 5663,
      "Ã³di": 5664,
      "zca": 5665,
      "illas": 5666,
      "Ġregiones": 5667,
      "Ġnove": 5668,
      "ĠpreparaciÃ³n": 5669,
      "ĠHiper": 5670,
      "Ġdistal": 5671,
      "ices": 5672,
      "Ã³mez": 5673,
      "69": 5674,
      "Ġlucha": 5675,
      "ĠHem": 5676,
      "Ġciertos": 5677,
      "Ġdestacar": 5678,
      "Ġminis": 5679,
      "Ġros": 5680,
      "Ġenfermera": 5681,
      "entemente": 5682,
      "Ġescuela": 5683,
      "Ġescolar": 5684,
      "Ġsexuales": 5685,
      "ĠÂ·": 5686,
      "siÃ³n": 5687,
      "Ġlugares": 5688,
      "gran": 5689,
      "Ġingresos": 5690,
      "ĠOl": 5691,
      "Ġsufren": 5692,
      "ĠTrans": 5693,
      "Ġasociaciones": 5694,
      "ĠdiagnÃ³sticos": 5695,
      "entalmente": 5696,
      "Ġmiocardio": 5697,
      "tidas": 5698,
      "ĠGer": 5699,
      "Ġrealizados": 5700,
      "Ġsignificativamente": 5701,
      "Ġimplica": 5702,
      "Ġpoli": 5703,
      "Ġcalor": 5704,
      "ĠmÃ¡xima": 5705,
      "ultura": 5706,
      "ĠespecÃŃfico": 5707,
      "Ġreposo": 5708,
      "ĠSÃŃndrome": 5709,
      "Ġinferiores": 5710,
      "Ġgrasas": 5711,
      "Ġlun": 5712,
      "Ġpresentaron": 5713,
      "Ġconsultar": 5714,
      "hibi": 5715,
      "Ġpueblo": 5716,
      "ĠAST": 5717,
      "ĠNueva": 5718,
      "Ġestructuras": 5719,
      "Ġprotagon": 5720,
      "Ġsola": 5721,
      "Ġbrin": 5722,
      "Ġenl": 5723,
      "Ġrelacionada": 5724,
      "ĠgeneraciÃ³n": 5725,
      "Ġlarga": 5726,
      "Ġvasos": 5727,
      "Ġelemento": 5728,
      "Ġcontenidos": 5729,
      "indic": 5730,
      "Ġprobabilidad": 5731,
      "Ġxmill": 5732,
      "iro": 5733,
      "Ġdesconoci": 5734,
      "Ġpared": 5735,
      "ĠrehabilitaciÃ³n": 5736,
      "ÃŃz": 5737,
      "Ġga": 5738,
      "Ġgenerar": 5739,
      "Ġverano": 5740,
      "amento": 5741,
      "Ġjur": 5742,
      "ĠcuÃ¡n": 5743,
      "bro": 5744,
      "urnal": 5745,
      "tadores": 5746,
      "Ġevit": 5747,
      "ĠCastilla": 5748,
      "ĠVic": 5749,
      "ĠCÃ¡ncer": 5750,
      "fin": 5751,
      "ck": 5752,
      "Ġmmol": 5753,
      "Ġbuc": 5754,
      "ther": 5755,
      "Ġenvejecimiento": 5756,
      "Ġrecientemente": 5757,
      "ds": 5758,
      "Ġdens": 5759,
      "ĠComitÃ©": 5760,
      "Ġpositivos": 5761,
      "cito": 5762,
      "didad": 5763,
      "78": 5764,
      "Ġarteri": 5765,
      "Ġpelo": 5766,
      "ĠME": 5767,
      "ade": 5768,
      "ĠEspecial": 5769,
      "ĠeconÃ³mico": 5770,
      "Ġmono": 5771,
      "ĠHCM": 5772,
      "berto": 5773,
      "Ġjefe": 5774,
      "ĠReactiva": 5775,
      "Ġenfermo": 5776,
      "tment": 5777,
      "Ġcura": 5778,
      "ĠRadio": 5779,
      "ĠmÃ©dicas": 5780,
      "55": 5781,
      "Ġasin": 5782,
      "dula": 5783,
      "Ġcica": 5784,
      "Ġconciencia": 5785,
      "ĠtÃ³x": 5786,
      "Ġ41": 5787,
      "ucÃŃa": 5788,
      "ĠalÃ©rg": 5789,
      "rias": 5790,
      "ĠgenÃ©tico": 5791,
      "ĠPed": 5792,
      "uyendo": 5793,
      "ĠCe": 5794,
      "Ġec": 5795,
      "Ġformar": 5796,
      "ÃŃticos": 5797,
      "tibles": 5798,
      "Ġsegura": 5799,
      "ĠsintomatologÃŃa": 5800,
      "ĠGamma": 5801,
      "esiÃ³n": 5802,
      "icina": 5803,
      "Ġtercera": 5804,
      "teros": 5805,
      "ĠJesÃºs": 5806,
      "peso": 5807,
      "Ġquiz": 5808,
      "ĠfÃ³rm": 5809,
      "Ġsatur": 5810,
      "Ġresid": 5811,
      "Ġsuelo": 5812,
      "onato": 5813,
      "Ġmente": 5814,
      "Ġsanidad": 5815,
      "raneal": 5816,
      "Ġaprovech": 5817,
      "ĠtensiÃ³n": 5818,
      "ĠperiÃ³": 5819,
      "Ġhema": 5820,
      "Ġenfoque": 5821,
      "Ġentrevista": 5822,
      "ĠprÃ³s": 5823,
      "Ġquimioterapia": 5824,
      "Ġaparecer": 5825,
      ".\"": 5826,
      "43": 5827,
      "Ġrevel": 5828,
      "Ġanticoag": 5829,
      "ĠTR": 5830,
      "Ġadelante": 5831,
      "Ġprevis": 5832,
      "ĠcomposiciÃ³n": 5833,
      "Ġ|": 5834,
      "Ġmadres": 5835,
      "ĠOtros": 5836,
      "ionar": 5837,
      "Ġperit": 5838,
      "eran": 5839,
      "pero": 5840,
      "ĠcrÃ³nicas": 5841,
      "ĠÃģn": 5842,
      "ĠprÃ³tesis": 5843,
      "ĠActividad": 5844,
      "Ġcancer": 5845,
      "art": 5846,
      "vin": 5847,
      "osfatasa": 5848,
      "Ġris": 5849,
      "Ã¡nico": 5850,
      "ture": 5851,
      "lama": 5852,
      "Ġusuario": 5853,
      "Ġleuc": 5854,
      "Ġmanifestaciones": 5855,
      "ĠBasÃ³filos": 5856,
      "Ġpene": 5857,
      "SS": 5858,
      "ficio": 5859,
      "Ġnegativa": 5860,
      "Ġmunicipio": 5861,
      "Ġfacial": 5862,
      "ĠdÃ©ficit": 5863,
      "Ġlis": 5864,
      "Ġamar": 5865,
      "Ġesfuerzos": 5866,
      "ĠpÃºblicos": 5867,
      "Ġsiete": 5868,
      "Ġmascul": 5869,
      "Ġencontrado": 5870,
      "ĠProteÃŃna": 5871,
      "Ġcomprome": 5872,
      "Ġaltos": 5873,
      "58": 5874,
      "Ġperju": 5875,
      "Ġbusc": 5876,
      "'.": 5877,
      "Ġictus": 5878,
      "ĠcutÃ¡n": 5879,
      "Ġ46": 5880,
      "Ġautom": 5881,
      "Ġcromos": 5882,
      "Ġcomienza": 5883,
      "Ġenfermeras": 5884,
      "Ġ98": 5885,
      "Ġdirigido": 5886,
      "Ġarte": 5887,
      "tent": 5888,
      "Ġpropuesta": 5889,
      "ĠoperaciÃ³n": 5890,
      "Ġestancia": 5891,
      "ĠEdi": 5892,
      "**": 5893,
      "ÃŃticas": 5894,
      "Ġtexto": 5895,
      "Ġem": 5896,
      "enda": 5897,
      "aya": 5898,
      "Ã³mico": 5899,
      "Ġabordaje": 5900,
      "Ġgarantizar": 5901,
      "ĠoxÃŃgeno": 5902,
      "ĠVPM": 5903,
      "Ġdebajo": 5904,
      "Ġescal": 5905,
      "ĠelevaciÃ³n": 5906,
      "CL": 5907,
      "berculosis": 5908,
      "Ġintelig": 5909,
      "ĠprogresiÃ³n": 5910,
      "kg": 5911,
      "ĠRDW": 5912,
      "ĠCR": 5913,
      "Ġrendimiento": 5914,
      "Ġnota": 5915,
      "ĠencontrÃ³": 5916,
      "Ġhealth": 5917,
      "ĠAca": 5918,
      "Ġabdomen": 5919,
      "Ġcumplimiento": 5920,
      "Ġalmac": 5921,
      "41": 5922,
      "ĠMÃ©dica": 5923,
      "Ġinformado": 5924,
      "voca": 5925,
      "Ġpretende": 5926,
      "Ġprotocolo": 5927,
      "ĠpodrÃ¡n": 5928,
      "ĠBe": 5929,
      "Los": 5930,
      "VA": 5931,
      "genera": 5932,
      "ĠCHCM": 5933,
      "mÃ¡tico": 5934,
      "Ġindividuo": 5935,
      "Ġequiv": 5936,
      "Ġrep": 5937,
      "Ġconform": 5938,
      "Ġhubo": 5939,
      "ĠextensiÃ³n": 5940,
      "49": 5941,
      "Ġpendiente": 5942,
      "Ġconsejos": 5943,
      "Ġvideo": 5944,
      "ectomÃŃa": 5945,
      "Ġdispositivos": 5946,
      "Ġsaludables": 5947,
      "rup": 5948,
      "OB": 5949,
      "irse": 5950,
      "GPT": 5951,
      "Ġdura": 5952,
      "icrobi": 5953,
      "Ġafirma": 5954,
      "Ġgenera": 5955,
      "Ġcefalea": 5956,
      "Ġconlle": 5957,
      "Ġhubi": 5958,
      "imen": 5959,
      "arte": 5960,
      "ĠespecÃŃfica": 5961,
      "Ġconvenci": 5962,
      "lado": 5963,
      "Ġrecons": 5964,
      "Ġnacimiento": 5965,
      "Ġlevan": 5966,
      "fro": 5967,
      "ĠOc": 5968,
      "monio": 5969,
      "amo": 5970,
      "ĠJe": 5971,
      "Ġsanitarias": 5972,
      "tidades": 5973,
      "Ġorganizaciones": 5974,
      "inter": 5975,
      "Ġinvoluc": 5976,
      "Ġhayan": 5977,
      "ĠÃŃ": 5978,
      "ĠdaÃ±": 5979,
      "Ġlocales": 5980,
      "esis": 5981,
      "Ġindicado": 5982,
      "Ġcine": 5983,
      "Ã³genos": 5984,
      "ĠCos": 5985,
      "ĠGÃ³mez": 5986,
      "EMA": 5987,
      "Ġvarones": 5988,
      "ĠpercepciÃ³n": 5989,
      "tilaciÃ³n": 5990,
      "ĠCardiologÃŃa": 5991,
      "Ġideal": 5992,
      "ame": 5993,
      "Ġcontinua": 5994,
      "tenosis": 5995,
      "Ġpecho": 5996,
      "cientes": 5997,
      "cambi": 5998,
      "Ġreceptores": 5999,
      "Ġcober": 6000,
      "Ġpies": 6001,
      "Ġconce": 6002,
      "Ġtransvers": 6003,
      "uniden": 6004,
      "Ġestuvo": 6005,
      "Ġfrom": 6006,
      "ĠidentificaciÃ³n": 6007,
      "ĠEX": 6008,
      "Ġaun": 6009,
      "Ġtabla": 6010,
      "Ġconsciente": 6011,
      "ĠprÃ³stata": 6012,
      "Ġproteger": 6013,
      "Ġsustancia": 6014,
      "Ġdescrito": 6015,
      "ĠsatisfacciÃ³n": 6016,
      "medi": 6017,
      "Ġventricular": 6018,
      "ĠFarmac": 6019,
      "Ġpauta": 6020,
      "ĠcategorÃŃa": 6021,
      "Ġacre": 6022,
      "ĠMil": 6023,
      "Ġfinales": 6024,
      "ĠHernÃ¡ndez": 6025,
      "ĠmÃ³vil": 6026,
      "Ġdental": 6027,
      "Ġnacionales": 6028,
      "Ġrazones": 6029,
      "tÃ©ter": 6030,
      "Ġencan": 6031,
      "GOT": 6032,
      "ĠallÃŃ": 6033,
      "ĠOnc": 6034,
      "Ġantigu": 6035,
      "ĠsesiÃ³n": 6036,
      "ĠIntroducciÃ³n": 6037,
      "Ġmolestias": 6038,
      "Ġanemia": 6039,
      "ĠCer": 6040,
      "Ġolvid": 6041,
      "penia": 6042,
      "ches": 6043,
      "Ġavanzada": 6044,
      "ĠcuestiÃ³n": 6045,
      "ficientes": 6046,
      "aman": 6047,
      "Ġexplicado": 6048,
      "Ġthat": 6049,
      "ĠmÃºsculo": 6050,
      "bern": 6051,
      "ĠAdministraciÃ³n": 6052,
      "Ġamena": 6053,
      "ĠcomenzÃ³": 6054,
      "coles": 6055,
      "Ġarteria": 6056,
      "gÃ³": 6057,
      "Ġedades": 6058,
      "ĠmÃŃ": 6059,
      "Ġrelig": 6060,
      "Ġ97": 6061,
      "Ġvelocidad": 6062,
      "Ġsent": 6063,
      "Ġprema": 6064,
      "Ġalternativa": 6065,
      "Ġdependencia": 6066,
      "ĠfarmacÃ©utico": 6067,
      "III": 6068,
      "ologia": 6069,
      "quÃ©": 6070,
      "Ġstudy": 6071,
      "ĠProteÃŃnas": 6072,
      "Ġpopular": 6073,
      "ĠTu": 6074,
      "ĠINR": 6075,
      "83": 6076,
      "Ġexac": 6077,
      "Ġhija": 6078,
      "ĠaÃ±a": 6079,
      "Ġsever": 6080,
      "ĠprofesiÃ³n": 6081,
      "recen": 6082,
      "Ġcervical": 6083,
      "ĠObjetivo": 6084,
      "ĠreuniÃ³n": 6085,
      "47": 6086,
      "ĠclasificaciÃ³n": 6087,
      "ry": 6088,
      "char": 6089,
      "Ġtaller": 6090,
      "Ġconsta": 6091,
      "Ġefectu": 6092,
      "ĠTom": 6093,
      "ĠFu": 6094,
      "OLOG": 6095,
      "profeno": 6096,
      "ĠteorÃŃa": 6097,
      "ograma": 6098,
      "Ã©rico": 6099,
      "ĠDesarrollo": 6100,
      "Ġmales": 6101,
      "ĠUno": 6102,
      "Ġtraslad": 6103,
      "tidi": 6104,
      "pol": 6105,
      "Ġbuenas": 6106,
      "Ġfirm": 6107,
      "ĠCap": 6108,
      "ardo": 6109,
      "jado": 6110,
      "rieron": 6111,
      "Ġedema": 6112,
      "trofia": 6113,
      "Ġocho": 6114,
      "Ġcomponente": 6115,
      "Ġpropias": 6116,
      "duras": 6117,
      "trombina": 6118,
      "ĠAut": 6119,
      "Ġrequieren": 6120,
      "Ġciertas": 6121,
      "ulada": 6122,
      "Ġextremo": 6123,
      "Ġpeligros": 6124,
      "Ġtempran": 6125,
      "Ġvenosa": 6126,
      "Ġcabello": 6127,
      "ĠMol": 6128,
      "Ġsiguen": 6129,
      "Ġforman": 6130,
      "ĠSN": 6131,
      "Ġtuvieron": 6132,
      "trones": 6133,
      "ĠMur": 6134,
      "Ġtex": 6135,
      "Ġsoluciones": 6136,
      "Ġ300": 6137,
      "Ġexperto": 6138,
      "villa": 6139,
      "ĠestÃ©tica": 6140,
      "Ġfibro": 6141,
      "Ġapreci": 6142,
      "iona": 6143,
      "ker": 6144,
      "Ġemi": 6145,
      "ĠPl": 6146,
      "ĠmostrÃ³": 6147,
      "yac": 6148,
      "ĠtorÃ¡cico": 6149,
      "Ã¡mara": 6150,
      "Ġguerra": 6151,
      "Ãĳ": 6152,
      "Ġigu": 6153,
      "Ġdormir": 6154,
      "Ġpermanente": 6155,
      "ĠespecÃŃficas": 6156,
      "Ġsalida": 6157,
      "dismo": 6158,
      "ĠOMS": 6159,
      "Ġtransporte": 6160,
      "Ġpodido": 6161,
      "Ã¡ser": 6162,
      "ĠRM": 6163,
      "ĠInternet": 6164,
      "ĠArgentina": 6165,
      "Ġsugiere": 6166,
      "Ġapare": 6167,
      "Ġpadecer": 6168,
      "ĠestÃ©n": 6169,
      "Ġsolamente": 6170,
      "ĠSecre": 6171,
      "EF": 6172,
      "Ġcontroles": 6173,
      "Ġhigiene": 6174,
      "Ġ72": 6175,
      "Ġcerc": 6176,
      "Ġafron": 6177,
      "Ġutilizados": 6178,
      "ĠsÃ©": 6179,
      "menta": 6180,
      "Ġcompara": 6181,
      "Ġlibros": 6182,
      "Ġdesenca": 6183,
      "Ġespal": 6184,
      "Ġbajas": 6185,
      "Ġinterval": 6186,
      "ĠÃ³rgano": 6187,
      "Ġqueremos": 6188,
      "Ġtareas": 6189,
      "Ġ42": 6190,
      "ĠBal": 6191,
      "ĠFosfatasa": 6192,
      "Ġtranquil": 6193,
      "Ġrelevantes": 6194,
      "ĠterapÃ©uticas": 6195,
      "ĠGen": 6196,
      "Ġwere": 6197,
      "enciales": 6198,
      "Ġvoz": 6199,
      "ĠPedro": 6200,
      "tÃŃa": 6201,
      "ierra": 6202,
      "CH": 6203,
      "talla": 6204,
      "Ġcav": 6205,
      "Ġnegativos": 6206,
      "ĠcientÃŃficas": 6207,
      "ĠproporciÃ³n": 6208,
      "tillas": 6209,
      "Ġamplio": 6210,
      "ĠMuchas": 6211,
      "Ġvisu": 6212,
      "Ġambula": 6213,
      "Ġentrenamiento": 6214,
      "igur": 6215,
      "ĠDiagn": 6216,
      "Ġequilibrio": 6217,
      "Ġcontribuir": 6218,
      "ĠvÃŃc": 6219,
      "Ġsuger": 6220,
      "Ġeviden": 6221,
      "Ġrodilla": 6222,
      "Ġanual": 6223,
      "Ġaccidente": 6224,
      "gesia": 6225,
      "Ġdesplaz": 6226,
      "Ġconsigui": 6227,
      "ĠEnfermedad": 6228,
      "Ġcognitivo": 6229,
      "ĠestÃ¡ndar": 6230,
      "ĠTrastor": 6231,
      "Ġlateral": 6232,
      "Ġreceptor": 6233,
      "Ġofer": 6234,
      "ĠinclusiÃ³n": 6235,
      "Ġcolumna": 6236,
      "usa": 6237,
      "pectivo": 6238,
      "ticias": 6239,
      "Ġconcentraciones": 6240,
      "Ġ85": 6241,
      "Ġasintom": 6242,
      "ACION": 6243,
      "trada": 6244,
      "umento": 6245,
      "alizadas": 6246,
      "Ġlumbar": 6247,
      "cupa": 6248,
      "xia": 6249,
      "ĠJavier": 6250,
      "Ġprescri": 6251,
      "Ġcorrespondiente": 6252,
      "Ġsevera": 6253,
      "tarÃ¡": 6254,
      "Ġintentar": 6255,
      "Ġginec": 6256,
      "uÃ±a": 6257,
      "Ġmorf": 6258,
      "ĠAlcalina": 6259,
      "'s": 6260,
      "ĠJournal": 6261,
      "ĠobservÃ³": 6262,
      "Ġactuar": 6263,
      "ĠcatÃ©ter": 6264,
      "Ġ96": 6265,
      "ĠDÃŃaz": 6266,
      "Ġempezar": 6267,
      "ua": 6268,
      "Ġllevado": 6269,
      "Ġcaracteriza": 6270,
      "ĠBen": 6271,
      "Ġartritis": 6272,
      "Ġ400": 6273,
      "Ġmolecular": 6274,
      "Ġtradicional": 6275,
      "Ġvs": 6276,
      "culas": 6277,
      "59": 6278,
      "Ġefectividad": 6279,
      "ĠPacientes": 6280,
      "tiga": 6281,
      "ĠCientÃŃ": 6282,
      "Ġresolver": 6283,
      "Ġbiopsia": 6284,
      "cindi": 6285,
      "ĠAG": 6286,
      "Ġseres": 6287,
      "ĠEpi": 6288,
      "Ġdemo": 6289,
      "Ġines": 6290,
      "Ġtrabajando": 6291,
      "Ġhabitantes": 6292,
      "ĠeliminaciÃ³n": 6293,
      "ĠÃºnicamente": 6294,
      "rer": 6295,
      "Ġfondo": 6296,
      "emb": 6297,
      "Ġfinalmente": 6298,
      "Ġmetabolismo": 6299,
      "bus": 6300,
      "Ġprofunda": 6301,
      "53": 6302,
      "ko": 6303,
      "77": 6304,
      "ĠMal": 6305,
      "ĠVi": 6306,
      "ĠfarmacÃ©utica": 6307,
      "Ġtemporal": 6308,
      "ĠFederaciÃ³n": 6309,
      "Ġaclar": 6310,
      "ĠBras": 6311,
      "ĠcompaÃ±eros": 6312,
      "Ġaporta": 6313,
      "Ġdiv": 6314,
      "Ġcontienen": 6315,
      "Ġcontinuar": 6316,
      "Ġido": 6317,
      "ĠUniÃ³n": 6318,
      "pemia": 6319,
      "Ġrealizaron": 6320,
      "66": 6321,
      "ctur": 6322,
      "Ġdoloroso": 6323,
      "Ġpromover": 6324,
      "Ġcompuesto": 6325,
      "ĠfenÃ³meno": 6326,
      "Ġacceder": 6327,
      "Ġarg": 6328,
      "Ġestima": 6329,
      "Ġindican": 6330,
      "Ġejecu": 6331,
      "Ġmuertes": 6332,
      "Ġrango": 6333,
      "ĠPS": 6334,
      "Ġdefensa": 6335,
      "ĠdisposiciÃ³n": 6336,
      "ĠHasta": 6337,
      "uyÃ³": 6338,
      "ĠJunta": 6339,
      "tru": 6340,
      "ĠON": 6341,
      "quina": 6342,
      "Ġrespiratorio": 6343,
      "Ġverte": 6344,
      "Ġsuici": 6345,
      "Ġdescartar": 6346,
      "Ġ[.]": 6347,
      "ĠLib": 6348,
      "Ġpulmonares": 6349,
      "Ġacel": 6350,
      "Ġing": 6351,
      "Ġrealizadas": 6352,
      "ĠÃ¡r": 6353,
      "wn": 6354,
      "orge": 6355,
      "Ġlic": 6356,
      "umab": 6357,
      "ocen": 6358,
      "Ġpreci": 6359,
      "amp": 6360,
      "Ġrode": 6361,
      "ĠNiega": 6362,
      "ĠBol": 6363,
      "ĠÃģngel": 6364,
      "ĠFern": 6365,
      "Ġaplicaciones": 6366,
      "Ġbronqui": 6367,
      "Ġdistancia": 6368,
      "Ġ49": 6369,
      "Ġmutaciones": 6370,
      "Ġ\".": 6371,
      "aciente": 6372,
      "Ġdando": 6373,
      "ĠÌģ": 6374,
      "rump": 6375,
      "tres": 6376,
      "ĠestadÃŃs": 6377,
      "ĠSch": 6378,
      "Ġwww": 6379,
      "Ġfir": 6380,
      "Ġmaes": 6381,
      "Ġventa": 6382,
      "ĠtrÃ¡": 6383,
      "Ġnecesarias": 6384,
      "quiatrÃŃa": 6385,
      "ormal": 6386,
      "ĠINF": 6387,
      "Ġmotivos": 6388,
      "Ġvigilancia": 6389,
      "teli": 6390,
      "Ġtre": 6391,
      "Ġacredi": 6392,
      "ĠActu": 6393,
      "intes": 6394,
      "Ġhospitalaria": 6395,
      "ĠVas": 6396,
      "Ġbom": 6397,
      "ĠGas": 6398,
      "Ġautoridades": 6399,
      "Ġbasado": 6400,
      "lina": 6401,
      "ĠinstituciÃ³n": 6402,
      "ded": 6403,
      "Ġprensa": 6404,
      "Ġbasada": 6405,
      "Ġprogresiva": 6406,
      "Ġoriginal": 6407,
      "Ġespeciales": 6408,
      "Ġtron": 6409,
      "kinson": 6410,
      "Ġactitud": 6411,
      "trio": 6412,
      "Ġmotor": 6413,
      "Ġexcl": 6414,
      "Ġadic": 6415,
      "ĠMA": 6416,
      "Ã¡stica": 6417,
      "Ġcultivo": 6418,
      "ximos": 6419,
      "Ġplacebo": 6420,
      "Ã©g": 6421,
      "litus": 6422,
      "Ġtratado": 6423,
      "Ġnucle": 6424,
      "Ġanimal": 6425,
      "Ġpersonalidad": 6426,
      "Ġcuestionario": 6427,
      "ĠneumonÃŃa": 6428,
      "Ġestadouniden": 6429,
      "lita": 6430,
      "Ġhttps": 6431,
      "ĠCAR": 6432,
      "Ġtolerancia": 6433,
      "tifica": 6434,
      "Ġprove": 6435,
      "ĠFinalmente": 6436,
      "Ġarro": 6437,
      "Ġrol": 6438,
      "entro": 6439,
      "Ġsobrepeso": 6440,
      "Ġvoc": 6441,
      "ĠnÃ¡us": 6442,
      "ĠMen": 6443,
      "Ġfractura": 6444,
      "ĠlocalizaciÃ³n": 6445,
      "Ġperspectiva": 6446,
      "Ġremi": 6447,
      "ĠFo": 6448,
      "ĠSeguridad": 6449,
      "Ġdiscipl": 6450,
      "Ġester": 6451,
      "Ġembarazadas": 6452,
      "ilaciÃ³n": 6453,
      "Ġparcial": 6454,
      "trans": 6455,
      "land": 6456,
      "Ġanomal": 6457,
      "upne": 6458,
      "Ġlin": 6459,
      "Ġcorrecto": 6460,
      "Ġcoronaria": 6461,
      "cy": 6462,
      "98": 6463,
      "Ġpoblaciones": 6464,
      "Ġincluidos": 6465,
      "Ġfrag": 6466,
      "viene": 6467,
      "ÃŃm": 6468,
      "Ġvital": 6469,
      "ION": 6470,
      "Ġconvir": 6471,
      "Ġencuesta": 6472,
      "abla": 6473,
      "Ġcree": 6474,
      "Ġcolom": 6475,
      "estiones": 6476,
      "Ġdoctora": 6477,
      "Ġcuar": 6478,
      "Ġquiero": 6479,
      "Ġerrores": 6480,
      "Ġescuchar": 6481,
      "TOR": 6482,
      "Por": 6483,
      "Ġfundamentalmente": 6484,
      "pul": 6485,
      "Ġhierro": 6486,
      "Ġinser": 6487,
      "Ġ44": 6488,
      "64": 6489,
      "Ġtrato": 6490,
      "ĠpropÃ³sito": 6491,
      "Ġcobertura": 6492,
      "Ġcursos": 6493,
      "enter": 6494,
      "Ġnormas": 6495,
      "ĠNutriciÃ³n": 6496,
      "ĠÃ¡nimo": 6497,
      "ĠTÃ©cn": 6498,
      "tegr": 6499,
      "ĠNos": 6500,
      "Ġ99": 6501,
      "ĠEj": 6502,
      "Ġderivados": 6503,
      "ume": 6504,
      "ĠSh": 6505,
      "Ġcalle": 6506,
      "Ġcadena": 6507,
      "fera": 6508,
      "Ġalguno": 6509,
      "Ġfracas": 6510,
      "Ġmultidiscipl": 6511,
      "ĠLAS": 6512,
      "ĠTecn": 6513,
      "Ġaltura": 6514,
      "Ġintestino": 6515,
      "Ġaparato": 6516,
      "Ġesco": 6517,
      "Ġrestaur": 6518,
      "Ġvariedad": 6519,
      "ĠTro": 6520,
      "ĠOtro": 6521,
      "uresis": 6522,
      "lop": 6523,
      "ficamente": 6524,
      "mago": 6525,
      "Ġinstrumento": 6526,
      "Ġcualquiera": 6527,
      "Ġendos": 6528,
      "ĠAutÃ³n": 6529,
      "betes": 6530,
      "Ġdesarrolla": 6531,
      "Ġgratu": 6532,
      "Ġnoctur": 6533,
      "Ġdisminuye": 6534,
      "Ġef": 6535,
      "fÃŃas": 6536,
      "Ġefectiva": 6537,
      "Ġbebidas": 6538,
      "Ġinstalaciones": 6539,
      "use": 6540,
      "ĠObservaciones": 6541,
      "Ġcompletamente": 6542,
      "ĠRom": 6543,
      "Ġesperar": 6544,
      "Ġfumar": 6545,
      "Ġconvers": 6546,
      "Ġtemporada": 6547,
      "Ġemociones": 6548,
      "Ġamino": 6549,
      "ĠmÃºltiple": 6550,
      "CS": 6551,
      "ĠTAC": 6552,
      "ĠrÃ¡pidamente": 6553,
      "Ġ150": 6554,
      "vado": 6555,
      "Ġpobre": 6556,
      "gluc": 6557,
      "61": 6558,
      "Ġestablecido": 6559,
      "ĠÃºl": 6560,
      "Ġadquir": 6561,
      "Ġbajos": 6562,
      "Ġcicl": 6563,
      "ĠFi": 6564,
      "Ġimprescindi": 6565,
      "Ġsimplemente": 6566,
      "Ã³digo": 6567,
      "Ġenerg": 6568,
      "Ã©nd": 6569,
      "Ã©gimen": 6570,
      "Ġobservar": 6571,
      "Ġdisfrutar": 6572,
      "ĠMÃ©dicos": 6573,
      "riente": 6574,
      "Ġparacetamol": 6575,
      "Ġpredominio": 6576,
      "ĠRey": 6577,
      "Ġdolores": 6578,
      "Ġ@": 6579,
      "Ġfres": 6580,
      "Ġblanco": 6581,
      "ĠRed": 6582,
      "Ġrespiratorias": 6583,
      "rame": 6584,
      "Ġasegura": 6585,
      "ualmente": 6586,
      "Ġsignificativo": 6587,
      "quez": 6588,
      "ĠYork": 6589,
      "67": 6590,
      "IDAD": 6591,
      "ons": 6592,
      "Ġrequis": 6593,
      "Ġembri": 6594,
      "ĠEtiquetas": 6595,
      "sion": 6596,
      "ĠobservaciÃ³n": 6597,
      "Ġanestesia": 6598,
      "IEN": 6599,
      "gros": 6600,
      "ĠsÃ³l": 6601,
      "Ġveh": 6602,
      "Ġnormo": 6603,
      "ych": 6604,
      "Ġentrega": 6605,
      "Ġneona": 6606,
      "Ġextens": 6607,
      "Ġcantidades": 6608,
      "Ġ1999": 6609,
      "Ġespalda": 6610,
      "bios": 6611,
      "ĠglÃ¡nd": 6612,
      "quiÃ¡": 6613,
      "Ġnutrientes": 6614,
      "Ġdirecto": 6615,
      "ĠAndal": 6616,
      "tron": 6617,
      "Ġalimento": 6618,
      "Ġcolectivo": 6619,
      "Ġestablece": 6620,
      "ĠCL": 6621,
      "nia": 6622,
      "Ġ43": 6623,
      "estruc": 6624,
      "Ġfases": 6625,
      "asis": 6626,
      "ĠGar": 6627,
      "ĠVe": 6628,
      "ĠRep": 6629,
      "tosa": 6630,
      "idados": 6631,
      "ALES": 6632,
      "62": 6633,
      "Ġvier": 6634,
      "ĠaÃ³r": 6635,
      "Ġarti": 6636,
      "ĠFor": 6637,
      "ĠenseÃ±anza": 6638,
      "Ġetapas": 6639,
      "Ġestadio": 6640,
      "Ġenf": 6641,
      "mios": 6642,
      "elle": 6643,
      "Ġdesay": 6644,
      "lin": 6645,
      "ĠelaboraciÃ³n": 6646,
      "cine": 6647,
      "Ġescen": 6648,
      "Ġbeta": 6649,
      "anda": 6650,
      "Ġtemprana": 6651,
      "Ġdescenso": 6652,
      "Ġfines": 6653,
      "ĠinteracciÃ³n": 6654,
      "ĠWil": 6655,
      "Ġintercambi": 6656,
      "Ġfrutas": 6657,
      "mites": 6658,
      "itarias": 6659,
      "gor": 6660,
      "Ġencontramos": 6661,
      "Ġllevan": 6662,
      "ĠDES": 6663,
      "Al": 6664,
      "Ġsuminis": 6665,
      "zando": 6666,
      "Ãºbi": 6667,
      "Ġcierta": 6668,
      "Ġpronto": 6669,
      "quismo": 6670,
      "jeron": 6671,
      "Ġencontraron": 6672,
      "Ġpalabra": 6673,
      "ramos": 6674,
      "tid": 6675,
      "tiles": 6676,
      "ĠAnd": 6677,
      "Ġrecibieron": 6678,
      "Ġmetas": 6679,
      "Ġcampos": 6680,
      "Ġtierra": 6681,
      "umatologÃŃa": 6682,
      "Ġcari": 6683,
      "Ġapropi": 6684,
      "ĠSil": 6685,
      "ĠBra": 6686,
      "inmun": 6687,
      "ĠPER": 6688,
      "Ġayudan": 6689,
      "topera": 6690,
      "Ġdebate": 6691,
      "Ġnumerosos": 6692,
      "pin": 6693,
      "mania": 6694,
      "Ġobliga": 6695,
      "ĠJim": 6696,
      "Ġcomentarios": 6697,
      "ĠprescripciÃ³n": 6698,
      "Ġexpan": 6699,
      "3121": 6700,
      "Ġsala": 6701,
      "tinencia": 6702,
      "Ġcivil": 6703,
      "reatment": 6704,
      "54": 6705,
      "ĠEF": 6706,
      "ecuciÃ³n": 6707,
      "ĠGra": 6708,
      "Ġanteriormente": 6709,
      "Ġmovilidad": 6710,
      "Ġcanal": 6711,
      "ĠHemÃ³lisis": 6712,
      "Ġregul": 6713,
      "52": 6714,
      "Ġsuscep": 6715,
      "fos": 6716,
      "Ġsimul": 6717,
      "ĠTotales": 6718,
      "Ġventajas": 6719,
      "ĠecografÃŃa": 6720,
      "ĠimplantaciÃ³n": 6721,
      "Ġline": 6722,
      "Ġbasa": 6723,
      "Ġalmacen": 6724,
      "ĠCU": 6725,
      "Ġtuberculosis": 6726,
      "Ġpadecen": 6727,
      "Ġactivos": 6728,
      "ĠEstudios": 6729,
      "Ġproxim": 6730,
      "Ġum": 6731,
      "ĠdÃ©cadas": 6732,
      "ĠEstÃ¡": 6733,
      "Ġasign": 6734,
      "ĠgÃ¡s": 6735,
      "Ġavis": 6736,
      "Ġalo": 6737,
      "Ġindicadores": 6738,
      "onancia": 6739,
      "ĠestÃŃm": 6740,
      "ĠTRA": 6741,
      "Ġconsideran": 6742,
      "Ġconsegu": 6743,
      "ock": 6744,
      "Ġespecialidades": 6745,
      "Ġnec": 6746,
      "Ġcomprender": 6747,
      "itat": 6748,
      "Ġdensidad": 6749,
      "ĠÃ³pti": 6750,
      "algia": 6751,
      "Ġreconocer": 6752,
      "Ġconsiderado": 6753,
      "Ġhuev": 6754,
      "Ġmetros": 6755,
      "Ġconvoca": 6756,
      "ĠAndalucÃŃa": 6757,
      "Ġadulto": 6758,
      "Ġrecuerda": 6759,
      "ĠAgencia": 6760,
      "ĠTal": 6761,
      "Ġentrevis": 6762,
      "Ġmedir": 6763,
      "ĠSci": 6764,
      "cipa": 6765,
      "ificar": 6766,
      "Ġeje": 6767,
      "ĠhipÃ³": 6768,
      "ĠPresidente": 6769,
      "Ġ47": 6770,
      "ĠMED": 6771,
      "Ġmalestar": 6772,
      "Ġcombatir": 6773,
      "Ġocular": 6774,
      "CÃ³mo": 6775,
      "Ġcomenzar": 6776,
      "rados": 6777,
      "entimiento": 6778,
      "sar": 6779,
      "Ġestados": 6780,
      "oxid": 6781,
      "Ġaprob": 6782,
      "Ġanticon": 6783,
      "FA": 6784,
      "Ġobservado": 6785,
      "ego": 6786,
      "57": 6787,
      "ĠAus": 6788,
      "ĠCruz": 6789,
      "Ġdigital": 6790,
      "ĠProtrombina": 6791,
      "Ġpublicados": 6792,
      "Ġmexic": 6793,
      "ĠDic": 6794,
      "ĠbebÃ©s": 6795,
      "leo": 6796,
      "ĠAlbÃºmina": 6797,
      "Ġresidentes": 6798,
      "Ġintelec": 6799,
      "Ġsabemos": 6800,
      "97": 6801,
      "Ġvisit": 6802,
      "ĠMus": 6803,
      "Ġproporcionar": 6804,
      "Ġesque": 6805,
      "Ġempeoramiento": 6806,
      "infec": 6807,
      "96": 6808,
      "sin": 6809,
      "ĠtÃº": 6810,
      "oneal": 6811,
      "ĠDiabetes": 6812,
      "Ġdren": 6813,
      "Ġpreserv": 6814,
      "Ġ\",": 6815,
      "Ġobservan": 6816,
      "Re": 6817,
      "Ġquis": 6818,
      "ĠnÃ¡useas": 6819,
      "picos": 6820,
      "tecciÃ³n": 6821,
      "fen": 6822,
      "ĠHar": 6823,
      "tun": 6824,
      "timi": 6825,
      "timas": 6826,
      "ĠGranada": 6827,
      "ĠlÃ¡ser": 6828,
      "Ġdirigida": 6829,
      "ĠestÃ³": 6830,
      "ĠetiologÃŃa": 6831,
      "enten": 6832,
      "Ġvivo": 6833,
      "Ġbacter": 6834,
      "imp": 6835,
      "Ġmod": 6836,
      "Ġcome": 6837,
      "yecto": 6838,
      "Ġjugadores": 6839,
      "51": 6840,
      "Ġreproduc": 6841,
      "SE": 6842,
      "Ġtransform": 6843,
      "ĠgestaciÃ³n": 6844,
      "Ã³rica": 6845,
      "VP": 6846,
      "Ġlibres": 6847,
      "ĠSobre": 6848,
      "drÃ¡": 6849,
      "Ġhueso": 6850,
      "UD": 6851,
      "Ġdomicili": 6852,
      "usal": 6853,
      "Ġrelaj": 6854,
      "Ġnasal": 6855,
      "tern": 6856,
      "Ġheter": 6857,
      "econ": 6858,
      "Ġavance": 6859,
      "xo": 6860,
      "ĠaÃ©": 6861,
      "Ġcultural": 6862,
      "Ġperme": 6863,
      "fono": 6864,
      "Ġdestacado": 6865,
      "Ġcito": 6866,
      "Ġremo": 6867,
      "bierto": 6868,
      "icion": 6869,
      "Ġcriterio": 6870,
      "sen": 6871,
      "Ġcadera": 6872,
      "Ġcompuestos": 6873,
      "Ġpiernas": 6874,
      "Ġng": 6875,
      "ror": 6876,
      "Ġcircunstancias": 6877,
      "Ġpostopera": 6878,
      "Ġespacios": 6879,
      "Ġlengua": 6880,
      "Ġano": 6881,
      "Ġauricular": 6882,
      "ĠocasiÃ³n": 6883,
      "Ġherida": 6884,
      "Ġcama": 6885,
      "gÃ©s": 6886,
      "Ġcorresponde": 6887,
      "Ġabierto": 6888,
      "Ġtarea": 6889,
      "Ġextran": 6890,
      "renal": 6891,
      "63": 6892,
      "Ġapenas": 6893,
      "Ġhemorragia": 6894,
      "Ã³micas": 6895,
      "Ġenlaz": 6896,
      "ĠadaptaciÃ³n": 6897,
      "PL": 6898,
      "reras": 6899,
      "ĠAlim": 6900,
      "Ġtomando": 6901,
      "ĠaÃ±ade": 6902,
      "sor": 6903,
      "Ġrecientes": 6904,
      "Ġencues": 6905,
      "Ġcarbono": 6906,
      "ĠestÃ³mago": 6907,
      "ĠBlan": 6908,
      "Ġproducido": 6909,
      "zuela": 6910,
      "Ġagente": 6911,
      "fÃ©": 6912,
      "Ġcortico": 6913,
      "Ġape": 6914,
      "Ġdesencaden": 6915,
      "ĠMej": 6916,
      "ĠFrancia": 6917,
      "rus": 6918,
      "Ġdisco": 6919,
      "Ġerror": 6920,
      "ĠVen": 6921,
      "ĠcÃ©lula": 6922,
      "Ġhabituales": 6923,
      "ĠDispon": 6924,
      "Ã©ricos": 6925,
      "tudes": 6926,
      "Ġadqui": 6927,
      "ĠestimulaciÃ³n": 6928,
      "ĠMM": 6929,
      "logo": 6930,
      "Ġcomidas": 6931,
      "lÃŃn": 6932,
      "Ġesperanza": 6933,
      "ĠuniÃ³n": 6934,
      "ĠPsicologÃŃa": 6935,
      "tillo": 6936,
      "ĠcirculaciÃ³n": 6937,
      "Ġahor": 6938,
      "ĠpodÃŃa": 6939,
      "ablo": 6940,
      "inflama": 6941,
      "ĠFR": 6942,
      "Ġsum": 6943,
      "Ġcerebrales": 6944,
      "Ġdemencia": 6945,
      "ĠinnovaciÃ³n": 6946,
      "Ã³nde": 6947,
      "Ġsuspen": 6948,
      "Ġrecibe": 6949,
      "Ġconductas": 6950,
      "HC": 6951,
      "Ġexterna": 6952,
      "Ġtto": 6953,
      "ĠmÃ©dula": 6954,
      "uegos": 6955,
      "ĠHistoria": 6956,
      "iana": 6957,
      "Ġdichos": 6958,
      "Ġescrito": 6959,
      "Ġlimitaciones": 6960,
      "ĠcoordinaciÃ³n": 6961,
      "itaciÃ³n": 6962,
      "Ã©nez": 6963,
      "ĠllevÃ³": 6964,
      "ĠBrasil": 6965,
      "Ġdescen": 6966,
      "ĠAcude": 6967,
      "ĠÃ¡cidos": 6968,
      "Ġatender": 6969,
      "Ġoficial": 6970,
      "Ġdefinitiva": 6971,
      "ÃŃl": 6972,
      "Ġrecordar": 6973,
      "001": 6974,
      "92": 6975,
      "Ġhogar": 6976,
      "omen": 6977,
      "Ġreciben": 6978,
      "Ġconstituyen": 6979,
      "Ġdepartamento": 6980,
      "Ġaccidentes": 6981,
      "Ġkg": 6982,
      "Ġfrecuentemente": 6983,
      "dri": 6984,
      "ĠfinanciaciÃ³n": 6985,
      "Ġhospitalario": 6986,
      "doc": 6987,
      "ĠVarÃ³n": 6988,
      "ĠSta": 6989,
      "identa": 6990,
      "Ġcorreg": 6991,
      "mic": 6992,
      "Ġusa": 6993,
      "Ġtrabaja": 6994,
      "ÃŃculas": 6995,
      "tinas": 6996,
      "ĠcaÃŃda": 6997,
      "VC": 6998,
      "ĠtelÃ©": 6999,
      "jerÃŃa": 7000,
      "ĠniÃ±as": 7001,
      "Ġintenso": 7002,
      "americana": 7003,
      "Ġsanos": 7004,
      "ĠAmb": 7005,
      "Ġpocas": 7006,
      "Ġcomenta": 7007,
      "tificar": 7008,
      "Ġobjetos": 7009,
      "ĠIS": 7010,
      "Ġsuero": 7011,
      "ĠelectrÃ³nico": 7012,
      "ĠAgu": 7013,
      "Ġinfecci": 7014,
      "Ġdic": 7015,
      "mus": 7016,
      "ĠnÃºcle": 7017,
      "Ġcotidi": 7018,
      "Ġcorreo": 7019,
      "Ġnormalmente": 7020,
      "Ġviernes": 7021,
      "yas": 7022,
      "Ġsujeto": 7023,
      "Ã³loga": 7024,
      "Ġrein": 7025,
      "ĠLinks": 7026,
      "ĠBur": 7027,
      "tara": 7028,
      "Ġpudo": 7029,
      "Ġcarcinoma": 7030,
      "ĠExpl": 7031,
      "Ġviven": 7032,
      "lvar": 7033,
      "entral": 7034,
      "Ġreto": 7035,
      "Ġresumen": 7036,
      "Ġsolicita": 7037,
      "Ġcosto": 7038,
      "Ġretro": 7039,
      "Ġpasos": 7040,
      "ĠPediatrÃŃa": 7041,
      "Ġconsumir": 7042,
      "89": 7043,
      "Ġformado": 7044,
      "ĠÃ³p": 7045,
      "Ġposteriores": 7046,
      "ĠguÃŃas": 7047,
      "Ġexterior": 7048,
      "ĠrecibiÃ³": 7049,
      "trices": 7050,
      "py": 7051,
      "edor": 7052,
      "tios": 7053,
      "Ġdicen": 7054,
      "fol": 7055,
      "gli": 7056,
      "ĠTrabajo": 7057,
      "Ġhacerse": 7058,
      "ĠÃļ": 7059,
      "ĠdiagnÃ³stica": 7060,
      "Ġdeterminado": 7061,
      "Ġdeterminados": 7062,
      "Ġhaga": 7063,
      "PC": 7064,
      "ĠJorn": 7065,
      "TIC": 7066,
      "Ġacos": 7067,
      "Ġdispone": 7068,
      "ĠDan": 7069,
      "Ġcompetencias": 7070,
      "Ġnacido": 7071,
      "Ġfij": 7072,
      "Ġcomunicado": 7073,
      "idaciÃ³n": 7074,
      "ĠHu": 7075,
      "Ġefectivo": 7076,
      "Ġpodcast": 7077,
      "Ġfras": 7078,
      "earch": 7079,
      "Ġadministrar": 7080,
      "ĠintegraciÃ³n": 7081,
      "Ġvitaminas": 7082,
      "ĠTera": 7083,
      "Ġkil": 7084,
      "Ġalternativas": 7085,
      "Ġrecomendable": 7086,
      "Ġdescribe": 7087,
      "Ġproporciona": 7088,
      "titudes": 7089,
      "abaquismo": 7090,
      "Ġesca": 7091,
      "Ġ1998": 7092,
      "ĠTiene": 7093,
      "ĠMientras": 7094,
      "ĠUCI": 7095,
      "ciles": 7096,
      "ĠtÃ©cnico": 7097,
      "Ġmellitus": 7098,
      "Ġinformes": 7099,
      "ĠlÃŃquidos": 7100,
      "ysis": 7101,
      "phy": 7102,
      "cÃ³pica": 7103,
      "ncia": 7104,
      "Ġcoag": 7105,
      "Ġmostraron": 7106,
      "Ġfundamentales": 7107,
      "ense": 7108,
      "Ġmicroorgan": 7109,
      "trato": 7110,
      "udades": 7111,
      "Ġposee": 7112,
      "ĠPon": 7113,
      "ĠindicaciÃ³n": 7114,
      "ĠAnÃ¡lisis": 7115,
      "ĠSevilla": 7116,
      "Ġsugieren": 7117,
      "ĠHol": 7118,
      "zados": 7119,
      "Ġrespeto": 7120,
      "Ġsorpren": 7121,
      "ĠtelevisiÃ³n": 7122,
      "ĠfÃ³rmula": 7123,
      "Ġinhal": 7124,
      "psis": 7125,
      "ĠJohn": 7126,
      "ĠFun": 7127,
      "Ġaspir": 7128,
      "Ġcompres": 7129,
      "ĠGe": 7130,
      "ĠEPOC": 7131,
      "Ġsegur": 7132,
      "mal": 7133,
      "depen": 7134,
      "ĠseÃ±alado": 7135,
      "Ġvoy": 7136,
      "pr": 7137,
      "ĠllegÃ³": 7138,
      "Ġafectadas": 7139,
      "Ġmostrar": 7140,
      "Ġcolombi": 7141,
      "ĠOtra": 7142,
      "iles": 7143,
      "llas": 7144,
      "Ġviaje": 7145,
      "Ġadeno": 7146,
      "RO": 7147,
      "ĠdeberÃŃan": 7148,
      "ĠregulaciÃ³n": 7149,
      "ane": 7150,
      "Ġare": 7151,
      "ick": 7152,
      "Ġfacilit": 7153,
      "Ġpertene": 7154,
      "Ġintereses": 7155,
      "Ã©micos": 7156,
      "Ġdimens": 7157,
      "Ġlunes": 7158,
      "Ġhuesos": 7159,
      "Ġanalgesia": 7160,
      "Ġerite": 7161,
      "frica": 7162,
      "mÃ¡ticos": 7163,
      "Ã³tica": 7164,
      "Ġaporte": 7165,
      "Ġsede": 7166,
      "Ġalergia": 7167,
      "Ġdemuestra": 7168,
      "tÃºan": 7169,
      "ĠFE": 7170,
      "ĠRepÃºblica": 7171,
      "PE": 7172,
      "olucion": 7173,
      "Ġespecializada": 7174,
      "ties": 7175,
      "ĠOf": 7176,
      "Ġancianos": 7177,
      "ĠAt": 7178,
      "Ġnacidos": 7179,
      "Ġpedir": 7180,
      "Ġmedias": 7181,
      "Ġintraven": 7182,
      "tativas": 7183,
      "Ġpremio": 7184,
      "Ġescasa": 7185,
      "Ġinhibidores": 7186,
      "df": 7187,
      "Ġratones": 7188,
      "Ġpuesta": 7189,
      "ĠPues": 7190,
      "Ġ52": 7191,
      "Ġcompra": 7192,
      "ĠrÃ©gimen": 7193,
      "Ġimpar": 7194,
      "Ġpublicaciones": 7195,
      "zep": 7196,
      "Ġsocios": 7197,
      "ACIÃĵN": 7198,
      "omos": 7199,
      "Ġdefen": 7200,
      "-,": 7201,
      "cieron": 7202,
      "Ġresponder": 7203,
      "Ã³d": 7204,
      "Ġarterias": 7205,
      "ĠSociales": 7206,
      "ĠCA": 7207,
      "Ġcompatible": 7208,
      "ĠFernando": 7209,
      "tÃŃculas": 7210,
      "ĠMc": 7211,
      "ĠDav": 7212,
      "Ġenorme": 7213,
      "Ġconex": 7214,
      "TPa": 7215,
      "Ġton": 7216,
      "Ġsociedades": 7217,
      "Ġmostrado": 7218,
      "TES": 7219,
      "Ġhabitualmente": 7220,
      "ÃŃtulos": 7221,
      "rito": 7222,
      "irÃ¡": 7223,
      "Ġfan": 7224,
      "Ġsta": 7225,
      "ficaciÃ³n": 7226,
      "Ġverde": 7227,
      "wit": 7228,
      "ciosas": 7229,
      "Ġescol": 7230,
      "Ġcorrectamente": 7231,
      "Ġbur": 7232,
      "Ġantioxid": 7233,
      "ĠMG": 7234,
      "Ġmelan": 7235,
      "cedente": 7236,
      "Ġid": 7237,
      "Ġingre": 7238,
      "ĠVene": 7239,
      "ĠDebido": 7240,
      "Ġquedar": 7241,
      "Ġindu": 7242,
      "ĠcomprensiÃ³n": 7243,
      "ĠLuego": 7244,
      "Ġentrar": 7245,
      "Ġseguido": 7246,
      "Ġdestacan": 7247,
      "gica": 7248,
      "Ġmanifiesto": 7249,
      "erte": 7250,
      "Ġocul": 7251,
      "ĠpÃºblicas": 7252,
      "ĠEvaluaciÃ³n": 7253,
      "Ġdeseo": 7254,
      "Ġcuestiones": 7255,
      "eli": 7256,
      "Ġacog": 7257,
      "ĠÃģlvar": 7258,
      "Ġgastrointes": 7259,
      "mej": 7260,
      "Ġglu": 7261,
      "Ġjugar": 7262,
      "Ġhechos": 7263,
      "Ġdesper": 7264,
      "Ġquieren": 7265,
      "Ġfatiga": 7266,
      "Ġcomprobar": 7267,
      "Ġclases": 7268,
      "Ġhicieron": 7269,
      "teos": 7270,
      "tÃ¡stasis": 7271,
      "ĠdaÃ±os": 7272,
      "cialmente": 7273,
      "bular": 7274,
      "Ã©ricas": 7275,
      "ĠLle": 7276,
      "Ġmembrana": 7277,
      "Ġazul": 7278,
      "Ġindependientemente": 7279,
      "tein": 7280,
      "Ġplataforma": 7281,
      "ĠUro": 7282,
      "Ġevidente": 7283,
      "bos": 7284,
      "ĠhospitalizaciÃ³n": 7285,
      "Ġodon": 7286,
      "Ġcalcul": 7287,
      "yl": 7288,
      "ĠBien": 7289,
      "tiende": 7290,
      "Ġsospech": 7291,
      "DI": 7292,
      "ĠdefiniciÃ³n": 7293,
      "Ġbreve": 7294,
      "Ġingen": 7295,
      "inc": 7296,
      "84": 7297,
      "Ġph": 7298,
      "Ġconclusiones": 7299,
      "Ġmesa": 7300,
      "Ġasisti": 7301,
      "orina": 7302,
      "ĠAlgunas": 7303,
      "Ġexplo": 7304,
      "Ġurgente": 7305,
      "sas": 7306,
      "Ġdiscre": 7307,
      "tigo": 7308,
      "Ġdiver": 7309,
      "Ġenlazan": 7310,
      "Ġtransversal": 7311,
      "ceras": 7312,
      "Ġindicaciones": 7313,
      "Ġlectura": 7314,
      "Ġsufre": 7315,
      "Ġataque": 7316,
      "Ġhallazgo": 7317,
      "ĠExper": 7318,
      "ĠcategorÃŃas": 7319,
      "Ġromp": 7320,
      "UU": 7321,
      "ware": 7322,
      "pedia": 7323,
      "ORM": 7324,
      "Ġvej": 7325,
      "ĠPremio": 7326,
      "Ġdocente": 7327,
      "ĠradiaciÃ³n": 7328,
      "ĠantÃŃ": 7329,
      "ĠmutaciÃ³n": 7330,
      "isa": 7331,
      "Ġfibra": 7332,
      "grÃ¡fica": 7333,
      "ĠOtras": 7334,
      "bel": 7335,
      "metrÃŃa": 7336,
      "Ġpoca": 7337,
      "ÃŃculos": 7338,
      "Ġretros": 7339,
      "iano": 7340,
      "Ġit": 7341,
      "acas": 7342,
      "ĠInformaciÃ³n": 7343,
      "Ġsecundario": 7344,
      "Ġpropuestas": 7345,
      "Ġama": 7346,
      "Ġestenosis": 7347,
      "medios": 7348,
      "Ġpleural": 7349,
      "93": 7350,
      "ĠAntes": 7351,
      "tics": 7352,
      "ave": 7353,
      "elos": 7354,
      "Ġdue": 7355,
      "Ġdirectora": 7356,
      "ĠprÃ¡cticamente": 7357,
      "Ġautismo": 7358,
      "ĠUnido": 7359,
      "ley": 7360,
      "Ġobtuvo": 7361,
      "ĠSanitaria": 7362,
      "ĠinyecciÃ³n": 7363,
      "ĠPrin": 7364,
      "tificado": 7365,
      "Ġ54": 7366,
      "Ġresal": 7367,
      "Ġdefine": 7368,
      "ĠBan": 7369,
      "king": 7370,
      "xido": 7371,
      "Ġsabor": 7372,
      "?.": 7373,
      "ĠGuerra": 7374,
      "Ġ64": 7375,
      "bilizaciÃ³n": 7376,
      "Ġsero": 7377,
      "ĠPuer": 7378,
      "Ġinfra": 7379,
      "mias": 7380,
      "Ġsolid": 7381,
      "Ġexplor": 7382,
      "TIVO": 7383,
      "Ġciudades": 7384,
      "Ġcontraste": 7385,
      "turos": 7386,
      "De": 7387,
      "trucciones": 7388,
      "Ġmonta": 7389,
      "ĠTTPa": 7390,
      "Ġlibertad": 7391,
      "!!!": 7392,
      "Ġopera": 7393,
      "ĠcorrelaciÃ³n": 7394,
      "Ġsolicitar": 7395,
      "Ġrealizarse": 7396,
      "Ġsel": 7397,
      "Ġvisitas": 7398,
      "ĠPosteriormente": 7399,
      "Ġnumerosas": 7400,
      "ĠdifusiÃ³n": 7401,
      "berg": 7402,
      "ĠanalgÃ©s": 7403,
      "Ġpensamiento": 7404,
      "ĠCI": 7405,
      "Ġprevias": 7406,
      "ĠHace": 7407,
      "Ġurgencia": 7408,
      "ĠexplicÃ³": 7409,
      "Ġcarne": 7410,
      "Ġretraso": 7411,
      "Ġces": 7412,
      "Ġcuidar": 7413,
      "Ġron": 7414,
      "ĠVall": 7415,
      "icardia": 7416,
      "Ġfinalidad": 7417,
      "arca": 7418,
      "2733": 7419,
      "ĠMuy": 7420,
      "Ġaportar": 7421,
      "ĠDos": 7422,
      "Ġpsicos": 7423,
      "tria": 7424,
      "ĠDon": 7425,
      "ĠmolÃ©culas": 7426,
      "ĠPsi": 7427,
      "Ġ56": 7428,
      "iasis": 7429,
      "Ġinstrumentos": 7430,
      "ĠutilizÃ³": 7431,
      "Ġprofesores": 7432,
      "Ġfunciona": 7433,
      "Ġbon": 7434,
      "Ġfabric": 7435,
      "Ġsirve": 7436,
      "idado": 7437,
      "ĠMic": 7438,
      "etales": 7439,
      "ĠAcademia": 7440,
      "Ġdebes": 7441,
      "ĠAmerican": 7442,
      "Ġdedo": 7443,
      "Co": 7444,
      "Ġflexi": 7445,
      "Ġadicional": 7446,
      "Ġacor": 7447,
      "ites": 7448,
      "Ġplanes": 7449,
      "Ġafectada": 7450,
      "ĠEcon": 7451,
      "Ġincom": 7452,
      "Ġescribir": 7453,
      "ĠFamilia": 7454,
      "orio": 7455,
      "Ġconsigue": 7456,
      "ĠPubl": 7457,
      "ĠHb": 7458,
      "ĠReino": 7459,
      "ray": 7460,
      "LO": 7461,
      "Ġrestric": 7462,
      "Ġbloqueo": 7463,
      "Ġhojas": 7464,
      "yste": 7465,
      "TS": 7466,
      "coc": 7467,
      "idal": 7468,
      "ferencias": 7469,
      "Ġpeligro": 7470,
      "trimonio": 7471,
      "Ġelegir": 7472,
      "Ġhemi": 7473,
      "Ġparecen": 7474,
      "ĠperifÃ©rica": 7475,
      "ablemente": 7476,
      "Ġderrame": 7477,
      "Ġcontamin": 7478,
      "ĠAnti": 7479,
      "Ġasegurar": 7480,
      "ĠdeterminaciÃ³n": 7481,
      "Ġgar": 7482,
      "Ġparticipado": 7483,
      "ĠbÃ¡sicos": 7484,
      "idel": 7485,
      "ĠDoctor": 7486,
      "Ġjuegos": 7487,
      "Ġdescriptivo": 7488,
      "Ġofrecen": 7489,
      "ĠprÃ³ximos": 7490,
      "Ġconocidos": 7491,
      "Ġconvencional": 7492,
      "Ġanun": 7493,
      "Ġmicrobi": 7494,
      "gÃ¼": 7495,
      "--------": 7496,
      "Ġfabr": 7497,
      "IST": 7498,
      "Ġjuicio": 7499,
      "terrÃ¡n": 7500,
      "Ġimplante": 7501,
      "ĠIc": 7502,
      "teca": 7503,
      "Ġpec": 7504,
      "Ġespi": 7505,
      "grad": 7506,
      "ĠtÃ³xicos": 7507,
      "red": 7508,
      "ĠCris": 7509,
      "pera": 7510,
      "Ġclaramente": 7511,
      "Ġbrazo": 7512,
      "Ġaceler": 7513,
      "Ġexistentes": 7514,
      "Ġconsentimiento": 7515,
      "ĠDavid": 7516,
      "ĠAV": 7517,
      "Ġhormonas": 7518,
      "untos": 7519,
      "umin": 7520,
      "Ġresuel": 7521,
      "Ġconceptos": 7522,
      "Ġinformar": 7523,
      "Ġdada": 7524,
      "Ġnerv": 7525,
      "ĠPablo": 7526,
      "Ġrealizando": 7527,
      "Ġpermitido": 7528,
      "Ġintrodu": 7529,
      "Ġmentales": 7530,
      "tables": 7531,
      "ĠmecÃ¡nica": 7532,
      "CE": 7533,
      "iologÃŃa": 7534,
      ".).": 7535,
      "Ġorganismos": 7536,
      "Ã±ez": 7537,
      "nis": 7538,
      "Ġestabilidad": 7539,
      "ĠsÃŃntoma": 7540,
      "ĠseÃ±alÃ³": 7541,
      "Ġvaginal": 7542,
      "Ġevolucion": 7543,
      "Si": 7544,
      "ĠPL": 7545,
      "ĠdÃ³nde": 7546,
      "ĠNor": 7547,
      "Ġreno": 7548,
      "Ġmucosa": 7549,
      "Ġilus": 7550,
      "Ġdesayuno": 7551,
      "ary": 7552,
      "estima": 7553,
      "Ġsemi": 7554,
      "ĠfarmacolÃ³gico": 7555,
      "Ġindis": 7556,
      "ĠmetodologÃŃa": 7557,
      "Ġsuma": 7558,
      "ĠÃ©stos": 7559,
      "ĠMac": 7560,
      "Ġcirujano": 7561,
      "Ġaumentado": 7562,
      "Ġdesarrollan": 7563,
      "ĠintenciÃ³n": 7564,
      "Ġdependiendo": 7565,
      "ĠlÃŃmite": 7566,
      "Ġaislamiento": 7567,
      "ĠDirector": 7568,
      "ĠgustarÃŃa": 7569,
      "enqui": 7570,
      "buprofeno": 7571,
      "ĠMS": 7572,
      "2738": 7573,
      "Ġfracturas": 7574,
      "Ġesenciales": 7575,
      "terÃŃa": 7576,
      "Ġaut": 7577,
      "Ġcompetencia": 7578,
      "ĠactivaciÃ³n": 7579,
      "Ġsalvo": 7580,
      "Ġdeba": 7581,
      "Ġmiles": 7582,
      "Ġsignificativos": 7583,
      "ĠNew": 7584,
      "taba": 7585,
      "ye": 7586,
      "Ġcelebra": 7587,
      "ĠabsorciÃ³n": 7588,
      "ĠpsiquiÃ¡": 7589,
      "tinales": 7590,
      "eneraciÃ³n": 7591,
      "ĠCataluÃ±a": 7592,
      "ÃŃdas": 7593,
      "Ġlaborales": 7594,
      "Ġsolar": 7595,
      "ĠNE": 7596,
      "Ãºtbol": 7597,
      "ADOS": 7598,
      "ioso": 7599,
      "Ġradioterapia": 7600,
      "Ġvie": 7601,
      "Ġimprescindible": 7602,
      "Ġextremidades": 7603,
      "Ġdeterminadas": 7604,
      "Ġaplica": 7605,
      "Ġtreatment": 7606,
      "Ġtraduc": 7607,
      "ĠcontaminaciÃ³n": 7608,
      "ĠpsicolÃ³gico": 7609,
      "ĠMI": 7610,
      "ĠestadÃŃsticamente": 7611,
      "ĠliberaciÃ³n": 7612,
      "Ġfia": 7613,
      "ĠCentral": 7614,
      "Ġdigestivo": 7615,
      "Ġmigra": 7616,
      "ĠMaterial": 7617,
      "Ġeficaces": 7618,
      "xa": 7619,
      "Ġcreado": 7620,
      "Ġcostes": 7621,
      "cefal": 7622,
      "tamientos": 7623,
      "Ġvuelve": 7624,
      "Ġhubiera": 7625,
      "Ġine": 7626,
      "Ġsana": 7627,
      "Ġnov": 7628,
      "ĠFib": 7629,
      "bor": 7630,
      "jeros": 7631,
      "omer": 7632,
      "unas": 7633,
      "ĠraÃŃz": 7634,
      "Ġtrabajan": 7635,
      "Ġarticulaciones": 7636,
      "Ġ94": 7637,
      "Ġparticipa": 7638,
      "Ġafectado": 7639,
      "ĠRamÃ³n": 7640,
      "Ġfamos": 7641,
      "ĠRafa": 7642,
      "tricia": 7643,
      "Ġrevistas": 7644,
      "ĠHEM": 7645,
      "iera": 7646,
      "ude": 7647,
      "Ġaconte": 7648,
      "Ġcate": 7649,
      "ĠÂ»": 7650,
      "fib": 7651,
      "Ġheridas": 7652,
      "tieron": 7653,
      "Ġmensaje": 7654,
      "Ġllegado": 7655,
      "bert": 7656,
      "mÃ¡n": 7657,
      "Ġcomprimidos": 7658,
      "ĠmediciÃ³n": 7659,
      "Ġleucocitos": 7660,
      "tencia": 7661,
      "ĠFarmacia": 7662,
      "MC": 7663,
      "ĠïĢ": 7664,
      "tipos": 7665,
      "Ġadherencia": 7666,
      "Ġrelativamente": 7667,
      "Ġcifra": 7668,
      "view": 7669,
      "Ġterren": 7670,
      "Ġtabaquismo": 7671,
      "ĠDecre": 7672,
      "Ġlider": 7673,
      "ĠlÃ³g": 7674,
      "ĠsanguÃŃneo": 7675,
      "ĠDig": 7676,
      "Ġrelevante": 7677,
      "ĠSAR": 7678,
      "Ġcola": 7679,
      "Ġvivien": 7680,
      "ĠMÃ©todos": 7681,
      "Ġpresti": 7682,
      "Ġdemues": 7683,
      "91": 7684,
      "erales": 7685,
      "Ġpunta": 7686,
      "Ġbanda": 7687,
      "ĠComple": 7688,
      "ualidad": 7689,
      "Ġcompu": 7690,
      "zamiento": 7691,
      "Ġabierta": 7692,
      "edores": 7693,
      "ĠLabora": 7694,
      "Ġcomienzo": 7695,
      "Ġnervios": 7696,
      "ĠJimÃ©nez": 7697,
      "pora": 7698,
      "tory": 7699,
      "dÃŃ": 7700,
      "Ġorganiza": 7701,
      "Ġseca": 7702,
      "Ġconvierte": 7703,
      "gadas": 7704,
      "Ġblando": 7705,
      "ĠcardiopatÃŃa": 7706,
      "erto": 7707,
      "rillo": 7708,
      "Ġ140": 7709,
      "ish": 7710,
      "mialgia": 7711,
      "Ġrequisitos": 7712,
      "Ġintent": 7713,
      "Ġsacar": 7714,
      "Ġtin": 7715,
      "creas": 7716,
      "ĠDentro": 7717,
      "Ġhall": 7718,
      "Ġvege": 7719,
      "Ġimpul": 7720,
      "ĠinversiÃ³n": 7721,
      "Ġdisease": 7722,
      "bido": 7723,
      "tum": 7724,
      "Ġrestos": 7725,
      "Ġmezcla": 7726,
      "tul": 7727,
      "vula": 7728,
      "ĠBel": 7729,
      "Ġobtenido": 7730,
      "guar": 7731,
      "Ġtitular": 7732,
      "tival": 7733,
      "ĠquiÃ©n": 7734,
      "Ġesqu": 7735,
      "Ġsed": 7736,
      "Ġgestion": 7737,
      "ĠNorte": 7738,
      "ĠpuntuaciÃ³n": 7739,
      "Ġverduras": 7740,
      "Ġreceta": 7741,
      "Ġsentimientos": 7742,
      "ĠmetÃ¡stasis": 7743,
      "Ġ1997": 7744,
      "Ġorales": 7745,
      "Ġcierre": 7746,
      "anÃŃa": 7747,
      "Ġcalci": 7748,
      "adecu": 7749,
      "porosis": 7750,
      "Ġhipertens": 7751,
      "ĠLon": 7752,
      "ĠhipÃ³tesis": 7753,
      "abe": 7754,
      "ĠhabrÃ¡": 7755,
      "duce": 7756,
      "aciona": 7757,
      "ĠAlemania": 7758,
      "ĠdiÃ¡lisis": 7759,
      "Ġaltamente": 7760,
      "oce": 7761,
      "ĠantibiÃ³tico": 7762,
      "Ġaper": 7763,
      "Ġtem": 7764,
      "arro": 7765,
      "Ġsodio": 7766,
      "Ġdiet": 7767,
      "zcan": 7768,
      "talia": 7769,
      "todo": 7770,
      "âĢĶ": 7771,
      "Ġoftalm": 7772,
      "tumb": 7773,
      "ĠMari": 7774,
      "ema": 7775,
      "ham": 7776,
      "Ã©micas": 7777,
      "operaciÃ³n": 7778,
      "adÃ¡": 7779,
      "ĠPrevenciÃ³n": 7780,
      "Ġadquis": 7781,
      "Ġoptimi": 7782,
      "Ġutilizada": 7783,
      "ĠÃºtiles": 7784,
      "tÃ¡neo": 7785,
      "Ġinau": 7786,
      "Ġ51": 7787,
      "Ġpermita": 7788,
      "Ġnormalidad": 7789,
      "ĠCuidados": 7790,
      "deros": 7791,
      "ĠCardio": 7792,
      "Ġpredis": 7793,
      "ĠRuiz": 7794,
      "Ġquieres": 7795,
      "Ġfuerzas": 7796,
      "Ġmalig": 7797,
      "Ġirrad": 7798,
      "ĠIntegr": 7799,
      "Ġpasando": 7800,
      "Ġnegocio": 7801,
      "ob": 7802,
      "Ġdefinir": 7803,
      "Ġsencillo": 7804,
      "icilina": 7805,
      "Ġdocumentos": 7806,
      "Ġestimul": 7807,
      "Ġdedos": 7808,
      "Ġalcance": 7809,
      "pil": 7810,
      "plan": 7811,
      "Ġprede": 7812,
      "ĠRX": 7813,
      "ĠradiografÃŃa": 7814,
      "Ġanat": 7815,
      "ĠAT": 7816,
      "ueves": 7817,
      "IDO": 7818,
      "Ġarrit": 7819,
      "ĠorientaciÃ³n": 7820,
      "Ġrazon": 7821,
      "Ġalcal": 7822,
      "ind": 7823,
      "viÃ³": 7824,
      "Ġisque": 7825,
      "Ġdescom": 7826,
      "ĠcÃ¡mara": 7827,
      "ĠcuÃ¡les": 7828,
      "igen": 7829,
      "ĠMÃ¡": 7830,
      "Ġsuperar": 7831,
      "ĠcalorÃŃas": 7832,
      "Ġurinaria": 7833,
      "ĠcrÃŃtica": 7834,
      "Ġvive": 7835,
      "ĠDecreto": 7836,
      "Ġtubo": 7837,
      "Ġinmune": 7838,
      "Ġresidencia": 7839,
      "taban": 7840,
      "Ġrefor": 7841,
      "Ġcigar": 7842,
      "genos": 7843,
      "GR": 7844,
      "Ġneuronas": 7845,
      "Ġregional": 7846,
      "ĠseÃ±ales": 7847,
      "Ġdiscri": 7848,
      "Ġproli": 7849,
      "Ġconsiderable": 7850,
      "Ġembarazada": 7851,
      "ĠRel": 7852,
      "Ġcomentario": 7853,
      "ĠbÃ¡sica": 7854,
      "ĠtÃ©cnicos": 7855,
      "ĠdeberÃ¡n": 7856,
      "Ġmara": 7857,
      "Ġinmediatamente": 7858,
      "umi": 7859,
      "radas": 7860,
      "Ġprofil": 7861,
      "eramente": 7862,
      "Ã³licos": 7863,
      "Ġsucede": 7864,
      "grÃ¡ficas": 7865,
      "Ġpena": 7866,
      "Ġdemostrar": 7867,
      "ĠestÃ¡s": 7868,
      "Ġ120": 7869,
      "ĠBr": 7870,
      "ĠEp": 7871,
      "Ġargum": 7872,
      "ĠOncologÃŃa": 7873,
      "Ġhormona": 7874,
      "ĠlÃŃmites": 7875,
      "Ã¡ce": 7876,
      "ĠriÃ±Ã³n": 7877,
      "omn": 7878,
      "Ġsegmento": 7879,
      "ĠpolÃŃticos": 7880,
      "Ġreconoce": 7881,
      "Ġenlace": 7882,
      "Ġentra": 7883,
      "Ġ53": 7884,
      "ĠhepÃ¡tico": 7885,
      "Ġdefectos": 7886,
      "ety": 7887,
      "amin": 7888,
      "rupciÃ³n": 7889,
      "ĠautonomÃŃa": 7890,
      "ĠLipemia": 7891,
      "Ġabrir": 7892,
      "Ġpautas": 7893,
      "Ġamigo": 7894,
      "paros": 7895,
      "Ġreconocido": 7896,
      "Ġnotable": 7897,
      "ĠdiÃ¡metro": 7898,
      "agia": 7899,
      "Ġconcluye": 7900,
      "lepsia": 7901,
      "Ã³tico": 7902,
      "Ġdichas": 7903,
      "ĠConsejerÃŃa": 7904,
      "Ġsemil": 7905,
      "Ã¡ctica": 7906,
      "Ġlegal": 7907,
      "ĠRevista": 7908,
      "Ġinmediato": 7909,
      "Ġmicros": 7910,
      "Ġtranspar": 7911,
      "Ġcuentan": 7912,
      "Â±": 7913,
      "ĠobstrucciÃ³n": 7914,
      "Ġnombr": 7915,
      "timo": 7916,
      "Ġadulta": 7917,
      "Ġsuces": 7918,
      "Ġgrados": 7919,
      "Ġrepresentan": 7920,
      "Ġsuges": 7921,
      "ĠVol": 7922,
      "Ġdiagnosticados": 7923,
      "ĠintroducciÃ³n": 7924,
      "jera": 7925,
      "Ġempleados": 7926,
      "Ġ93": 7927,
      "Ġvesti": 7928,
      "Ġmusculares": 7929,
      "ĠMel": 7930,
      "quitec": 7931,
      "Ġpatrones": 7932,
      "ĠprecisiÃ³n": 7933,
      "ĠEr": 7934,
      "Pro": 7935,
      "Ġcomparar": 7936,
      "Ġadecuadamente": 7937,
      "entre": 7938,
      "Ġorganizado": 7939,
      "Ġure": 7940,
      "ĠestarÃ¡": 7941,
      "ĠKa": 7942,
      "ĠpreocupaciÃ³n": 7943,
      "Ġcomprar": 7944,
      "ĠextracciÃ³n": 7945,
      "ĠUS": 7946,
      "ĠSA": 7947,
      "ĠMad": 7948,
      "Ġmarcadores": 7949,
      "ĠmÃŃnima": 7950,
      "Ġinhibi": 7951,
      "ĠfÃŃsicas": 7952,
      "Ġplaca": 7953,
      "Ġdescanso": 7954,
      "ĠpsicologÃŃa": 7955,
      "amble": 7956,
      "lamento": 7957,
      "ĠGR": 7958,
      ",.": 7959,
      "ĠeconÃ³micos": 7960,
      "bun": 7961,
      "Ġtambi": 7962,
      "Ġconvertido": 7963,
      "ĠpermitirÃ¡": 7964,
      "ĠEpidemi": 7965,
      "Ġbul": 7966,
      "Ã³licas": 7967,
      "pina": 7968,
      "Ġcercan": 7969,
      "Ġdev": 7970,
      "ĠCS": 7971,
      "Ġfec": 7972,
      "Ġprivada": 7973,
      "teras": 7974,
      "ĠfarmacÃ©uticos": 7975,
      "izan": 7976,
      "Ġnave": 7977,
      "Ġconseguido": 7978,
      "ung": 7979,
      "Ã¡menes": 7980,
      "Ġmet": 7981,
      "ĠNeurologÃŃa": 7982,
      "Ġprecios": 7983,
      "Ġplano": 7984,
      "ĠMental": 7985,
      "ÃŃsimo": 7986,
      "Ġlimpieza": 7987,
      "Ġvidas": 7988,
      "quin": 7989,
      "Ġenfermeros": 7990,
      "ĠpÃ¡r": 7991,
      "idi": 7992,
      "idea": 7993,
      "ĠcomplicaciÃ³n": 7994,
      "ky": 7995,
      "Ġambientales": 7996,
      "ede": 7997,
      "ancias": 7998,
      "ĠciÃ³n": 7999,
      "Ġseno": 8000,
      "Ġlinfocitos": 8001,
      "gues": 8002,
      "ĠJulio": 8003,
      "ACE": 8004,
      "Ġ68": 8005,
      "ĠinterpretaciÃ³n": 8006,
      "ĠjurÃŃ": 8007,
      "anal": 8008,
      "grafÃŃas": 8009,
      "Ġrecuperar": 8010,
      "citos": 8011,
      "Ġtumoral": 8012,
      "Ġinjer": 8013,
      "OMS": 8014,
      "Ġusando": 8015,
      "tizaciÃ³n": 8016,
      "Ġcorta": 8017,
      "bras": 8018,
      "Ġpreciso": 8019,
      "Ġimplantes": 8020,
      "Ġcorrespondientes": 8021,
      "Ġcatal": 8022,
      "Ġhos": 8023,
      "ĠsÃŃntesis": 8024,
      "Ġevidencias": 8025,
      "Ġincluido": 8026,
      "ĠAz": 8027,
      "Ġnervio": 8028,
      "capaci": 8029,
      "ĠRegis": 8030,
      "ii": 8031,
      "inge": 8032,
      "Ġsometidos": 8033,
      "Ġimplement": 8034,
      "Ġprofundidad": 8035,
      "Ġsobreviv": 8036,
      "bana": 8037,
      "ĠJorge": 8038,
      "Ġeficiencia": 8039,
      "cura": 8040,
      "ĠcÃ¡ps": 8041,
      "Ġinadecu": 8042,
      "Ġdiur": 8043,
      "ĠVil": 8044,
      "Ġcolocar": 8045,
      "Ġavanzado": 8046,
      "ĠcontinÃºa": 8047,
      "Ġdepresible": 8048,
      "Ġimposible": 8049,
      "Ġcardiaco": 8050,
      "Ġ82": 8051,
      "Ġcapacidades": 8052,
      "amina": 8053,
      "Ġindividuales": 8054,
      "Ġestric": 8055,
      "ĠdesempeÃ±": 8056,
      "Ġtens": 8057,
      "ĠconclusiÃ³n": 8058,
      "amÃ©rica": 8059,
      "ĠPendiente": 8060,
      "Ġbilaterales": 8061,
      "Ġsiguiendo": 8062,
      "?,": 8063,
      "ritis": 8064,
      "Ã³ticos": 8065,
      "Ġidi": 8066,
      "Las": 8067,
      "Ġprima": 8068,
      "trateg": 8069,
      "Ġanticoncep": 8070,
      "Ġrojo": 8071,
      "Ġdesvi": 8072,
      "Ġparecer": 8073,
      "Ġcomercial": 8074,
      "Ġcualita": 8075,
      "Ġbronco": 8076,
      "Ġbiom": 8077,
      "Ġmiel": 8078,
      "onia": 8079,
      "Ġcrema": 8080,
      "Ġheces": 8081,
      "Ġenfrent": 8082,
      "ĠaÃ±adir": 8083,
      "Ġprimario": 8084,
      "ĠisquÃ©mica": 8085,
      "cinas": 8086,
      "PI": 8087,
      "500": 8088,
      "Ġplasma": 8089,
      "yu": 8090,
      "Ġlogra": 8091,
      "Ġtoxicidad": 8092,
      "Ġllegan": 8093,
      "Ġdesn": 8094,
      "Ġ92": 8095,
      "MO": 8096,
      "Ġrelevan": 8097,
      "lesia": 8098,
      "Ġinvit": 8099,
      "Ġâī": 8100,
      "Ġfies": 8101,
      "ĠÎ": 8102,
      "ĠperfusiÃ³n": 8103,
      "Ġabordar": 8104,
      "ĠCri": 8105,
      "Ġconlleva": 8106,
      "ĠOD": 8107,
      "Ġrespir": 8108,
      "Ġtraumatismo": 8109,
      "ĠCarmen": 8110,
      "ĠpolÃŃtico": 8111,
      "Ġadolescencia": 8112,
      "Ġdiscu": 8113,
      "Ġespectro": 8114,
      "Ġaleator": 8115,
      "Ġfemenino": 8116,
      "ĠfrÃŃo": 8117,
      "ĠSuperior": 8118,
      "ĠÃºtero": 8119,
      "Ġprotocolos": 8120,
      "igual": 8121,
      "Ġfavorecer": 8122,
      "lav": 8123,
      "jidad": 8124,
      "ĠEso": 8125,
      "ĠID": 8126,
      "ders": 8127,
      "ĠMAP": 8128,
      "Ġluc": 8129,
      "ĠSER": 8130,
      "deres": 8131,
      "ime": 8132,
      "Ġcompletar": 8133,
      "Ġpermitan": 8134,
      "ĠDado": 8135,
      "uciones": 8136,
      "Ġcomor": 8137,
      "nar": 8138,
      "CP": 8139,
      "ensibilidad": 8140,
      "Â°": 8141,
      "rilaciÃ³n": 8142,
      "ĠBuenos": 8143,
      "iados": 8144,
      "Ġarriba": 8145,
      "Ġrue": 8146,
      "Ġdimensiones": 8147,
      "Ġdarle": 8148,
      "gamos": 8149,
      "ĠContin": 8150,
      "oria": 8151,
      "Ġnoticias": 8152,
      "Ġautoinmun": 8153,
      "Ġorientado": 8154,
      "Ġcuidadores": 8155,
      "Ġaor": 8156,
      "Ã±imiento": 8157,
      "Ġrepresentantes": 8158,
      "ĠBro": 8159,
      "hib": 8160,
      "Ġplantea": 8161,
      "low": 8162,
      "Ġanunci": 8163,
      "CD": 8164,
      "ĠInfantil": 8165,
      "Ġconviv": 8166,
      "ĠSte": 8167,
      "Ġ57": 8168,
      "Ġ88": 8169,
      "Ġarticular": 8170,
      "Ġsinusal": 8171,
      "Ġonline": 8172,
      "Ġmanual": 8173,
      "Ġperiodis": 8174,
      "HO": 8175,
      "umat": 8176,
      "Ġtracto": 8177,
      "Ġretos": 8178,
      "Ġplazas": 8179,
      "Ġintervalo": 8180,
      "Ġrenales": 8181,
      "Un": 8182,
      "ĠAutÃ³noma": 8183,
      "Ġ58": 8184,
      "Ġtomado": 8185,
      "Ġtaqu": 8186,
      "Ġpagar": 8187,
      "ĠCOMP": 8188,
      "ometrÃŃa": 8189,
      "Ġempren": 8190,
      "pp": 8191,
      "ĠcafÃ©": 8192,
      "Ġepid": 8193,
      "Ġdepos": 8194,
      "Ġirreg": 8195,
      "Ġpru": 8196,
      "ĠarticulaciÃ³n": 8197,
      "hu": 8198,
      "ĠiniciÃ³": 8199,
      "Ġpancre": 8200,
      "ĠreproducciÃ³n": 8201,
      "Ġobjetiv": 8202,
      "echas": 8203,
      "Ġ1996": 8204,
      "ĠatrÃ¡s": 8205,
      "Ġestando": 8206,
      "Ġpreca": 8207,
      "Ġjer": 8208,
      "EMAIL": 8209,
      "Ġretina": 8210,
      "Ġinfluen": 8211,
      "Ġart": 8212,
      "Ġconsejo": 8213,
      "Ġeducativo": 8214,
      "Ġlegisl": 8215,
      "Ġtrombo": 8216,
      "ĠoÃŃdo": 8217,
      "ĠsÃ¡": 8218,
      "ĠCha": 8219,
      "ĠfÃ¡cilmente": 8220,
      "Ġhistorias": 8221,
      "Ġabundante": 8222,
      "ĠLes": 8223,
      "ĠplanificaciÃ³n": 8224,
      "Ġmanip": 8225,
      "Ġiba": 8226,
      "Ġfuncionales": 8227,
      "oras": 8228,
      "Ġinterno": 8229,
      "Ġalimenti": 8230,
      "ĠDu": 8231,
      "ĠFÃŃs": 8232,
      "ĠbÃ¡sicas": 8233,
      "Ġbrazos": 8234,
      "Ġ66": 8235,
      "ĠSue": 8236,
      "ĠWeb": 8237,
      "Ġtriste": 8238,
      "CIONES": 8239,
      "Ġsufrido": 8240,
      "Ġsencilla": 8241,
      "Ġperitoneal": 8242,
      "Ġaprobado": 8243,
      "biendo": 8244,
      "ĠForal": 8245,
      "Ġindirec": 8246,
      "ĠChina": 8247,
      "Ġganar": 8248,
      "Ġcis": 8249,
      "Ġrecoge": 8250,
      "Ġinternet": 8251,
      "estre": 8252,
      "fren": 8253,
      "ney": 8254,
      "ĠVis": 8255,
      "elas": 8256,
      "tructiva": 8257,
      "Ġ62": 8258,
      "ĠBlo": 8259,
      "ENCIA": 8260,
      "Ġuniversidad": 8261,
      "tuvieron": 8262,
      "Ġcreciente": 8263,
      "Ġoportunidades": 8264,
      "ĠDiagnÃ³stico": 8265,
      "Ġcolores": 8266,
      "tarias": 8267,
      "Ġeres": 8268,
      "ĠneurolÃ³gica": 8269,
      "urg": 8270,
      "ficios": 8271,
      "Ġservir": 8272,
      "Ġintensa": 8273,
      "doncia": 8274,
      "ĠmisiÃ³n": 8275,
      "ĠPi": 8276,
      "ĠfÃŃsicos": 8277,
      "ĠTur": 8278,
      "rantes": 8279,
      "Ġdefens": 8280,
      "ĠPaÃŃs": 8281,
      "Ġadmi": 8282,
      "lpm": 8283,
      "Ġminerales": 8284,
      "ĠrespiraciÃ³n": 8285,
      "ĠsanguÃŃneos": 8286,
      "Ġgolpe": 8287,
      "ĠVenezuela": 8288,
      "Ġintelectual": 8289,
      "ĠanomalÃŃas": 8290,
      "faci": 8291,
      "Ġraras": 8292,
      "ĠRafael": 8293,
      "Ġexpe": 8294,
      "Ġjueves": 8295,
      "Ġadecuados": 8296,
      "macias": 8297,
      "Ġvulner": 8298,
      "Ġaliviar": 8299,
      "ĠRespecto": 8300,
      "Ġ2020": 8301,
      "ĠCÃ¡": 8302,
      "Ġ600": 8303,
      "Ġesclerosis": 8304,
      "Ġpais": 8305,
      "ÆĴ": 8306,
      "OLOGÃįA": 8307,
      "Ġciencias": 8308,
      "ĠExiste": 8309,
      "Ġcabe": 8310,
      "ĠafecciÃ³n": 8311,
      "pÃ³n": 8312,
      "Ġsiente": 8313,
      "tericia": 8314,
      "ĠCiencia": 8315,
      "Ġclima": 8316,
      "Ġsitios": 8317,
      "Ġcavidad": 8318,
      "ĠgenÃ©ticos": 8319,
      "terapeu": 8320,
      "Ġsul": 8321,
      "ĠEnrique": 8322,
      "Ġimper": 8323,
      "actividad": 8324,
      "ĠactÃºa": 8325,
      "Ġcontraindic": 8326,
      "Ġinicialmente": 8327,
      "ĠharÃ¡": 8328,
      "quÃŃmica": 8329,
      "Ġprom": 8330,
      "Ġwh": 8331,
      "tiza": 8332,
      "Ġcuarto": 8333,
      "Ġinmediata": 8334,
      "Ġuniversal": 8335,
      "Ġlaboratorios": 8336,
      "reo": 8337,
      "Ġecocardi": 8338,
      "Ġ61": 8339,
      "pecÃŃ": 8340,
      "Ġequival": 8341,
      "ĠLic": 8342,
      "Ġdivul": 8343,
      "ĠdetrÃ¡s": 8344,
      "ĠcutÃ¡nea": 8345,
      "Ġseries": 8346,
      "depres": 8347,
      "Ġsecuencia": 8348,
      "BA": 8349,
      "Ġ**": 8350,
      "Ġfacilita": 8351,
      "tita": 8352,
      "Ġ63": 8353,
      "Ġvic": 8354,
      "terona": 8355,
      "ftware": 8356,
      "Ġestudiado": 8357,
      "Ġtercio": 8358,
      "Ġreemp": 8359,
      "Ġsegundos": 8360,
      "ĠBor": 8361,
      "Ġsano": 8362,
      "Ġcumple": 8363,
      "Ġisquemia": 8364,
      "Ġfeto": 8365,
      "Ġmoles": 8366,
      "ÃŃri": 8367,
      "==": 8368,
      "tÃ©tica": 8369,
      "ĠeconomÃŃa": 8370,
      "Ġfren": 8371,
      "Ġinvestigadora": 8372,
      "ĠprestaciÃ³n": 8373,
      "Ġincidencias": 8374,
      "Ġactuaciones": 8375,
      "Ġsubs": 8376,
      "plÃ¡s": 8377,
      "ement": 8378,
      "IER": 8379,
      "Ġinmi": 8380,
      "osotros": 8381,
      "Ġorto": 8382,
      "drÃŃa": 8383,
      "Ġfibras": 8384,
      "Ġuro": 8385,
      "Ġresonancia": 8386,
      "Ġinteg": 8387,
      "Ġconducir": 8388,
      "ĠGestiÃ³n": 8389,
      "Ġabuso": 8390,
      "lÃŃ": 8391,
      "ĠLac": 8392,
      "Ġconsenso": 8393,
      "jec": 8394,
      "ĠplÃ¡s": 8395,
      "eamente": 8396,
      "Ġdul": 8397,
      "urs": 8398,
      "ĠFuer": 8399,
      "ĠAbdomen": 8400,
      "Ġhar": 8401,
      "Paciente": 8402,
      "Ġsar": 8403,
      "Ġprivado": 8404,
      "Ġrin": 8405,
      "ĠÃģrea": 8406,
      "Ġconfigur": 8407,
      "Ġintoler": 8408,
      "ciru": 8409,
      "opa": 8410,
      "Ġcomplejidad": 8411,
      "ĠMoreno": 8412,
      "Ġdecidir": 8413,
      "He": 8414,
      "igo": 8415,
      "enquimatos": 8416,
      "Ġresca": 8417,
      "Ã³f": 8418,
      "ĠFarmacÃ©u": 8419,
      "ĠÃ¡mbitos": 8420,
      "ĠpasÃ³": 8421,
      "Ġmodificar": 8422,
      "ÃŃsticos": 8423,
      "ĠClÃŃnico": 8424,
      "CT": 8425,
      "Ġ59": 8426,
      "Ġimplicados": 8427,
      "Ġlejos": 8428,
      "Ġcare": 8429,
      "Ġropa": 8430,
      "ĠlÃ¡": 8431,
      "Ġdigo": 8432,
      "Ġparticipan": 8433,
      "ĠDisponible": 8434,
      "Ġmoderado": 8435,
      "Ġeuropeos": 8436,
      "Ġinflamatoria": 8437,
      "Ġverdadera": 8438,
      "ĠventilaciÃ³n": 8439,
      "ĠCE": 8440,
      "Ġapoyar": 8441,
      "Ġpediatra": 8442,
      "Ġinaugur": 8443,
      "UES": 8444,
      "Ġhacemos": 8445,
      "ĠFa": 8446,
      "Ġsuave": 8447,
      "ĠtelÃ©fono": 8448,
      "crip": 8449,
      "empo": 8450,
      "Ġatrac": 8451,
      "ĠvarÃ³n": 8452,
      "int": 8453,
      "illos": 8454,
      "Ġdign": 8455,
      "sociation": 8456,
      "ICOS": 8457,
      "han": 8458,
      "dado": 8459,
      "Ġviral": 8460,
      "An": 8461,
      "ĠaminoÃ¡": 8462,
      "elo": 8463,
      "Ġ^": 8464,
      "ĠexÃ¡menes": 8465,
      "PER": 8466,
      "enden": 8467,
      "Ġblanca": 8468,
      "Ġcuyos": 8469,
      "Ġcicatriz": 8470,
      "(.)": 8471,
      "ĠLO": 8472,
      "Ġbet": 8473,
      "acciÃ³n": 8474,
      "ĠNuestro": 8475,
      "Ġaumentan": 8476,
      "IX": 8477,
      "Ġinters": 8478,
      "Ġnormativa": 8479,
      "ombre": 8480,
      "Ġ1995": 8481,
      "Ġincrementar": 8482,
      "Ġdocentes": 8483,
      "ĠdiabÃ©ticos": 8484,
      "Ġimpac": 8485,
      "Ġregistros": 8486,
      "ciencia": 8487,
      "Ġconocidas": 8488,
      "Ġoperaciones": 8489,
      "Ġpreparar": 8490,
      "Ġapartado": 8491,
      "ĠgrÃ¡": 8492,
      "ĠST": 8493,
      "quinas": 8494,
      "ÃįN": 8495,
      "idismo": 8496,
      "Ġcoronario": 8497,
      "ĠMuchos": 8498,
      "Ġpolic": 8499,
      "anim": 8500,
      "Ġcarbo": 8501,
      "Ġpresupuesto": 8502,
      "blas": 8503,
      "Ġquedan": 8504,
      "Ġantiinflama": 8505,
      "ĠadquisiciÃ³n": 8506,
      "Ġesquizo": 8507,
      "ĠquirÃºrgicas": 8508,
      "ĠlÃŃder": 8509,
      "Ġformato": 8510,
      "Ġcribado": 8511,
      "erse": 8512,
      "ĠobtenciÃ³n": 8513,
      "trosis": 8514,
      "AG": 8515,
      "ological": 8516,
      "Ġdebilidad": 8517,
      "Ġnueve": 8518,
      "ore": 8519,
      "Ġdiagnosticar": 8520,
      "Ã©rcito": 8521,
      "ĠhabrÃŃa": 8522,
      "Ġele": 8523,
      "ĠcaracterÃŃstica": 8524,
      "izon": 8525,
      "tz": 8526,
      "Ġidentificado": 8527,
      "ĠrÃŃo": 8528,
      "ĠParacetamol": 8529,
      "ĠdonaciÃ³n": 8530,
      "Ġciclos": 8531,
      "Ġ89": 8532,
      "Ġpudiendo": 8533,
      "aciÃĥ": 8534,
      "Ġedemas": 8535,
      "Ġajuste": 8536,
      "ĠAf": 8537,
      "IOS": 8538,
      "Ġconvocatoria": 8539,
      "len": 8540,
      "dular": 8541,
      "Ã©lv": 8542,
      "ĠSolo": 8543,
      "Ġtelef": 8544,
      "Ġchild": 8545,
      "Ġprecisamente": 8546,
      "Ġpotencialmente": 8547,
      "Ġperi": 8548,
      "ĠacompaÃ±ado": 8549,
      "Ġmanifiesta": 8550,
      "toras": 8551,
      "Ġsh": 8552,
      "Ġalimentaria": 8553,
      "uris": 8554,
      "Ġ84": 8555,
      "Ġ91": 8556,
      "Ġgrasos": 8557,
      "As": 8558,
      "Ġclientes": 8559,
      "try": 8560,
      "Ġdifun": 8561,
      "Ġsolicitud": 8562,
      "abel": 8563,
      "Ġsaben": 8564,
      "ĠParkinson": 8565,
      "Ġusan": 8566,
      "ĠCM": 8567,
      "Ġbos": 8568,
      "ics": 8569,
      "Ġnegro": 8570,
      "ĠsecreciÃ³n": 8571,
      "Ġpadece": 8572,
      "Ġmorbilidad": 8573,
      "ĠmagnÃ©tica": 8574,
      "ĠÃģfrica": 8575,
      "Ġcoh": 8576,
      "Ġprocedentes": 8577,
      "Ġligeramente": 8578,
      "enes": 8579,
      "ĠGa": 8580,
      "cionalmente": 8581,
      "Ġpublica": 8582,
      "derÃ¡": 8583,
      "enciaciÃ³n": 8584,
      "Ġsuerte": 8585,
      "Ġocurrir": 8586,
      "bacteri": 8587,
      "ĠEfec": 8588,
      "Ġed": 8589,
      "timos": 8590,
      "Ġheredi": 8591,
      "adura": 8592,
      "Ġvice": 8593,
      "Ã³micos": 8594,
      "ĠvÃŃctimas": 8595,
      "ĠincorporaciÃ³n": 8596,
      "2019": 8597,
      "Ġpotencia": 8598,
      "ĠaÃ³rtica": 8599,
      "ĠrecomendaciÃ³n": 8600,
      "Ġarch": 8601,
      "Ġasistenciales": 8602,
      "Ġrara": 8603,
      "ĠCalidad": 8604,
      "Ġexistir": 8605,
      "ÆĴÃ": 8606,
      "Ġtraum": 8607,
      "Ġaumentando": 8608,
      "Ġmicroorganismos": 8609,
      "Ġcongreso": 8610,
      "Ġmasas": 8611,
      "Ġ67": 8612,
      "Ġmate": 8613,
      "blaciÃ³n": 8614,
      "Ġrefuer": 8615,
      "Ġambiental": 8616,
      "uestros": 8617,
      "Ġrelevancia": 8618,
      "Ġcron": 8619,
      "Ġseguros": 8620,
      "ĠEcu": 8621,
      "Ġpasan": 8622,
      "gresos": 8623,
      "Ġcraneal": 8624,
      "filia": 8625,
      "Ġconfirma": 8626,
      "Ġautoestima": 8627,
      "ĠInvestigadores": 8628,
      "ĠpartÃŃculas": 8629,
      "Ġuter": 8630,
      "Ġcostos": 8631,
      "Me": 8632,
      "Ġfumadores": 8633,
      "tavo": 8634,
      "Ġpropa": 8635,
      "Ġalerta": 8636,
      "Ġevidenci": 8637,
      "ĠTodas": 8638,
      "cutÃ¡nea": 8639,
      "Ġfetal": 8640,
      "Ġnariz": 8641,
      "Ġnegativas": 8642,
      "ĠPsych": 8643,
      "Ġ650": 8644,
      "Ġemergencia": 8645,
      "zaron": 8646,
      "Ġparticularmente": 8647,
      "Ġfomentar": 8648,
      "ĠimplementaciÃ³n": 8649,
      "Ġdeterminada": 8650,
      "Ġnuevamente": 8651,
      "ĠUr": 8652,
      "ĠSec": 8653,
      "Ġvena": 8654,
      "Ġaguas": 8655,
      "ĠestratÃ©": 8656,
      "tiroidismo": 8657,
      "mail": 8658,
      "Ġabre": 8659,
      "tira": 8660,
      "Ġapertura": 8661,
      "ÃŃg": 8662,
      "Ġocci": 8663,
      "Ã¡ncreas": 8664,
      "tadora": 8665,
      "Ġactos": 8666,
      "Ġconvertirse": 8667,
      "ÃŃc": 8668,
      "Ġpolvo": 8669,
      "Ġafrontar": 8670,
      "TOS": 8671,
      "Ġfarmacias": 8672,
      "ĠSÃ³lo": 8673,
      "diÃ¡lisis": 8674,
      "amblea": 8675,
      "ĠSIN": 8676,
      "ĠCla": 8677,
      "olas": 8678,
      "iada": 8679,
      "ĠnÃºcleo": 8680,
      "ĠJus": 8681,
      "ĠMis": 8682,
      "Ġauxil": 8683,
      "Ġacaba": 8684,
      "ĠbaÃ±o": 8685,
      "Ġfondos": 8686,
      "Ġconvuls": 8687,
      "ĠestreÃ±imiento": 8688,
      "Ġpudiera": 8689,
      "Ġfuertes": 8690,
      "deras": 8691,
      "Ġobjetiva": 8692,
      "turaciÃ³n": 8693,
      "Ġthis": 8694,
      "Ġpresi": 8695,
      "Ġpropone": 8696,
      "elleza": 8697,
      "Ġtend": 8698,
      "Ġvejiga": 8699,
      "Ġnoticia": 8700,
      "Ġcercano": 8701,
      "Ġtrayec": 8702,
      "Ġapunta": 8703,
      "ĠMedicamentos": 8704,
      "Ġvaya": 8705,
      "Ġcomplejos": 8706,
      "Ġproximal": 8707,
      "Ġ69": 8708,
      "patologÃŃa": 8709,
      "ĠEco": 8710,
      "Ġfisioterapia": 8711,
      "ĠCP": 8712,
      "Ġosteoporosis": 8713,
      "ENTES": 8714,
      "alizaciones": 8715,
      "ĠautÃ³nomas": 8716,
      "ritos": 8717,
      "Ġinqui": 8718,
      "ĠSI": 8719,
      "Ġculturales": 8720,
      "ĠOrden": 8721,
      "ueba": 8722,
      "Ġsensible": 8723,
      "Ġdietas": 8724,
      "Ġpuerta": 8725,
      "pado": 8726,
      "ĠVan": 8727,
      "Ġorient": 8728,
      "ĠbiolÃ³gicos": 8729,
      "ĠAndr": 8730,
      "ĠGinec": 8731,
      "Ġ74": 8732,
      "Ġinsec": 8733,
      "Ġrecidi": 8734,
      "Ã³nimo": 8735,
      "Ġtrim": 8736,
      "Ġhermano": 8737,
      "Ġclaves": 8738,
      "Ġgusto": 8739,
      "zco": 8740,
      "Ġincen": 8741,
      "Ġ87": 8742,
      "Ġindependencia": 8743,
      "ĠSAL": 8744,
      "ĠSEC": 8745,
      "Ġchar": 8746,
      "Ġanticoagul": 8747,
      "prazol": 8748,
      "Ġanalizaron": 8749,
      "cÃ¡r": 8750,
      "Ġbu": 8751,
      "Ġdescritos": 8752,
      "Ġdesaf": 8753,
      "DR": 8754,
      "ezca": 8755,
      "Ġadh": 8756,
      "rug": 8757,
      "ĠcolocaciÃ³n": 8758,
      "Ġperdido": 8759,
      "ĠfÃºtbol": 8760,
      "Ġaudios": 8761,
      "Ġinvier": 8762,
      "Ġdescribir": 8763,
      "ANTE": 8764,
      "bamos": 8765,
      "Ġcaminar": 8766,
      "ĠPop": 8767,
      "Ġvoluntad": 8768,
      "ĠUR": 8769,
      "Ġexclusivamente": 8770,
      "Ġoferta": 8771,
      "Ġantecedente": 8772,
      "ĠCapÃŃtulo": 8773,
      "Ġincapacidad": 8774,
      "ĠRÃŃo": 8775,
      "ĠDA": 8776,
      "ĠÃģlvarez": 8777,
      "dex": 8778,
      "irman": 8779,
      "Ã¡neo": 8780,
      "Ġfracaso": 8781,
      "Ġcontribuye": 8782,
      "ĠMurcia": 8783,
      "Ġdesign": 8784,
      "ĠtendrÃ¡n": 8785,
      "ĠquÃŃmicos": 8786,
      "ĠporciÃ³n": 8787,
      "Ġadquirir": 8788,
      "Ġign": 8789,
      "Ġmasculino": 8790,
      "Ġ86": 8791,
      "ĠGre": 8792,
      "Ġempieza": 8793,
      "Ġiniciativas": 8794,
      "Ġdedicado": 8795,
      "Ġ83": 8796,
      "Ġelevados": 8797,
      "ĠElec": 8798,
      "ĠBus": 8799,
      "ĠgeogrÃ¡": 8800,
      "ĠTrastornos": 8801,
      "cada": 8802,
      "ĠCV": 8803,
      "Ġlogrado": 8804,
      "uri": 8805,
      "Ġidentidad": 8806,
      "ĠhacÃŃa": 8807,
      "ĠrepresentaciÃ³n": 8808,
      "ÃŃns": 8809,
      "Ġdefecto": 8810,
      "ĠhÃ¡bito": 8811,
      "Ġhermanos": 8812,
      "Ġpil": 8813,
      "ĠBogo": 8814,
      "Ġninguno": 8815,
      "iver": 8816,
      "Ġdecre": 8817,
      "Ġcontes": 8818,
      "Ġafecciones": 8819,
      "Ã³ricos": 8820,
      "ĠtÃ©": 8821,
      "Ġaquella": 8822,
      "ĠdemostrÃ³": 8823,
      "lano": 8824,
      "Ã©rcoles": 8825,
      "Ġcondicion": 8826,
      "Ġarm": 8827,
      "Ġincu": 8828,
      "icultura": 8829,
      "Ġpartidos": 8830,
      "Ġincluyeron": 8831,
      "Ġirre": 8832,
      "Ġrostro": 8833,
      "Ġcontrac": 8834,
      "Ġav": 8835,
      "Ġdetalles": 8836,
      "Ġpropiedad": 8837,
      "Ġtrombosis": 8838,
      "Ġdemuestran": 8839,
      "Ġlog": 8840,
      "Ġcuerpos": 8841,
      "egal": 8842,
      "Ġbalance": 8843,
      "Ġligera": 8844,
      "ĠDIS": 8845,
      "tonina": 8846,
      "Ġentero": 8847,
      "Ġdrenaje": 8848,
      "Ã©di": 8849,
      "Ġbuscando": 8850,
      "Ġinm": 8851,
      "Ġhombro": 8852,
      "ires": 8853,
      "Ġponen": 8854,
      "Ġcubrir": 8855,
      "Ġinterrump": 8856,
      "Ġsonda": 8857,
      "ĠUs": 8858,
      "posa": 8859,
      "ee": 8860,
      "ĠCurso": 8861,
      "Ġpresentaban": 8862,
      "Ġvegetales": 8863,
      "Ġbiliar": 8864,
      "vida": 8865,
      "icen": 8866,
      "Ã¡micamente": 8867,
      "cÃ©s": 8868,
      "Ġpago": 8869,
      "ĠProvin": 8870,
      "ĠpediÃ¡trica": 8871,
      "Ġuse": 8872,
      "hiper": 8873,
      "eles": 8874,
      "ĠMie": 8875,
      "Ġocasion": 8876,
      "Ġconveniente": 8877,
      "Ġresultar": 8878,
      "Ġtono": 8879,
      "ĠniÃ±a": 8880,
      "ĠObjetivos": 8881,
      "Ĥ¬": 8882,
      "ĠmodificaciÃ³n": 8883,
      "Ġdermat": 8884,
      "Ġpuestos": 8885,
      "erapy": 8886,
      "Ġcelulares": 8887,
      "ĠZara": 8888,
      "Ġhumor": 8889,
      "Ġane": 8890,
      "Ġreclam": 8891,
      "Ġvasculares": 8892,
      "Ġingredientes": 8893,
      "Ġelaborado": 8894,
      "Ġtobil": 8895,
      "ĠSub": 8896,
      "Ġhel": 8897,
      "ecÃŃa": 8898,
      "Ġago": 8899,
      "Ġpilo": 8900,
      "ĠaprobaciÃ³n": 8901,
      "Ġ78": 8902,
      "ERM": 8903,
      "Ġparejas": 8904,
      "Ġdestr": 8905,
      "Ġsiento": 8906,
      "ĠFormaciÃ³n": 8907,
      "ĠProce": 8908,
      "Ġrechazo": 8909,
      "Ġolvidar": 8910,
      "Ġprome": 8911,
      "Ġ%:.": 8912,
      "Ġhablamos": 8913,
      "quirÃºrg": 8914,
      "Ġ250": 8915,
      "ĠdecidiÃ³": 8916,
      "Ġendome": 8917,
      "Ġrelaciona": 8918,
      "olencia": 8919,
      "ĠConsul": 8920,
      "Ġ71": 8921,
      "ĠgenÃ©ticas": 8922,
      "ight": 8923,
      "ĠSp": 8924,
      "Ġanormal": 8925,
      "Ġdistribu": 8926,
      "EV": 8927,
      "ĠprÃ³xima": 8928,
      "Ġterminar": 8929,
      "________": 8930,
      "ĠdiseÃ±ado": 8931,
      "ĠGuÃŃa": 8932,
      "Ġconflicto": 8933,
      "ters": 8934,
      "Ġrecomiendan": 8935,
      "cados": 8936,
      "Ġexplican": 8937,
      "Ġtambien": 8938,
      "Ã¡gico": 8939,
      "Ġtronco": 8940,
      "axis": 8941,
      "Ġresponde": 8942,
      "Ġrecurso": 8943,
      "vante": 8944,
      "Ġintr": 8945,
      "ocial": 8946,
      "Ġvalv": 8947,
      "ween": 8948,
      "ĠejecuciÃ³n": 8949,
      "guay": 8950,
      "Ġcausada": 8951,
      "Ġmultidisciplinar": 8952,
      "ĠIr": 8953,
      "Ġrayos": 8954,
      "Ġfoco": 8955,
      "dices": 8956,
      "bano": 8957,
      "Ġadver": 8958,
      "Ġpuso": 8959,
      "ĠsistemÃ¡tica": 8960,
      "acos": 8961,
      "ĠCÃ³mo": 8962,
      "tibilidad": 8963,
      "ĠSolici": 8964,
      "tiasis": 8965,
      "ĠÃŃte": 8966,
      "Ġtoman": 8967,
      "Ġdependiente": 8968,
      "ĠSARS": 8969,
      "Ã¡is": 8970,
      "ierÃŃa": 8971,
      "ĠÃ©stas": 8972,
      "gulo": 8973,
      "ividad": 8974,
      "Ġinver": 8975,
      "iller": 8976,
      "flo": 8977,
      "Ġbucal": 8978,
      "Ġminimi": 8979,
      "Ġcontinuo": 8980,
      "uyeron": 8981,
      "Ġescolares": 8982,
      "Ġfibromialgia": 8983,
      "Ġdescubrir": 8984,
      "Ġcubier": 8985,
      "rugas": 8986,
      "Ġfic": 8987,
      "Ġultras": 8988,
      "teroides": 8989,
      "Ġoro": 8990,
      "Ġadecuadas": 8991,
      "Ġpescado": 8992,
      "psic": 8993,
      "ĠJun": 8994,
      "Ġaudio": 8995,
      "Ġagudas": 8996,
      "ingitis": 8997,
      "itud": 8998,
      "Ġinteligencia": 8999,
      "ĠcapÃŃtulo": 9000,
      "ĠCastro": 9001,
      "Ġcepas": 9002,
      "ĠDise": 9003,
      "ash": 9004,
      "Ġmalo": 9005,
      "pensaciÃ³n": 9006,
      "ĠirritaciÃ³n": 9007,
      "terna": 9008,
      ")-": 9009,
      "Ġfibrosis": 9010,
      "Ġretirada": 9011,
      "Ġuniversidades": 9012,
      "Ġcultivos": 9013,
      "abras": 9014,
      "Ġrecogida": 9015,
      "Ġ73": 9016,
      "ĠPerÃº": 9017,
      "Ġinger": 9018,
      "ĠVilla": 9019,
      "Ġenzimas": 9020,
      "Ġprobabilidades": 9021,
      "HS": 9022,
      "ĠaÃ±adido": 9023,
      "Ġreales": 9024,
      "Ġconservada": 9025,
      "ĠArch": 9026,
      "coccus": 9027,
      "Ġsale": 9028,
      "Ġsiglas": 9029,
      "witter": 9030,
      "ĠcuraciÃ³n": 9031,
      "Ġrutina": 9032,
      "Ġpis": 9033,
      "tÃŃculo": 9034,
      "tito": 9035,
      "Ġcontrato": 9036,
      "Ġpresidenta": 9037,
      "ser": 9038,
      "ĠSegun": 9039,
      "Ġfirma": 9040,
      "Ġrespal": 9041,
      "dy": 9042,
      ".),": 9043,
      "Ġcaracterizado": 9044,
      "ritÃ¡n": 9045,
      "ĠsistÃ©mica": 9046,
      "ĠAlon": 9047,
      "plante": 9048,
      "Ġespecializado": 9049,
      "Ġcontrolado": 9050,
      "Ġfavorece": 9051,
      "Ġdiarias": 9052,
      "goza": 9053,
      "ĠcelebraciÃ³n": 9054,
      "Ġplaquetas": 9055,
      "fre": 9056,
      "Ġmix": 9057,
      "Ġveo": 9058,
      "Ġleves": 9059,
      "Ġeficiente": 9060,
      "ĠcardÃŃaco": 9061,
      "ĠTanto": 9062,
      "tano": 9063,
      "PO": 9064,
      "dias": 9065,
      "ST": 9066,
      "Ġexterno": 9067,
      "picas": 9068,
      "Ġ77": 9069,
      "Ġdiversidad": 9070,
      "ĠcÃ³digo": 9071,
      "Ġcuadr": 9072,
      "ation": 9073,
      "trando": 9074,
      "ĠSatO": 9075,
      "istal": 9076,
      "Ġconsejero": 9077,
      "Ġcrepit": 9078,
      "Ġexperimental": 9079,
      "ĠvÃŃn": 9080,
      "ĠsÃºbi": 9081,
      "Ġbajar": 9082,
      "ĠActualizado": 9083,
      "ĠFal": 9084,
      "Ġvino": 9085,
      "Ġfeno": 9086,
      "Ġpese": 9087,
      "Ġorientada": 9088,
      "Ġmediana": 9089,
      "carga": 9090,
      "dador": 9091,
      "Ġobtiene": 9092,
      "Ġ76": 9093,
      "ĠRecom": 9094,
      "Ġextraordin": 9095,
      "ticulares": 9096,
      "Ġreferente": 9097,
      "copio": 9098,
      "Ġculpa": 9099,
      "vaciÃ³n": 9100,
      "ulitis": 9101,
      "Ġobservaron": 9102,
      "Ġayudas": 9103,
      "ĠÎ¼": 9104,
      "ĠCro": 9105,
[...]
